{
  "version": "1.0",
  "truncation": null,
  "padding": null,
  "added_tokens": [
    {
      "id": 0,
      "content": "<pad>",
      "single_word": false,
      "lstrip": false,
      "rstrip": false,
      "normalized": false,
      "special": true
    },
    {
      "id": 1,
      "content": "<unk>",
      "single_word": false,
      "lstrip": false,
      "rstrip": false,
      "normalized": false,
      "special": true
    },
    {
      "id": 2,
      "content": "<bos>",
      "single_word": false,
      "lstrip": false,
      "rstrip": false,
      "normalized": false,
      "special": true
    },
    {
      "id": 3,
      "content": "<eos>",
      "single_word": false,
      "lstrip": false,
      "rstrip": false,
      "normalized": false,
      "special": true
    }
  ],
  "normalizer": null,
  "pre_tokenizer": {
    "type": "ByteLevel",
    "add_prefix_space": false,
    "trim_offsets": true,
    "use_regex": true
  },
  "post_processor": null,
  "decoder": {
    "type": "ByteLevel",
    "add_prefix_space": true,
    "trim_offsets": true,
    "use_regex": true
  },
  "model": {
    "type": "BPE",
    "dropout": null,
    "unk_token": "<unk>",
    "continuing_subword_prefix": null,
    "end_of_word_suffix": null,
    "fuse_unk": false,
    "byte_fallback": false,
    "ignore_merges": false,
    "vocab": {
      "<pad>": 0,
      "<unk>": 1,
      "<bos>": 2,
      "<eos>": 3,
      "!": 4,
      "\"": 5,
      "#": 6,
      "$": 7,
      "%": 8,
      "&": 9,
      "'": 10,
      "(": 11,
      ")": 12,
      "*": 13,
      "+": 14,
      ",": 15,
      "-": 16,
      ".": 17,
      "/": 18,
      "0": 19,
      "1": 20,
      "2": 21,
      "3": 22,
      "4": 23,
      "5": 24,
      "6": 25,
      "7": 26,
      "8": 27,
      "9": 28,
      ":": 29,
      ";": 30,
      "<": 31,
      "=": 32,
      ">": 33,
      "?": 34,
      "@": 35,
      "A": 36,
      "B": 37,
      "C": 38,
      "D": 39,
      "E": 40,
      "F": 41,
      "G": 42,
      "H": 43,
      "I": 44,
      "J": 45,
      "K": 46,
      "L": 47,
      "M": 48,
      "N": 49,
      "O": 50,
      "P": 51,
      "Q": 52,
      "R": 53,
      "S": 54,
      "T": 55,
      "U": 56,
      "V": 57,
      "W": 58,
      "X": 59,
      "Y": 60,
      "Z": 61,
      "[": 62,
      "\\": 63,
      "]": 64,
      "^": 65,
      "_": 66,
      "`": 67,
      "a": 68,
      "b": 69,
      "c": 70,
      "d": 71,
      "e": 72,
      "f": 73,
      "g": 74,
      "h": 75,
      "i": 76,
      "j": 77,
      "k": 78,
      "l": 79,
      "m": 80,
      "n": 81,
      "o": 82,
      "p": 83,
      "q": 84,
      "r": 85,
      "s": 86,
      "t": 87,
      "u": 88,
      "v": 89,
      "w": 90,
      "x": 91,
      "y": 92,
      "z": 93,
      "{": 94,
      "|": 95,
      "}": 96,
      "~": 97,
      "¡": 98,
      "¢": 99,
      "£": 100,
      "¤": 101,
      "¥": 102,
      "¦": 103,
      "§": 104,
      "©": 105,
      "ª": 106,
      "«": 107,
      "¬": 108,
      "®": 109,
      "¯": 110,
      "°": 111,
      "±": 112,
      "²": 113,
      "³": 114,
      "µ": 115,
      "¶": 116,
      "·": 117,
      "¸": 118,
      "º": 119,
      "¼": 120,
      "½": 121,
      "¿": 122,
      "Â": 123,
      "Ã": 124,
      "Å": 125,
      "â": 126,
      "ï": 127,
      "ð": 128,
      "ĉ": 129,
      "Ċ": 130,
      "Ġ": 131,
      "Ģ": 132,
      "ģ": 133,
      "Ĥ": 134,
      "Ħ": 135,
      "ħ": 136,
      "Ĩ": 137,
      "ĩ": 138,
      "Ī": 139,
      "ī": 140,
      "Ĭ": 141,
      "ĭ": 142,
      "Į": 143,
      "į": 144,
      "İ": 145,
      "ı": 146,
      "Ĳ": 147,
      "ĳ": 148,
      "Ĵ": 149,
      "ĵ": 150,
      "Ķ": 151,
      "ĸ": 152,
      "Ĺ": 153,
      "ĺ": 154,
      "Ļ": 155,
      "ļ": 156,
      "ľ": 157,
      "Ŀ": 158,
      "ŀ": 159,
      "Ł": 160,
      "ł": 161,
      "Ń": 162,
      "ĠĠ": 163,
      "ĠĠĠĠ": 164,
      "in": 165,
      "on": 166,
      "er": 167,
      "Ġt": 168,
      "en": 169,
      "at": 170,
      "ĠĠĠ": 171,
      "or": 172,
      "Ġa": 173,
      "he": 174,
      "Ġc": 175,
      "re": 176,
      "le": 177,
      "ĠĠĠĠĠĠĠ": 178,
      "om": 179,
      "st": 180,
      "ad": 181,
      "Ġthe": 182,
      "al": 183,
      "it": 184,
      "ent": 185,
      "et": 186,
      "ou": 187,
      "ion": 188,
      "ic": 189,
      "Ġs": 190,
      "Ġf": 191,
      "ing": 192,
      "es": 193,
      "va": 194,
      "Ġp": 195,
      "an": 196,
      "ed": 197,
      "ar": 198,
      "ct": 199,
      "id": 200,
      "is": 201,
      "adin": 202,
      ");": 203,
      "ro": 204,
      "lo": 205,
      "Ġ{": 206,
      "mp": 207,
      "la": 208,
      "Ġd": 209,
      "Ġb": 210,
      "vaadin": 211,
      "ĠĠĠĠĠĠĠĠ": 212,
      "ation": 213,
      "el": 214,
      "ex": 215,
      "Ġ}": 216,
      "Ġto": 217,
      "ort": 218,
      "Ġin": 219,
      "Ġn": 220,
      "em": 221,
      "Ġw": 222,
      "ut": 223,
      "Ġan": 224,
      "ig": 225,
      "Ġm": 226,
      "Ġre": 227,
      "us": 228,
      "ate": 229,
      "imp": 230,
      "pp": 231,
      "me": 232,
      "omp": 233,
      "out": 234,
      "il": 235,
      "00": 236,
      "Ġo": 237,
      "()": 238,
      "ur": 239,
      "Ġ=": 240,
      "end": 241,
      "import": 242,
      "ew": 243,
      "ag": 244,
      "ss": 245,
      "ol": 246,
      "ot": 247,
      "Ġ<": 248,
      "onent": 249,
      "omponent": 250,
      "ont": 251,
      "ĠS": 252,
      "ers": 253,
      "lic": 254,
      "Ġth": 255,
      "Ġ1": 256,
      "Ġus": 257,
      "iv": 258,
      "low": 259,
      "ext": 260,
      "ue": 261,
      "Ġand": 262,
      "ac": 263,
      "Ġv": 264,
      "get": 265,
      "ĠT": 266,
      "um": 267,
      "ĠC": 268,
      "âĢ": 269,
      "od": 270,
      "Ġ'": 271,
      "Ġis": 272,
      "rid": 273,
      "as": 274,
      "Ġh": 275,
      "Ġfor": 276,
      "ul": 277,
      "ab": 278,
      "Ġst": 279,
      "eld": 280,
      "ield": 281,
      "ver": 282,
      "Ġcom": 283,
      "ay": 284,
      "ist": 285,
      "Ġpro": 286,
      "Ġfr": 287,
      "ame": 288,
      "(\"": 289,
      "ly": 290,
      "art": 291,
      "ment": 292,
      "ĠĠĠĠĠĠĠĠĠĠĠĠĠĠĠ": 293,
      "if": 294,
      "ĠA": 295,
      "ect": 296,
      "ub": 297,
      "ĠĠĠĠĠĠĠĠĠĠĠ": 298,
      "Ġ/": 299,
      "Ġof": 300,
      "set": 301,
      "ec": 302,
      "Ġfrom": 303,
      "ĠĠĠĠĠ": 304,
      "age": 305,
      "Ġy": 306,
      "alue": 307,
      "Ġit": 308,
      "ith": 309,
      "lass": 310,
      "ign": 311,
      "act": 312,
      "=\"": 313,
      "ess": 314,
      "Ġyou": 315,
      "Ġnew": 316,
      "It": 317,
      "Ġon": 318,
      "ter": 319,
      "ĠD": 320,
      "ĠL": 321,
      "av": 322,
      "ow": 323,
      "se": 324,
      "ava": 325,
      "ce": 326,
      "';": 327,
      "Ġcon": 328,
      "tr": 329,
      "Ġbe": 330,
      "iz": 331,
      "pt": 332,
      "Ġe": 333,
      "un": 334,
      "ĠV": 335,
      "lement": 336,
      "Ġapp": 337,
      "per": 338,
      "Ġwith": 339,
      "component": 340,
      "Ġ-": 341,
      "ĠP": 342,
      "flow": 343,
      "Item": 344,
      "ies": 345,
      "In": 346,
      "Ġ(": 347,
      "ch": 348,
      "ata": 349,
      "ton": 350,
      "utton": 351,
      "Ġ\"": 352,
      "::": 353,
      "Ġ//": 354,
      "bo": 355,
      "lay": 356,
      "Ġcan": 357,
      "ublic": 358,
      "th": 359,
      "ignal": 360,
      "Ġ|": 361,
      "Ġde": 362,
      "urn": 363,
      "Ġex": 364,
      "amp": 365,
      "Ġg": 366,
      "ust": 367,
      "ain": 368,
      "âĢĻ": 369,
      "Ġr": 370,
      "();": 371,
      "Ġor": 372,
      "Ġl": 373,
      "turn": 374,
      "ind": 375,
      "ack": 376,
      "Ġreturn": 377,
      "ample": 378,
      "erson": 379,
      "lab": 380,
      "iew": 381,
      "Ġclass": 382,
      "Ġ},": 383,
      "Ġwh": 384,
      "ĠU": 385,
      "Re": 386,
      "pe": 387,
      "dd": 388,
      "</": 389,
      "ayout": 390,
      "ser": 391,
      "Ġthat": 392,
      "[]": 393,
      "able": 394,
      "ri": 395,
      "The": 396,
      "ĠB": 397,
      "Ġas": 398,
      "add": 399,
      "lication": 400,
      "oun": 401,
      "ail": 402,
      "ult": 403,
      "ĠM": 404,
      "orm": 405,
      "ity": 406,
      "aadin": 407,
      "\");": 408,
      "vent": 409,
      "ir": 410,
      "ile": 411,
      "Layout": 412,
      "Field": 413,
      "ty": 414,
      "op": 415,
      "ĠH": 416,
      "fig": 417,
      "Ġal": 418,
      "Ġcomponent": 419,
      "lect": 420,
      "ustom": 421,
      "ge": 422,
      "ĠE": 423,
      "ption": 424,
      "ipp": 425,
      "Ġthis": 426,
      "am": 427,
      "load": 428,
      "ĠF": 429,
      "ure": 430,
      "ant": 431,
      "Ġuse": 432,
      "sp": 433,
      "Ġ@": 434,
      "Ġare": 435,
      "Java": 436,
      "Ġ.": 437,
      "ht": 438,
      "oc": 439,
      "and": 440,
      "\",": 441,
      "ord": 442,
      "0000": 443,
      "ĠVaadin": 444,
      "Name": 445,
      "ice": 446,
      "uct": 447,
      "nipp": 448,
      "nippet": 449,
      "im": 450,
      "\")": 451,
      "ap": 452,
      "Ġsh": 453,
      "ĠThe": 454,
      "Ġapplication": 455,
      "Ġset": 456,
      "ype": 457,
      "ide": 458,
      "Ser": 459,
      "ire": 460,
      "snippet": 461,
      "ode": 462,
      "Ġadd": 463,
      "up": 464,
      "Ġpr": 465,
      "Ġch": 466,
      "Ġpublic": 467,
      "ical": 468,
      "ener": 469,
      "olum": 470,
      "olumn": 471,
      "--": 472,
      "ject": 473,
      "Pro": 474,
      "Ġcont": 475,
      "row": 476,
      "ard": 477,
      "layout": 478,
      "ĠĠĠĠĠĠĠĠĠ": 479,
      "ender": 480,
      "Id": 481,
      "reate": 482,
      "tring": 483,
      "Ġser": 484,
      "est": 485,
      "gin": 486,
      "Ġitem": 487,
      "qu": 488,
      "ated": 489,
      "Signal": 490,
      "Ġby": 491,
      "ial": 492,
      "ivate": 493,
      "Element": 494,
      "po": 495,
      "Ġ'@": 496,
      "Ġsu": 497,
      "ib": 498,
      "Ġse": 499,
      "ring": 500,
      "ime": 501,
      "Ġ</": 502,
      "ip": 503,
      "ke": 504,
      "Ġprivate": 505,
      "Grid": 506,
      "oute": 507,
      "all": 508,
      "List": 509,
      "().": 510,
      "Ġlo": 511,
      "emo": 512,
      "ml": 513,
      "ore": 514,
      "gr": 515,
      "ication": 516,
      "java": 517,
      "ck": 518,
      "label": 519,
      "duct": 520,
      "vice": 521,
      "Ġext": 522,
      "ts": 523,
      "figur": 524,
      "Ġvalue": 525,
      "ator": 526,
      "cc": 527,
      "Ġuser": 528,
      "\">": 529,
      "ive": 530,
      "og": 531,
      "Ġdef": 532,
      "con": 533,
      "Ġend": 534,
      "item": 535,
      "ull": 536,
      "Ġyour": 537,
      "cri": 538,
      "ep": 539,
      "ild": 540,
      "ĠR": 541,
      "eth": 542,
      "demo": 543,
      "ve": 544,
      "yle": 545,
      "Ġ->": 546,
      "etail": 547,
      "form": 548,
      "essage": 549,
      "ends": 550,
      "Ġget": 551,
      "00000": 552,
      "ction": 553,
      "js": 554,
      "ault": 555,
      "value": 556,
      "enu": 557,
      "his": 558,
      "alid": 559,
      "Ġexample": 560,
      "ld": 561,
      "Ġfield": 562,
      "ight": 563,
      "li": 564,
      "ethod": 565,
      "Ġconst": 566,
      "Ġ12": 567,
      "âĢī": 568,
      "Ġwhen": 569,
      "Ġtr": 570,
      "put": 571,
      "com": 572,
      "ize": 573,
      "ory": 574,
      "pro": 575,
      "Ġif": 576,
      "app": 577,
      "field": 578,
      "ontend": 579,
      "ĠN": 580,
      "St": 581,
      "Value": 582,
      "ror": 583,
      "icon": 584,
      "ange": 585,
      "ĠI": 586,
      "Ġextends": 587,
      "Person": 588,
      "Ch": 589,
      "oriz": 590,
      "umo": 591,
      "Con": 592,
      "Ġnot": 593,
      "..": 594,
      "ud": 595,
      "vid": 596,
      "Ġdata": 597,
      "ick": 598,
      "ine": 599,
      "not": 600,
      "Ġover": 601,
      "Ġstyle": 602,
      "ĠSp": 603,
      "der": 604,
      "heck": 605,
      "Ġview": 606,
      "Ġinst": 607,
      "figuration": 608,
      "Ġup": 609,
      "ert": 610,
      "oot": 611,
      "Ġ2": 612,
      "ĠIn": 613,
      "to": 614,
      "${": 615,
      "Ġname": 616,
      "Data": 617,
      "Route": 618,
      "ontal": 619,
      "orizontal": 620,
      "oup": 621,
      "grid": 622,
      "react": 623,
      "ll": 624,
      "Ġproper": 625,
      "Ġlabel": 626,
      "Ġgrid": 627,
      ").": 628,
      "enc": 629,
      "ave": 630,
      "our": 631,
      "Ġmethod": 632,
      "ff": 633,
      "ere": 634,
      "olor": 635,
      "Ġne": 636,
      "public": 637,
      "',": 638,
      "Ġfol": 639,
      "let": 640,
      "Ġcustom": 641,
      "irst": 642,
      "are": 643,
      "Ġfile": 644,
      "ould": 645,
      "Ġvaadin": 646,
      "ĠW": 647,
      "ang": 648,
      "ride": 649,
      "Ġht": 650,
      "int": 651,
      "ification": 652,
      "ath": 653,
      "Event": 654,
      "Ġtag": 655,
      "En": 656,
      "Button": 657,
      "box": 658,
      "={": 659,
      "port": 660,
      "Ġaut": 661,
      "oid": 662,
      "sit": 663,
      "Ġusing": 664,
      "root": 665,
      "Ex": 666,
      "Cont": 667,
      "div": 668,
      "Ġdis": 669,
      "ĠO": 670,
      "Ġneed": 671,
      "ach": 672,
      "ase": 673,
      "ected": 674,
      "ber": 675,
      "Ġtext": 676,
      "ĠRe": 677,
      "Ġcreate": 678,
      "lot": 679,
      "));": 680,
      "You": 681,
      "Ġsp": 682,
      "//": 683,
      "ork": 684,
      "ura": 685,
      "View": 686,
      "ress": 687,
      "rontend": 688,
      "ilter": 689,
      "Ġtype": 690,
      "Service": 691,
      "ptions": 692,
      "Text": 693,
      "ĠJava": 694,
      "ĠPro": 695,
      "illa": 696,
      "ions": 697,
      "ast": 698,
      "ĠString": 699,
      "Ġdefault": 700,
      "Ġform": 701,
      "ccess": 702,
      "icker": 703,
      "ĠEx": 704,
      "lit": 705,
      "Ġat": 706,
      "To": 707,
      "Ġva": 708,
      "aram": 709,
      "âĢĶ": 710,
      "Ġ*": 711,
      "fer": 712,
      "ates": 713,
      "ties": 714,
      "Ġused": 715,
      "Ġcomponents": 716,
      "Render": 717,
      "unction": 718,
      "ass": 719,
      "res": 720,
      "ound": 721,
      "board": 722,
      "Ġfollow": 723,
      "Ġ--": 724,
      "ef": 725,
      "ash": 726,
      "ich": 727,
      "uild": 728,
      "Column": 729,
      "Ġlist": 730,
      "button": 731,
      "read": 732,
      "inal": 733,
      "own": 734,
      "ackage": 735,
      "urr": 736,
      "ther": 737,
      "itle": 738,
      "Theme": 739,
      "abel": 740,
      "String": 741,
      "Ġvoid": 742,
      "ĠThis": 743,
      "Ġsc": 744,
      "ĠLumo": 745,
      "Ġselect": 746,
      "ĠUI": 747,
      "eb": 748,
      "ount": 749,
      "ĠAura": 750,
      "Ġhe": 751,
      "endenc": 752,
      "Items": 753,
      "inder": 754,
      "ible": 755,
      "ession": 756,
      "Ġprot": 757,
      "over": 758,
      "ertical": 759,
      "idget": 760,
      "Ġen": 761,
      "ecur": 762,
      "etails": 763,
      "ĠĠĠĠĠĠĠĠĠĠĠĠĠĠĠĠĠĠĠ": 764,
      "ee": 765,
      "abled": 766,
      "Ġ15": 767,
      "odel": 768,
      "date": 769,
      "ecurity": 770,
      "Ġelement": 771,
      "ĠJ": 772,
      "ople": 773,
      "error": 774,
      "ans": 775,
      "text": 776,
      "aramet": 777,
      "new": 778,
      "ary": 779,
      "rowser": 780,
      "Label": 781,
      "urrent": 782,
      "ak": 783,
      "ĠGrid": 784,
      "Ġ=>": 785,
      "que": 786,
      "ĠG": 787,
      "so": 788,
      "side": 789,
      "ader": 790,
      "lick": 791,
      "avig": 792,
      "Ġitems": 793,
      "Ġevent": 794,
      "Ġserver": 795,
      "Ġhtml": 796,
      "elect": 797,
      "Ġun": 798,
      "Ġcomp": 799,
      "Ġdep": 800,
      "outer": 801,
      "umber": 802,
      "cl": 803,
      "ersion": 804,
      "pport": 805,
      "Ġ3": 806,
      "Ġapply": 807,
      "Ġprotected": 808,
      "ance": 809,
      "class": 810,
      "ĠLit": 811,
      "Frontend": 812,
      "ashboard": 813,
      "ari": 814,
      "Ġfollowing": 815,
      "ace": 816,
      "ĠDiv": 817,
      "Ġtheme": 818,
      "());": 819,
      "Ġshould": 820,
      "quire": 821,
      "idth": 822,
      "Ġroot": 823,
      "Ġinter": 824,
      "Ġtest": 825,
      "ument": 826,
      "lient": 827,
      "ility": 828,
      "bject": 829,
      "Ġoverride": 830,
      "Ġ/>": 831,
      "Form": 832,
      "quest": 833,
      "Ġhas": 834,
      "Series": 835,
      "ual": 836,
      "vider": 837,
      "âĶ": 838,
      "te": 839,
      "orizontalLayout": 840,
      "Ġ0": 841,
      "eople": 842,
      "anag": 843,
      "SS": 844,
      "name": 845,
      "Ġdo": 846,
      "arts": 847,
      "order": 848,
      "Ġpre": 849,
      "Ġrender": 850,
      "ox": 851,
      "Ġ14": 852,
      "Ġsignal": 853,
      "oo": 854,
      "pen": 855,
      "ialog": 856,
      "Ġstat": 857,
      "Ġimp": 858,
      "Not": 859,
      "hen": 860,
      "Ġonly": 861,
      "span": 862,
      "ĠExample": 863,
      "Ġcall": 864,
      "Ġproject": 865,
      "Ġres": 866,
      "cript": 867,
      "Ġall": 868,
      "ix": 869,
      "18": 870,
      "back": 871,
      "ating": 872,
      "Ġbutton": 873,
      "erticalLayout": 874,
      "sh": 875,
      "itor": 876,
      "Ġwhich": 877,
      "Ġhave": 878,
      "components": 879,
      "ĠĠĠĠĠĠĠĠĠĠĠĠĠĠĠĠĠĠĠĠĠĠĠ": 880,
      "Component": 881,
      "ger": 882,
      "heet": 883,
      "ĠLitElement": 884,
      "Ġmore": 885,
      "Ġlayout": 886,
      "ically": 887,
      "Ġany": 888,
      "notation": 889,
      "irect": 890,
      "Ġrun": 891,
      "lable": 892,
      "ost": 893,
      "ĠList": 894,
      "),": 895,
      "Ġits": 896,
      "Ġ>": 897,
      "Ġid": 898,
      "this": 899,
      "omain": 900,
      "Ġ17": 901,
      "atar": 902,
      "ax": 903,
      "Ġhow": 904,
      "Type": 905,
      "Root": 906,
      "ues": 907,
      "ĠSpring": 908,
      "ĠPerson": 909,
      "Date": 910,
      "cont": 911,
      "Listener": 912,
      "ree": 913,
      "les": 914,
      "ous": 915,
      "Ġcontent": 916,
      "package": 917,
      "Ġsub": 918,
      "ecut": 919,
      "heckbox": 920,
      "Ġconfiguration": 921,
      "ĠButton": 922,
      "ces": 923,
      "ages": 924,
      "yn": 925,
      "lu": 926,
      "Ġjava": 927,
      "Ġalso": 928,
      "point": 929,
      "Ġpath": 930,
      "ark": 931,
      "hent": 932,
      "ature": 933,
      "Ġ`": 934,
      "Ġpage": 935,
      "PI": 936,
      "ling": 937,
      "Ġvar": 938,
      "led": 939,
      "('": 940,
      "Ġ5": 941,
      "Ġimplement": 942,
      "erm": 943,
      "Ġexp": 944,
      "create": 945,
      "ariant": 946,
      "play": 947,
      "tp": 948,
      "Ġar": 949,
      "export": 950,
      "Ġvalid": 951,
      "ĠText": 952,
      "Ġ-->": 953,
      "!--": 954,
      "str": 955,
      "Ġpo": 956,
      "RenderRoot": 957,
      "Ġ+": 958,
      "alse": 959,
      "ĠapplyTheme": 960,
      "Ġ4": 961,
      "Select": 962,
      "clud": 963,
      "Ġle": 964,
      "ence": 965,
      "group": 966,
      "ecif": 967,
      "html": 968,
      "ocument": 969,
      "one": 970,
      "Sty": 971,
      "Ġother": 972,
      "custom": 973,
      "time": 974,
      "ĠComponent": 975,
      "rop": 976,
      "Ġproperty": 977,
      "Ġso": 978,
      "Icon": 979,
      "Ġ<!--": 980,
      "key": 981,
      "enerated": 982,
      "ffect": 983,
      "Ġstate": 984,
      "Ġproperties": 985,
      "ĠYou": 986,
      "ting": 987,
      "Ġsupport": 988,
      "eature": 989,
      "roup": 990,
      "Ġ});": 991,
      "Variant": 992,
      "ER": 993,
      "ĠFor": 994,
      "person": 995,
      "Ġlog": 996,
      "the": 997,
      "Flow": 998,
      "Ġbrowser": 999,
      "ection": 1000,
      "Picker": 1001,
      "wing": 1002,
      "lugin": 1003,
      "Ġchang": 1004,
      "ome": 1005,
      "Sp": 1006,
      "ond": 1007,
      "domain": 1008,
      "ong": 1009,
      "Ġback": 1010,
      "Ġwr": 1011,
      "column": 1012,
      "Ġerror": 1013,
      "Ġone": 1014,
      "Ġdes": 1015,
      "AR": 1016,
      "loy": 1017,
      "Options": 1018,
      "rud": 1019,
      "arch": 1020,
      "ĠReact": 1021,
      "ell": 1022,
      "cal": 1023,
      "endency": 1024,
      "alues": 1025,
      "Ġicon": 1026,
      "ery": 1027,
      "word": 1028,
      "oug": 1029,
      "ĠAPI": 1030,
      "Box": 1031,
      "pload": 1032,
      "Ġ[": 1033,
      "He": 1034,
      "formation": 1035,
      "arget": 1036,
      "mo": 1037,
      "Ġcontain": 1038,
      "12": 1039,
      "ough": 1040,
      "Script": 1041,
      "ĠIt": 1042,
      "isible": 1043,
      "Ġparamet": 1044,
      "Ġannotation": 1045,
      "items": 1046,
      "Ġtime": 1047,
      "Ġproduct": 1048,
      "Ġfinal": 1049,
      "Ġclient": 1050,
      "adding": 1051,
      "Al": 1052,
      "ĠCh": 1053,
      "figure": 1054,
      "assword": 1055,
      "Ġthem": 1056,
      "Ġsame": 1057,
      "router": 1058,
      "Ġinto": 1059,
      "Ġ6": 1060,
      "last": 1061,
      "labor": 1062,
      "Ġrequire": 1063,
      "User": 1064,
      "Ġload": 1065,
      "=\"${": 1066,
      "yst": 1067,
      "ountr": 1068,
      "ollabor": 1069,
      "Ġaccess": 1070,
      "ĠCon": 1071,
      "gist": 1072,
      "lean": 1073,
      "Ġread": 1074,
      "example": 1075,
      "ystem": 1076,
      "Ġbuild": 1077,
      "Over": 1078,
      "asic": 1079,
      "dep": 1080,
      "Ġfirst": 1081,
      "anager": 1082,
      "Time": 1083,
      "ask": 1084,
      "Ġnull": 1085,
      "Ġent": 1086,
      "adi": 1087,
      "Ġcomm": 1088,
      "Ġstatic": 1089,
      "hentication": 1090,
      "Ġstart": 1091,
      "React": 1092,
      "Provider": 1093,
      "aven": 1094,
      "roll": 1095,
      "sition": 1096,
      "line": 1097,
      "lex": 1098,
      "Ġcode": 1099,
      "tip": 1100,
      "oltip": 1101,
      "true": 1102,
      "avigation": 1103,
      "tern": 1104,
      "Message": 1105,
      "Ġ*/": 1106,
      "Vaadin": 1107,
      "email": 1108,
      "ollaboration": 1109,
      "Ġobject": 1110,
      "ays": 1111,
      "bar": 1112,
      "yp": 1113,
      "For": 1114,
      "oth": 1115,
      "ĠData": 1116,
      "Ġqu": 1117,
      "perty": 1118,
      "che": 1119,
      "ource": 1120,
      "select": 1121,
      "Lit": 1122,
      "color": 1123,
      "Ġhand": 1124,
      "ON": 1125,
      "This": 1126,
      "ake": 1127,
      "input": 1128,
      "Ġwork": 1129,
      "ifact": 1130,
      "ground": 1131,
      "ĠCSS": 1132,
      "ception": 1133,
      "tsx": 1134,
      "ear": 1135,
      "Menu": 1136,
      "ink": 1137,
      "ĠApp": 1138,
      "<>": 1139,
      "ĠHilla": 1140,
      "part": 1141,
      "face": 1142,
      "Ġdirect": 1143,
      "IN": 1144,
      "Class": 1145,
      "Ġmessage": 1146,
      "we": 1147,
      "ream": 1148,
      "Ġ11": 1149,
      "Ġ16": 1150,
      "Ġab": 1151,
      "ra": 1152,
      "Ġcolumn": 1153,
      "(),": 1154,
      "ators": 1155,
      "rag": 1156,
      "adge": 1157,
      "Ġstring": 1158,
      "ning": 1159,
      "')": 1160,
      "Ġ);": 1161,
      "Ġinformation": 1162,
      "atch": 1163,
      "lace": 1164,
      "ased": 1165,
      "px": 1166,
      "Ġdisplay": 1167,
      "ML": 1168,
      "Ġno": 1169,
      "Ġallow": 1170,
      "ill": 1171,
      "Ġ10": 1172,
      "ĠIf": 1173,
      "ations": 1174,
      "Ġdocument": 1175,
      "omat": 1176,
      "mpl": 1177,
      "for": 1178,
      "Product": 1179,
      "Ġrequest": 1180,
      "Ġprovid": 1181,
      "reen": 1182,
      "older": 1183,
      "ocus": 1184,
      "velo": 1185,
      "Ġfunction": 1186,
      "Ġvalues": 1187,
      "Ġsuch": 1188,
      "mail": 1189,
      "util": 1190,
      "Change": 1191,
      "xis": 1192,
      "Ġ&": 1193,
      "An": 1194,
      "Widget": 1195,
      "sing": 1196,
      "Ġmod": 1197,
      "view": 1198,
      "fter": 1199,
      "Ġshow": 1200,
      "ĠTextField": 1201,
      "theme": 1202,
      "Ġchanges": 1203,
      "Context": 1204,
      "Ġli": 1205,
      "ĠSt": 1206,
      "ifactId": 1207,
      "Add": 1208,
      "function": 1209,
      "inding": 1210,
      "âĶĢ": 1211,
      "ined": 1212,
      "\"></": 1213,
      "groupId": 1214,
      "ĠĠĠĠĠĠĠĠĠĠĠĠĠ": 1215,
      "artifactId": 1216,
      "ĠHT": 1217,
      "rror": 1218,
      "aut": 1219,
      "ateg": 1220,
      "work": 1221,
      "sheet": 1222,
      "ĠK": 1223,
      "/*": 1224,
      "Ġinstance": 1225,
      "Style": 1226,
      "Ġcurrent": 1227,
      "Ġfilter": 1228,
      "only": 1229,
      "Ġautomat": 1230,
      "Ġsuper": 1231,
      "map": 1232,
      "trib": 1233,
      "tribut": 1234,
      "Ġconfigure": 1235,
      "boBox": 1236,
      "ilable": 1237,
      "ider": 1238,
      "ier": 1239,
      "Ġperson": 1240,
      "fo": 1241,
      "Sh": 1242,
      "ializ": 1243,
      "Ġspecif": 1244,
      "By": 1245,
      "Ġper": 1246,
      "ources": 1247,
      "vatar": 1248,
      "On": 1249,
      "ĠNot": 1250,
      "Ġcolor": 1251,
      "Ġ}}": 1252,
      "80": 1253,
      "ĠFlow": 1254,
      "Ġlike": 1255,
      "bind": 1256,
      "hilla": 1257,
      "ownload": 1258,
      "Ġtyp": 1259,
      "Ġservice": 1260,
      "Ġ`;": 1261,
      "ref": 1262,
      "emb": 1263,
      "perties": 1264,
      "ler": 1265,
      "ĠSpan": 1266,
      "ite": 1267,
      "version": 1268,
      "als": 1269,
      "Ġdate": 1270,
      "Property": 1271,
      "Mode": 1272,
      "ule": 1273,
      "Ġkey": 1274,
      "ache": 1275,
      "Ġslot": 1276,
      "Aut": 1277,
      "rol": 1278,
      "End": 1279,
      "Group": 1280,
      "ountry": 1281,
      "ead": 1282,
      "AL": 1283,
      "Ġinclud": 1284,
      "Note": 1285,
      "Ed": 1286,
      "Ġcre": 1287,
      "ition": 1288,
      "Ġchart": 1289,
      "Ġrow": 1290,
      "Nav": 1291,
      "data": 1292,
      "edit": 1293,
      "ĠVerticalLayout": 1294,
      "Div": 1295,
      "cription": 1296,
      "ruct": 1297,
      "Ġdoes": 1298,
      "ĠTo": 1299,
      "Ġapplications": 1300,
      "Ġpeople": 1301,
      "Res": 1302,
      "Ġj": 1303,
      "vailable": 1304,
      "ĠSh": 1305,
      "ved": 1306,
      "resent": 1307,
      "Filter": 1308,
      "Ġupd": 1309,
      "OM": 1310,
      "Ġnumber": 1311,
      "Sc": 1312,
      "ean": 1313,
      "...": 1314,
      "Or": 1315,
      "Ġout": 1316,
      "ĠHorizontalLayout": 1317,
      "Ġautomatically": 1318,
      "image": 1319,
      "count": 1320,
      "Ġdif": 1321,
      "ultip": 1322,
      "posit": 1323,
      "Ġmin": 1324,
      "Ġeach": 1325,
      "picker": 1326,
      "Ġbut": 1327,
      "ey": 1328,
      "efault": 1329,
      "Header": 1330,
      "App": 1331,
      "cess": 1332,
      "File": 1333,
      "sc": 1334,
      "vi": 1335,
      "ons": 1336,
      "cord": 1337,
      "Ġman": 1338,
      "velop": 1339,
      "Bar": 1340,
      "par": 1341,
      "valid": 1342,
      "ingle": 1343,
      "ared": 1344,
      "People": 1345,
      "Ġinput": 1346,
      "opover": 1347,
      "atus": 1348,
      "lete": 1349,
      "use": 1350,
      "Ġmay": 1351,
      "oolean": 1352,
      "lastName": 1353,
      "If": 1354,
      "Ġ125": 1355,
      "Override": 1356,
      "adio": 1357,
      "Ġ124": 1358,
      "mit": 1359,
      "ĠUser": 1360,
      "Ġvari": 1361,
      "amework": 1362,
      "Ġbet": 1363,
      "400000": 1364,
      "Loc": 1365,
      "Ġmethods": 1366,
      "Ġfiles": 1367,
      "Error": 1368,
      "gress": 1369,
      "ĠProduct": 1370,
      "Details": 1371,
      "ia": 1372,
      "Ġgener": 1373,
      "600000": 1374,
      "Axis": 1375,
      "Ġtarget": 1376,
      "event": 1377,
      "Ġtrue": 1378,
      "irstName": 1379,
      "000000": 1380,
      "dex": 1381,
      "ever": 1382,
      "ative": 1383,
      "ecor": 1384,
      "Renderer": 1385,
      "://": 1386,
      "Custom": 1387,
      "fore": 1388,
      "Ġopen": 1389,
      "Title": 1390,
      "Ġmenu": 1391,
      "Ġsee": 1392,
      "Ġhel": 1393,
      "pository": 1394,
      "wo": 1395,
      "ok": 1396,
      "Ġavailable": 1397,
      "ĠCustom": 1398,
      "ify": 1399,
      "indow": 1400,
      "Qu": 1401,
      "mary": 1402,
      "start": 1403,
      "ble": 1404,
      "menu": 1405,
      "ob": 1406,
      "vel": 1407,
      "Size": 1408,
      "model": 1409,
      "Ġdocumentation": 1410,
      "user": 1411,
      "acing": 1412,
      "abs": 1413,
      "lotOptions": 1414,
      "ĠForm": 1415,
      "ĠDate": 1416,
      "Ġfields": 1417,
      "ordered": 1418,
      "rough": 1419,
      "Ġfeature": 1420,
      "ĠSwing": 1421,
      "Ġchange": 1422,
      "omboBox": 1423,
      "ĠSee": 1424,
      "Ġdetails": 1425,
      "Ġremo": 1426,
      "ference": 1427,
      "10": 1428,
      "customElement": 1429,
      "Ġusers": 1430,
      "endencies": 1431,
      "decor": 1432,
      "Ġselected": 1433,
      "fession": 1434,
      "generated": 1435,
      "Ġroute": 1436,
      "\"));": 1437,
      "Ġ123": 1438,
      "Comp": 1439,
      "Hand": 1440,
      "When": 1441,
      "Ġ8": 1442,
      "Ġ${": 1443,
      "Ġresp": 1444,
      "spring": 1445,
      "ween": 1446,
      "dic": 1447,
      "())": 1448,
      "charts": 1449,
      "(--": 1450,
      "ern": 1451,
      "Ġint": 1452,
      "800000": 1453,
      "}\"": 1454,
      "ĠAn": 1455,
      "HorizontalLayout": 1456,
      "wn": 1457,
      "Ġass": 1458,
      "vlet": 1459,
      "ely": 1460,
      "ĠType": 1461,
      "pos": 1462,
      "econd": 1463,
      "Ġwhere": 1464,
      "of": 1465,
      "teger": 1466,
      "AT": 1467,
      "Test": 1468,
      "main": 1469,
      "Ġtitle": 1470,
      "Ġweb": 1471,
      "ĠcustomElement": 1472,
      "Ġwithout": 1473,
      "ĠID": 1474,
      "ted": 1475,
      "Ġ7": 1476,
      "Ġthey": 1477,
      "ĠSer": 1478,
      "Ġthrough": 1479,
      "imal": 1480,
      "Ġparameter": 1481,
      "decorators": 1482,
      "All": 1483,
      "my": 1484,
      "Ġversion": 1485,
      "Ġformat": 1486,
      "RL": 1487,
      "Un": 1488,
      "VerticalLayout": 1489,
      "less": 1490,
      "Ġvis": 1491,
      "Ġad": 1492,
      "ĠuseSignal": 1493,
      "Email": 1494,
      "Ġresult": 1495,
      "dependency": 1496,
      "Ġthere": 1497,
      "Ġ...": 1498,
      "dis": 1499,
      "ens": 1500,
      "comp": 1501,
      "ĠUse": 1502,
      "Ġnotification": 1503,
      "ridge": 1504,
      "Ġdiffer": 1505,
      "false": 1506,
      "ices": 1507,
      "ration": 1508,
      "ideNav": 1509,
      "css": 1510,
      "ale": 1511,
      "Ġexecut": 1512,
      "with": 1513,
      "anel": 1514,
      "((": 1515,
      "size": 1516,
      "Example": 1517,
      "orderedlayout": 1518,
      "Sub": 1519,
      "product": 1520,
      ".,": 1521,
      "20": 1522,
      "ĠAdd": 1523,
      "200000": 1524,
      "ogin": 1525,
      "ĠcreateRenderRoot": 1526,
      "Ġclick": 1527,
      "pr": 1528,
      "Ġmain": 1529,
      "ignals": 1530,
      "ulti": 1531,
      "Ġhttp": 1532,
      "mplate": 1533,
      "Ġ18": 1534,
      "createRenderRoot": 1535,
      "orre": 1536,
      "ultiple": 1537,
      "EN": 1538,
      "UI": 1539,
      "dashboard": 1540,
      "igh": 1541,
      "ied": 1542,
      "Ġact": 1543,
      "Ġmode": 1544,
      "Ġlocal": 1545,
      "Ġinstead": 1546,
      "ry": 1547,
      "ĠEn": 1548,
      "Ġcheck": 1549,
      "Ġthese": 1550,
      "aster": 1551,
      "25": 1552,
      "Info": 1553,
      "plugin": 1554,
      "ĠâĢĶ": 1555,
      "atal": 1556,
      "Ġtheir": 1557,
      "Configuration": 1558,
      "ST": 1559,
      "Ġ:": 1560,
      "Ġsession": 1561,
      "setHeader": 1562,
      "vious": 1563,
      "atalog": 1564,
      "Ġafter": 1565,
      "ilt": 1566,
      "Chart": 1567,
      "At": 1568,
      "Dec": 1569,
      "ĠUpload": 1570,
      "fr": 1571,
      "file": 1572,
      "arent": 1573,
      "Ġviews": 1574,
      "Width": 1575,
      "Ġdifferent": 1576,
      "Ġbinder": 1577,
      "Ġcontext": 1578,
      "==": 1579,
      "Click": 1580,
      "Ġown": 1581,
      "Exception": 1582,
      "ĠHTML": 1583,
      "ames": 1584,
      "Vis": 1585,
      "ints": 1586,
      "ĠURL": 1587,
      "Up": 1588,
      "Ġtwo": 1589,
      "Ġfalse": 1590,
      "mpty": 1591,
      "irm": 1592,
      "combo": 1593,
      "TextField": 1594,
      "Ġrep": 1595,
      "Ġdialog": 1596,
      "Ġseries": 1597,
      "ategory": 1598,
      "Ġconf": 1599,
      "Manager": 1600,
      "Ġsingle": 1601,
      "Handler": 1602,
      "ful": 1603,
      "ĠCont": 1604,
      "Ġacc": 1605,
      "Ġnavigation": 1606,
      "ĠItem": 1607,
      "tribute": 1608,
      "Ġtop": 1609,
      "Ġbetween": 1610,
      "horizontal": 1611,
      "DataProvider": 1612,
      "Ġside": 1613,
      "Ġuses": 1614,
      "cept": 1615,
      "Ġinterface": 1616,
      "Ġabout": 1617,
      "ush": 1618,
      "34": 1619,
      "rc": 1620,
      "Content": 1621,
      "velopment": 1622,
      "Ġoptions": 1623,
      "Security": 1624,
      "ĠComp": 1625,
      "Ġbefore": 1626,
      "Ġorg": 1627,
      "raw": 1628,
      "Ġte": 1629,
      "Ġtask": 1630,
      "ĠHow": 1631,
      "gine": 1632,
      "vers": 1633,
      "lock": 1634,
      "Ġcons": 1635,
      "idd": 1636,
      "ĠValue": 1637,
      "Key": 1638,
      "Ġupdate": 1639,
      "Th": 1640,
      "imit": 1641,
      "gistration": 1642,
      "Ġk": 1643,
      "adle": 1644,
      "Ġlogin": 1645,
      "ĠTypeScript": 1646,
      "Pre": 1647,
      "lose": 1648,
      "upload": 1649,
      "Ġscreen": 1650,
      "Ġchild": 1651,
      "(()": 1652,
      "Dis": 1653,
      "min": 1654,
      "test": 1655,
      "Ġclasses": 1656,
      "crib": 1657,
      "anged": 1658,
      "ync": 1659,
      "lumo": 1660,
      "cent": 1661,
      "ray": 1662,
      "vert": 1663,
      "lider": 1664,
      "Non": 1665,
      "Ġwant": 1666,
      "Ġfrontend": 1667,
      "mall": 1668,
      "Ġtool": 1669,
      "Ġtrans": 1670,
      "ities": 1671,
      "Ġbu": 1672,
      "ipping": 1673,
      "Ġheader": 1674,
      "ME": 1675,
      "Valid": 1676,
      "rap": 1677,
      "ĠBinder": 1678,
      "rows": 1679,
      "ĠgetPeople": 1680,
      "notification": 1681,
      "OR": 1682,
      "Ġimport": 1683,
      "Ġthan": 1684,
      "umb": 1685,
      "setP": 1686,
      "Input": 1687,
      "build": 1688,
      "\"),": 1689,
      "ĠWeb": 1690,
      "mploy": 1691,
      "ock": 1692,
      "Page": 1693,
      "Ġsystem": 1694,
      "ĠMy": 1695,
      "ĠWhen": 1696,
      "Open": 1697,
      "ced": 1698,
      "Ġcase": 1699,
      "ement": 1700,
      "action": 1701,
      "avatar": 1702,
      "uration": 1703,
      "very": 1704,
      "\";": 1705,
      "Ut": 1706,
      "firstName": 1707,
      "atab": 1708,
      "ĠMaven": 1709,
      "Ġdoesn": 1710,
      "ait": 1711,
      "Ġemail": 1712,
      "ĠChart": 1713,
      "99": 1714,
      "Ġ[]": 1715,
      "DataService": 1716,
      "Upload": 1717,
      "Ġmultiple": 1718,
      "Ġstor": 1719,
      "Ġauthentication": 1720,
      "ĠSet": 1721,
      "Hel": 1722,
      "ors": 1723,
      "Ġsome": 1724,
      "nection": 1725,
      "Ġinit": 1726,
      "essages": 1727,
      "itional": 1728,
      "signals": 1729,
      "Effect": 1730,
      "ĠTest": 1731,
      "ĠNotification": 1732,
      "message": 1733,
      "Ġcorre": 1734,
      "roller": 1735,
      "Last": 1736,
      "Model": 1737,
      "null": 1738,
      "Ġmust": 1739,
      "antt": 1740,
      "Ġsetting": 1741,
      "Align": 1742,
      "ĠSecurity": 1743,
      "embers": 1744,
      "Ġsize": 1745,
      "uted": 1746,
      "ĠSignal": 1747,
      "refix": 1748,
      "ause": 1749,
      "checkbox": 1750,
      "Ġedit": 1751,
      "addColumn": 1752,
      "SeriesItem": 1753,
      "Ur": 1754,
      "Ġac": 1755,
      "Ġbased": 1756,
      "akes": 1757,
      "Full": 1758,
      "ie": 1759,
      "Ġrequired": 1760,
      "<>(": 1761,
      "Ġoff": 1762,
      "server": 1763,
      "Ġcallback": 1764,
      "Ġspecific": 1765,
      "Url": 1766,
      "card": 1767,
      "Ġ13": 1768,
      "ĠBoot": 1769,
      "14": 1770,
      "Catalog": 1771,
      "Inst": 1772,
      "ptional": 1773,
      "resh": 1774,
      "Ġpart": 1775,
      "Status": 1776,
      "Ġvalidation": 1777,
      "list": 1778,
      "width": 1779,
      "Ġ!": 1780,
      "Ġ?": 1781,
      "Ġway": 1782,
      "onsive": 1783,
      "ope": 1784,
      "onse": 1785,
      "ized": 1786,
      "ually": 1787,
      "\":": 1788,
      "Ġelements": 1789,
      "Ġallows": 1790,
      "Bean": 1791,
      "Ġmake": 1792,
      "itors": 1793,
      "nect": 1794,
      "vide": 1795,
      "Ġprovides": 1796,
      "Decimal": 1797,
      "50": 1798,
      "lear": 1799,
      "Ġwidth": 1800,
      "Of": 1801,
      "attern": 1802,
      "current": 1803,
      "detail": 1804,
      "ren": 1805,
      "Ġfont": 1806,
      "Ġpackage": 1807,
      "Endpoint": 1808,
      "ines": 1809,
      "Ġcol": 1810,
      "Ġdet": 1811,
      "Ġgo": 1812,
      "pm": 1813,
      "Ġpass": 1814,
      "Ġboth": 1815,
      "Configur": 1816,
      "basic": 1817,
      "cel": 1818,
      "ading": 1819,
      "Ġbackground": 1820,
      "crud": 1821,
      "ron": 1822,
      "Ġstyles": 1823,
      "Ġupload": 1824,
      "nav": 1825,
      "ibility": 1826,
      "content": 1827,
      "With": 1828,
      "Ġaction": 1829,
      "state": 1830,
      "ĠDOM": 1831,
      "ierarch": 1832,
      "Ġfull": 1833,
      "upport": 1834,
      "igDecimal": 1835,
      "ĠKit": 1836,
      "Sort": 1837,
      "alled": 1838,
      "ict": 1839,
      "Ġdon": 1840,
      "Ġtests": 1841,
      "Ġel": 1842,
      "Ġme": 1843,
      "Ġoper": 1844,
      "Ġmodel": 1845,
      "day": 1846,
      "Ġref": 1847,
      "ĠMenu": 1848,
      "Ġbec": 1849,
      "ular": 1850,
      "Imp": 1851,
      "Ġthen": 1852,
      "rawer": 1853,
      "Ġprovide": 1854,
      "={{": 1855,
      "shot": 1856,
      "16": 1857,
      "Color": 1858,
      "Ġbinding": 1859,
      "ech": 1860,
      "her": 1861,
      "ended": 1862,
      "Ġloc": 1863,
      "ĠLayout": 1864,
      "Js": 1865,
      "hip": 1866,
      "outes": 1867,
      "ĠuseEffect": 1868,
      "embership": 1869,
      "title": 1870,
      "any": 1871,
      "Ġcolumns": 1872,
      "Visible": 1873,
      "frontend": 1874,
      "ged": 1875,
      "Ġplugin": 1876,
      "argin": 1877,
      "ending": 1878,
      "Ġsecurity": 1879,
      "Ġisn": 1880,
      "âĶĢâĶĢ": 1881,
      "ater": 1882,
      "Notification": 1883,
      "xy": 1884,
      "ĠX": 1885,
      "ered": 1886,
      "Start": 1887,
      "Config": 1888,
      "ĠSty": 1889,
      "allback": 1890,
      "Number": 1891,
      "isting": 1892,
      "Ġparameters": 1893,
      "Ġupdates": 1894,
      "Po": 1895,
      "ases": 1896,
      "Ref": 1897,
      "Repository": 1898,
      "apper": 1899,
      "Ġwould": 1900,
      "First": 1901,
      "}</": 1902,
      "login": 1903,
      "Ġrecord": 1904,
      "laceh": 1905,
      "))": 1906,
      "go": 1907,
      "ĠField": 1908,
      "LE": 1909,
      "Ġ()": 1910,
      "ouble": 1911,
      "Ġfind": 1912,
      "atabase": 1913,
      "17": 1914,
      "tach": 1915,
      "Ġnavig": 1916,
      "old": 1917,
      "onth": 1918,
      "Ġstep": 1919,
      "ĠView": 1920,
      "quals": 1921,
      "Ġneeds": 1922,
      "ĠApplication": 1923,
      "ĠValueSignal": 1924,
      "Ar": 1925,
      "uring": 1926,
      "Ġevery": 1927,
      "Ġtypes": 1928,
      "Ġreference": 1929,
      "Ġdisabled": 1930,
      "style": 1931,
      "editor": 1932,
      "quired": 1933,
      "Ġsignals": 1934,
      "Ġaw": 1935,
      "Ġ9": 1936,
      "Ġdec": 1937,
      "Ġboolean": 1938,
      "Ġgenerated": 1939,
      "Ġcontrol": 1940,
      "Ġquery": 1941,
      "Ġdirectly": 1942,
      "Step": 1943,
      "rem": 1944,
      "ics": 1945,
      "Ġfocus": 1946,
      "Ġinside": 1947,
      "ĠTh": 1948,
      "ĠMessage": 1949,
      "62": 1950,
      "Ġauto": 1951,
      "adow": 1952,
      "Ġdrag": 1953,
      "und": 1954,
      "Ġ></": 1955,
      "efore": 1956,
      "Ġdependencies": 1957,
      "vertical": 1958,
      "top": 1959,
      "Ġgu": 1960,
      "antity": 1961,
      "Min": 1962,
      "du": 1963,
      "Ġsave": 1964,
      "Ġmax": 1965,
      "ĠComponents": 1966,
      "Ġbuilt": 1967,
      "Paramet": 1968,
      "font": 1969,
      "getC": 1970,
      "setValue": 1971,
      "Ġdevelopment": 1972,
      "\").": 1973,
      "padding": 1974,
      "24": 1975,
      "Ġbeen": 1976,
      "Index": 1977,
      "ynch": 1978,
      "arator": 1979,
      "ĠMain": 1980,
      "points": 1981,
      "19": 1982,
      "rea": 1983,
      "chart": 1984,
      "ynchron": 1985,
      "Ġbean": 1986,
      "laceholder": 1987,
      "ven": 1988,
      "ĠClass": 1989,
      "ĠDes": 1990,
      "ĠCollaboration": 1991,
      "Ġhere": 1992,
      "properties": 1993,
      "Ġ*/}": 1994,
      "ft": 1995,
      "Ġvisible": 1996,
      "64": 1997,
      "Ġ19": 1998,
      "vir": 1999,
      "ise": 2000,
      "Ġ{/*": 2001,
      "filter": 2002,
      "Ġterm": 2003,
      "http": 2004,
      "Ġstylesheet": 2005,
      "Editor": 2006,
      "ally": 2007,
      "Ġdeploy": 2008,
      "auth": 2009,
      "Utility": 2010,
      "vices": 2011,
      "other": 2012,
      "Ġdirectory": 2013,
      "gth": 2014,
      "path": 2015,
      "Ã¤": 2016,
      "Ġdrop": 2017,
      "ization": 2018,
      "Ġgiv": 2019,
      "irth": 2020,
      "Ġhandle": 2021,
      "elf": 2022,
      "PR": 2023,
      "sub": 2024,
      "Ġro": 2025,
      "ĠSelect": 2026,
      "Tr": 2027,
      "emory": 2028,
      "Ġimplements": 2029,
      "dialog": 2030,
      "lag": 2031,
      "Ġthread": 2032,
      "Use": 2033,
      "ody": 2034,
      "Ġfolder": 2035,
      "log": 2036,
      "utes": 2037,
      "ersist": 2038,
      "ĠAut": 2039,
      "Ġendpoint": 2040,
      "Variants": 2041,
      "Ġcontains": 2042,
      "sum": 2043,
      "ym": 2044,
      "Ġ$": 2045,
      "ĠĠĠĠĠĠĠĠĠĠĠĠĠĠĠĠ": 2046,
      "mployee": 2047,
      "Ġelse": 2048,
      "click": 2049,
      "ither": 2050,
      "Ġshows": 2051,
      "Sheet": 2052,
      "ose": 2053,
      "Ġdefined": 2054,
      "ĠInst": 2055,
      "Basic": 2056,
      "ner": 2057,
      "}>": 2058,
      "Ġtab": 2059,
      "height": 2060,
      "Ġreturns": 2061,
      "Ġenable": 2062,
      "TimePicker": 2063,
      "Ġim": 2064,
      "alDate": 2065,
      "ĠElement": 2066,
      "readsheet": 2067,
      "ĠCreate": 2068,
      "ĠComboBox": 2069,
      "38": 2070,
      "75": 2071,
      "];": 2072,
      "su": 2073,
      "ten": 2074,
      "Ġcart": 2075,
      "Ġinv": 2076,
      "Ġanother": 2077,
      "Ġfeatures": 2078,
      "ves": 2079,
      "omm": 2080,
      "stream": 2081,
      "type": 2082,
      "ThemeVariants": 2083,
      "Import": 2084,
      "border": 2085,
      "ules": 2086,
      "Ġreg": 2087,
      "ria": 2088,
      "GridColumn": 2089,
      "reak": 2090,
      "Ġwidget": 2091,
      "ĠDashboard": 2092,
      "Ġsepar": 2093,
      "Ġneeded": 2094,
      "Ġstatus": 2095,
      "60": 2096,
      "ĠLoc": 2097,
      "ook": 2098,
      "framework": 2099,
      "ĠHowever": 2100,
      "De": 2101,
      "cr": 2102,
      "firm": 2103,
      "sure": 2104,
      "Ġpla": 2105,
      "ĠSupport": 2106,
      "Ġ100": 2107,
      "Ġlink": 2108,
      "ĠThey": 2109,
      "ClassName": 2110,
      "Area": 2111,
      "Ġ})": 2112,
      "licit": 2113,
      "Ġposition": 2114,
      "30": 2115,
      "Back": 2116,
      "Detail": 2117,
      "xml": 2118,
      "Ġsource": 2119,
      "Ġsubs": 2120,
      "ways": 2121,
      "Ġdatabase": 2122,
      "open": 2123,
      "tegr": 2124,
      "Ġrunning": 2125,
      "gle": 2126,
      "radle": 2127,
      "ĠâĢ": 2128,
      "State": 2129,
      "Changed": 2130,
      "Ġlistener": 2131,
      "Ġproduction": 2132,
      "Unit": 2133,
      "light": 2134,
      "()));": 2135,
      "odo": 2136,
      "Ġprocess": 2137,
      "setItems": 2138,
      "lat": 2139,
      "rimary": 2140,
      "Ġunder": 2141,
      "Ġprevious": 2142,
      "context": 2143,
      "springframework": 2144,
      "Ġ};": 2145,
      "Ġnames": 2146,
      "ments": 2147,
      "Ġaddress": 2148,
      "comm": 2149,
      ">(": 2150,
      "Ġrel": 2151,
      "Ġwhile": 2152,
      "Ġdependency": 2153,
      "Allow": 2154,
      "posal": 2155,
      "void": 2156,
      "ength": 2157,
      "Ġag": 2158,
      "Init": 2159,
      "const": 2160,
      "collaboration": 2161,
      "ĠLogin": 2162,
      "application": 2163,
      "Address": 2164,
      "Access": 2165,
      "SideNav": 2166,
      "tom": 2167,
      "ui": 2168,
      "Ġbind": 2169,
      "imum": 2170,
      "Ġsearch": 2171,
      "Ġvariant": 2172,
      "40": 2173,
      "Browser": 2174,
      "Country": 2175,
      "addThemeVariants": 2176,
      "spacing": 2177,
      "Ġshare": 2178,
      "Application": 2179,
      "raph": 2180,
      "riv": 2181,
      "Edit": 2182,
      "Tab": 2183,
      "ĠâĶ": 2184,
      "ince": 2185,
      "ade": 2186,
      "ĠAl": 2187,
      "13": 2188,
      "Row": 2189,
      "Ġregist": 2190,
      "ĠUp": 2191,
      "ooter": 2192,
      "Ġhelper": 2193,
      "Ġflex": 2194,
      "execut": 2195,
      "Ġwindow": 2196,
      "Ġmost": 2197,
      "Ġeffect": 2198,
      "ĠclassName": 2199,
      "Tooltip": 2200,
      "move": 2201,
      "Ġsort": 2202,
      "edd": 2203,
      "Ġtry": 2204,
      "Format": 2205,
      "ĠIDE": 2206,
      "65": 2207,
      "See": 2208,
      "Ġbackend": 2209,
      "Code": 2210,
      "IT": 2211,
      "based": 2212,
      "Ġdownload": 2213,
      "Ġident": 2214,
      "getValue": 2215,
      "Ġhigh": 2216,
      "\"]": 2217,
      "As": 2218,
      "ĠFile": 2219,
      "ired": 2220,
      "Ġadded": 2221,
      "Ġlook": 2222,
      "Ġloaded": 2223,
      "Ġparent": 2224,
      "Ġinstall": 2225,
      "ProductCatalog": 2226,
      "Null": 2227,
      "Ġfail": 2228,
      "readcr": 2229,
      "And": 2230,
      "readcrumb": 2231,
      "Dashboard": 2232,
      "Mod": 2233,
      "tab": 2234,
      "eline": 2235,
      "Ġindic": 2236,
      "Ġbelow": 2237,
      "apping": 2238,
      "Bridge": 2239,
      "Ġi": 2240,
      "iled": 2241,
      "100": 2242,
      "find": 2243,
      "no": 2244,
      "Ġnext": 2245,
      "Ġmap": 2246,
      "ĠOn": 2247,
      "ĠProperties": 2248,
      "Ġconfigured": 2249,
      "Ġawait": 2250,
      "ayload": 2251,
      "Ġbeh": 2252,
      "Ġsche": 2253,
      "textfield": 2254,
      "ches": 2255,
      ")}": 2256,
      "UM": 2257,
      "Ġpassword": 2258,
      "uture": 2259,
      "Ġlimit": 2260,
      "ounter": 2261,
      "ValueChange": 2262,
      "67": 2263,
      "Checkbox": 2264,
      "SE": 2265,
      "widget": 2266,
      "hether": 2267,
      "reet": 2268,
      "irection": 2269,
      "Ġdefine": 2270,
      "lier": 2271,
      "ĠInteger": 2272,
      "ID": 2273,
      "TP": 2274,
      "af": 2275,
      "Ġpadding": 2276,
      "ached": 2277,
      "remove": 2278,
      "Ġsimp": 2279,
      "Ġline": 2280,
      "Ġactive": 2281,
      "Card": 2282,
      "ValueSignal": 2283,
      "Ġenabled": 2284,
      "Query": 2285,
      "binder": 2286,
      "local": 2287,
      "Ġ==": 2288,
      "Ġimplementation": 2289,
      "):": 2290,
      "def": 2291,
      "down": 2292,
      "Request": 2293,
      "94": 2294,
      "FormLayout": 2295,
      "Ġdesign": 2296,
      "Binder": 2297,
      "Ġasync": 2298,
      "ĠIcon": 2299,
      "Position": 2300,
      "ION": 2301,
      "Su": 2302,
      "UT": 2303,
      "run": 2304,
      "Ġsection": 2305,
      "Ġcommand": 2306,
      "az": 2307,
      "maven": 2308,
      "ross": 2309,
      "Ġmark": 2310,
      "ĠValid": 2311,
      "viron": 2312,
      "15": 2313,
      "de": 2314,
      "sed": 2315,
      "Ġeither": 2316,
      "bove": 2317,
      "Ġorder": 2318,
      "Ġcontainer": 2319,
      "NA": 2320,
      "area": 2321,
      "Allowed": 2322,
      "readcrumbs": 2323,
      "des": 2324,
      "host": 2325,
      "Ġblock": 2326,
      "Ġwell": 2327,
      "ĠDefault": 2328,
      "Read": 2329,
      "configuration": 2330,
      "Enabled": 2331,
      "Flex": 2332,
      "Object": 2333,
      "Set": 2334,
      "ug": 2335,
      "Ġabove": 2336,
      "Ġnon": 2337,
      "org": 2338,
      "Ġmatch": 2339,
      "Ġmessages": 2340,
      "opy": 2341,
      "Ġalign": 2342,
      "vis": 2343,
      "Ġterminal": 2344,
      "ove": 2345,
      "var": 2346,
      "arning": 2347,
      "Ġsupported": 2348,
      "({": 2349,
      "ComboBox": 2350,
      "Callback": 2351,
      "password": 2352,
      "Ġappear": 2353,
      "Ġlong": 2354,
      "ordion": 2355,
      "icons": 2356,
      "Ġattribute": 2357,
      "selected": 2358,
      "radio": 2359,
      "badge": 2360,
      "hone": 2361,
      "Ġduring": 2362,
      "addItem": 2363,
      "Ġsupports": 2364,
      "Span": 2365,
      "icture": 2366,
      "28": 2367,
      "AN": 2368,
      "wr": 2369,
      "hel": 2370,
      "ALL": 2371,
      "Ġnow": 2372,
      "chor": 2373,
      "rom": 2374,
      "header": 2375,
      "Ġcard": 2376,
      "Ġmight": 2377,
      "Ġframework": 2378,
      "json": 2379,
      "ĠGantt": 2380,
      "Avatar": 2381,
      "Session": 2382,
      "red": 2383,
      "Ġaccept": 2384,
      "Log": 2385,
      "cut": 2386,
      "engine": 2387,
      "Ġempty": 2388,
      "ĠJavaScript": 2389,
      "agraph": 2390,
      "Ġprogress": 2391,
      "term": 2392,
      "Ġshown": 2393,
      "ĠRun": 2394,
      "Order": 2395,
      "ictureUrl": 2396,
      "rain": 2397,
      "Ġcount": 2398,
      "ortcut": 2399,
      "otal": 2400,
      "ottom": 2401,
      "23": 2402,
      "My": 2403,
      "prefix": 2404,
      "ĠlastName": 2405,
      "Ġtot": 2406,
      "ively": 2407,
      "Ġdescrib": 2408,
      "ĠConfiguration": 2409,
      "Ġperform": 2410,
      "Opened": 2411,
      "11": 2412,
      "Des": 2413,
      "ĠY": 2414,
      "Ġâ": 2415,
      "Ġuseful": 2416,
      "<>();": 2417,
      "Using": 2418,
      "Ġsmall": 2419,
      "series": 2420,
      "Ġalways": 2421,
      "resources": 2422,
      "Ġposs": 2423,
      "ProductCatalogItem": 2424,
      "Ġrecomm": 2425,
      "ĠTree": 2426,
      "ĠAI": 2427,
      "ĠRes": 2428,
      "Ġoverlay": 2429,
      "Ġresponse": 2430,
      "disabled": 2431,
      "iddle": 2432,
      "Pr": 2433,
      "aragraph": 2434,
      "Ġrece": 2435,
      "Ġlabels": 2436,
      "align": 2437,
      "van": 2438,
      "Exp": 2439,
      "ĠJAR": 2440,
      "ĠHTTP": 2441,
      "val": 2442,
      "Ġavatar": 2443,
      "Ġdashboard": 2444,
      "Ġeas": 2445,
      "Ġexplicit": 2446,
      "Ġhelp": 2447,
      "27": 2448,
      "Ġsrc": 2449,
      "Ġpattern": 2450,
      "Ġstand": 2451,
      "Ġwrite": 2452,
      "IC": 2453,
      "bser": 2454,
      "cre": 2455,
      "gap": 2456,
      "Ġsav": 2457,
      "ĠĠĠĠĠĠĠĠĠĠĠĠĠĠĠĠĠĠĠĠĠĠĠĠĠĠĠĠĠĠĠ": 2458,
      "Ġmanager": 2459,
      "ĠDe": 2460,
      "Ġconstruct": 2461,
      "Ġensure": 2462,
      "Ġrequests": 2463,
      "Cart": 2464,
      "Dialog": 2465,
      "lis": 2466,
      "mod": 2467,
      "Ġcl": 2468,
      "ĠCheckbox": 2469,
      "active": 2470,
      "specif": 2471,
      "ĠLumoUtility": 2472,
      "adius": 2473,
      "ialization": 2474,
      "Ġcreating": 2475,
      "ĠcartItems": 2476,
      "Ht": 2477,
      "Ġwill": 2478,
      "Ġvia": 2479,
      "ibr": 2480,
      "forField": 2481,
      "way": 2482,
      "Ġla": 2483,
      "lease": 2484,
      "../": 2485,
      "ense": 2486,
      "level": 2487,
      "izing": 2488,
      "ĠBigDecimal": 2489,
      "imeline": 2490,
      "Ġsetup": 2491,
      "ĠJS": 2492,
      "Ġevents": 2493,
      "Ġresources": 2494,
      "Ġinclude": 2495,
      "Visa": 2496,
      "Ġmeans": 2497,
      "95": 2498,
      "Ġimage": 2499,
      "Labels": 2500,
      "show": 2501,
      "Ġannotations": 2502,
      "Helper": 2503,
      "Ġmy": 2504,
      "Enter": 2505,
      "vironment": 2506,
      "terminal": 2507,
      "Panel": 2508,
      "ĠDis": 2509,
      "Ġappro": 2510,
      "Ġwithin": 2511,
      "leted": 2512,
      "ĠGradle": 2513,
      "Resp": 2514,
      "ĠUserInfo": 2515,
      "ĠFormLayout": 2516,
      "ierarchy": 2517,
      "Ġgiven": 2518,
      "Badge": 2519,
      "Map": 2520,
      "ient": 2521,
      "onym": 2522,
      "edia": 2523,
      "contain": 2524,
      "Spring": 2525,
      "io": 2526,
      "Ġclear": 2527,
      "etch": 2528,
      "Ġreal": 2529,
      "Ġgroup": 2530,
      "background": 2531,
      "Ġrequires": 2532,
      "ĠStart": 2533,
      "Ġchildren": 2534,
      "NonNull": 2535,
      "styles": 2536,
      "defined": 2537,
      "exp": 2538,
      "Ġprovider": 2539,
      "¦âĢ": 2540,
      "Ġsecond": 2541,
      "Ġindex": 2542,
      "arta": 2543,
      "overlay": 2544,
      "stract": 2545,
      "Ġseparate": 2546,
      "¦âĢĭ": 2547,
      "gument": 2548,
      "arge": 2549,
      "aces": 2550,
      "Ġstream": 2551,
      "akarta": 2552,
      "Ġwrit": 2553,
      "Ġcommon": 2554,
      "ĠSupported": 2555,
      "collaborationengine": 2556,
      "ret": 2557,
      "actory": 2558,
      "ĠLog": 2559,
      "Ġtrig": 2560,
      "Ġsubmit": 2561,
      "Ġbecause": 2562,
      "onymous": 2563,
      "nap": 2564,
      "ives": 2565,
      "ĠTr": 2566,
      "sert": 2567,
      "Ġrepresent": 2568,
      "./": 2569,
      "Check": 2570,
      "DI": 2571,
      "swing": 2572,
      "vn": 2573,
      "wit": 2574,
      "Ġ/*": 2575,
      "Ġroutes": 2576,
      "Servlet": 2577,
      "Ġlevel": 2578,
      "Ġprovided": 2579,
      "ENT": 2580,
      "Ġtemplate": 2581,
      "napshot": 2582,
      "AI": 2583,
      "Ġvers": 2584,
      "Ġaccount": 2585,
      "Ġtopic": 2586,
      "OP": 2587,
      "has": 2588,
      "max": 2589,
      "Ġtree": 2590,
      "Ġcategory": 2591,
      "Ġreport": 2592,
      "Ġright": 2593,
      "Ġwhat": 2594,
      "ĠRouter": 2595,
      "Ġstored": 2596,
      "Ġcalled": 2597,
      "Ġparts": 2598,
      "Ġheight": 2599,
      "Ġremoved": 2600,
      "ware": 2601,
      "Ġcould": 2602,
      "Ġtooltip": 2603,
      "Auto": 2604,
      "NAME": 2605,
      "icated": 2606,
      "Ġpack": 2607,
      "Ġwhether": 2608,
      "ĠRoute": 2609,
      "format": 2610,
      "Ġdiscount": 2611,
      "Selected": 2612,
      "ructure": 2613,
      "35": 2614,
      "68": 2615,
      "Gener": 2616,
      "Login": 2617,
      "inter": 2618,
      "edi": 2619,
      "iss": 2620,
      "access": 2621,
      "Ent": 2622,
      "Ġitself": 2623,
      "Disabled": 2624,
      "Drop": 2625,
      "How": 2626,
      "Off": 2627,
      "oord": 2628,
      "Ġmanag": 2629,
      "getStyle": 2630,
      "avi": 2631,
      "ailed": 2632,
      "Ġintegr": 2633,
      "Ġmakes": 2634,
      "boot": 2635,
      "Ġexisting": 2636,
      "spond": 2637,
      "tooltip": 2638,
      "ountries": 2639,
      "weight": 2640,
      "Link": 2641,
      "ench": 2642,
      "enter": 2643,
      "Ġmet": 2644,
      "ĠSystem": 2645,
      "setWidth": 2646,
      "Integer": 2647,
      "ĠUn": 2648,
      "ready": 2649,
      "Ġprevent": 2650,
      "Result": 2651,
      "idden": 2652,
      "ging": 2653,
      "Ġke": 2654,
      "Ġavoid": 2655,
      "ĠSc": 2656,
      "ĠCrud": 2657,
      "ables": 2658,
      "Configurer": 2659,
      "Ġstylesheets": 2660,
      "Ġagain": 2661,
      "Node": 2662,
      "Password": 2663,
      "ifier": 2664,
      "ĠUs": 2665,
      "Ġauth": 2666,
      "Ġselection": 2667,
      "Parameter": 2668,
      "latform": 2669,
      "edded": 2670,
      "45": 2671,
      "ders": 2672,
      "Ġ{...": 2673,
      "ĠTab": 2674,
      "oggle": 2675,
      "lied": 2676,
      "Ġpossible": 2677,
      "89": 2678,
      "Max": 2679,
      "Us": 2680,
      "aura": 2681,
      "focus": 2682,
      "pi": 2683,
      "ving": 2684,
      "xx": 2685,
      "Ġemb": 2686,
      "ĠVis": 2687,
      "then": 2688,
      "Ġexception": 2689,
      "ĠHas": 2690,
      "Ġresol": 2691,
      "Ġobjects": 2692,
      "Upd": 2693,
      "39": 2694,
      "Case": 2695,
      "Te": 2696,
      "now": 2697,
      "tabs": 2698,
      "atches": 2699,
      "orage": 2700,
      "lob": 2701,
      "Ġwas": 2702,
      "Ġadding": 2703,
      "criber": 2704,
      "divid": 2705,
      "Ġremove": 2706,
      "Ġcorrespond": 2707,
      "oordin": 2708,
      "42": 2709,
      "slot": 2710,
      "Ġexpand": 2711,
      "Ġpoint": 2712,
      "Ġtypically": 2713,
      "Option": 2714,
      "Run": 2715,
      "ZM": 2716,
      "render": 2717,
      "ward": 2718,
      "Ġcases": 2719,
      "ancel": 2720,
      "utor": 2721,
      "Ġrange": 2722,
      "Ġlock": 2723,
      "Child": 2724,
      "Ġspace": 2725,
      "/**": 2726,
      "mage": 2727,
      "Ġdetail": 2728,
      "ummary": 2729,
      "Ġadditional": 2730,
      "earn": 2731,
      "getCurrent": 2732,
      "Ġrecommended": 2733,
      "utorial": 2734,
      "Membership": 2735,
      "Path": 2736,
      "}`": 2737,
      "ĠSideNav": 2738,
      "ĠAvatar": 2739,
      "Ġ150": 2740,
      "ynam": 2741,
      "Ġcreated": 2742,
      "Entity": 2743,
      ">${": 2744,
      "Be": 2745,
      "LM": 2746,
      "do": 2747,
      "drop": 2748,
      "its": 2749,
      "ĠPlotOptions": 2750,
      "ĠEmail": 2751,
      "Execut": 2752,
      "Ġtotal": 2753,
      "Ġproxy": 2754,
      "ĠDatePicker": 2755,
      "Web": 2756,
      "yling": 2757,
      "ories": 2758,
      "usion": 2759,
      "Ġstructure": 2760,
      "Profession": 2761,
      "ccordion": 2762,
      "site": 2763,
      "ĠfirstName": 2764,
      "avior": 2765,
      "RI": 2766,
      "Rec": 2767,
      "Ġbund": 2768,
      "index": 2769,
      "85": 2770,
      "land": 2771,
      "met": 2772,
      "ĠĠĠĠĠĠĠĠĠĠĠĠĠĠĠĠĠĠĠĠĠĠĠĠĠĠĠ": 2773,
      "url": 2774,
      "ayment": 2775,
      "litLayout": 2776,
      "aking": 2777,
      "Ġlogic": 2778,
      "Ġmany": 2779,
      "Ġgenerate": 2780,
      "ernal": 2781,
      "irthday": 2782,
      "AD": 2783,
      "Ġstill": 2784,
      "Ġlibr": 2785,
      "ffic": 2786,
      "UID": 2787,
      "Ġguide": 2788,
      "CSS": 2789,
      "Drag": 2790,
      "Each": 2791,
      "Next": 2792,
      "SO": 2793,
      "security": 2794,
      "Ġiss": 2795,
      "ĠDialog": 2796,
      "Ġ20": 2797,
      "VaadinIcon": 2798,
      "Attribute": 2799,
      "Ġkeep": 2800,
      "ktop": 2801,
      "Ġsom": 2802,
      "Ġsuccess": 2803,
      "Ġenter": 2804,
      "Ġnavigate": 2805,
      "Ġsimple": 2806,
      "Dep": 2807,
      "LUM": 2808,
      "OW": 2809,
      "equals": 2810,
      "fix": 2811,
      "ances": 2812,
      "Ġalready": 2813,
      "Ġexamples": 2814,
      "Ġlogout": 2815,
      "Ġmodule": 2816,
      "Files": 2817,
      "Top": 2818,
      "Ġaria": 2819,
      "Ġplace": 2820,
      "ializable": 2821,
      "Authentication": 2822,
      "Than": 2823,
      "Nonnull": 2824,
      "Json": 2825,
      "bstract": 2826,
      "Ġcell": 2827,
      "itted": 2828,
      "Ġpopover": 2829,
      "ĠNumber": 2830,
      "Ġintern": 2831,
      "ĠStyling": 2832,
      "tain": 2833,
      "ĠĠĠĠĠĠ": 2834,
      "annotation": 2835,
      "ĠPage": 2836,
      "Ġcustomize": 2837,
      "Height": 2838,
      "ĠShared": 2839,
      "37": 2840,
      "Before": 2841,
      "src": 2842,
      "oud": 2843,
      "ĠAr": 2844,
      "Required": 2845,
      "Ġcalls": 2846,
      "ĠJSON": 2847,
      "Method": 2848,
      "jar": 2849,
      "Ġca": 2850,
      "loc": 2851,
      "âĢ¦âĢĭ": 2852,
      "=\"/": 2853,
      "ĠOpen": 2854,
      "Ġenvironment": 2855,
      "Ġ!=": 2856,
      "total": 2857,
      "Ġmargin": 2858,
      "Ġeven": 2859,
      "Ġwrapper": 2860,
      "tributes": 2861,
      "ĠValidation": 2862,
      "Ġstandard": 2863,
      "slider": 2864,
      "Ġclose": 2865,
      "Ġflag": 2866,
      "Ġborder": 2867,
      "emove": 2868,
      "Storage": 2869,
      "Ġart": 2870,
      "ched": 2871,
      "Ad": 2872,
      "Crud": 2873,
      "pre": 2874,
      "});": 2875,
      "Ġlow": 2876,
      "aly": 2877,
      "setText": 2878,
      "gram": 2879,
      "project": 2880,
      "Stream": 2881,
      "Ġquantity": 2882,
      "centage": 2883,
      "Ġlast": 2884,
      "Ġsim": 2885,
      "Ġbreak": 2886,
      "000": 2887,
      "ĠDep": 2888,
      "query": 2889,
      "Ġ24": 2890,
      "Ġerrors": 2891,
      "Ġ}}>": 2892,
      "Ġupdated": 2893,
      "Validation": 2894,
      "river": 2895,
      "Ġversions": 2896,
      "33": 2897,
      "details": 2898,
      "Ġx": 2899,
      "lap": 2900,
      "ency": 2901,
      "Important": 2902,
      "87": 2903,
      "Present": 2904,
      "RE": 2905,
      "default": 2906,
      "oad": 2907,
      "radius": 2908,
      "orld": 2909,
      "Ġfix": 2910,
      "pose": 2911,
      "Ġbuttons": 2912,
      "Ġworks": 2913,
      "Ġoperation": 2914,
      "OT": 2915,
      "Padding": 2916,
      "inu": 2917,
      "ining": 2918,
      "ĠOr": 2919,
      "Ġ147": 2920,
      "Overlay": 2921,
      "Visitors": 2922,
      "Client": 2923,
      "],": 2924,
      "ullable": 2925,
      "ĠBadge": 2926,
      "ĠNavigation": 2927,
      "ĠDataSeriesItem": 2928,
      "rowsers": 2929,
      "Ġcorrect": 2930,
      "Download": 2931,
      "olid": 2932,
      "Ġlater": 2933,
      "people": 2934,
      "profession": 2935,
      "Ġ&&": 2936,
      "Only": 2937,
      "SubMenu": 2938,
      "Ġbehavior": 2939,
      "specific": 2940,
      "witch": 2941,
      ")));": 2942,
      "page": 2943,
      "rand": 2944,
      "Ġdone": 2945,
      "ower": 2946,
      "imes": 2947,
      "Ġshadow": 2948,
      "arkus": 2949,
      "8080": 2950,
      "dividual": 2951,
      "Default": 2952,
      "os": 2953,
      "rast": 2954,
      "emon": 2955,
      "Ġapplied": 2956,
      "ĠUsing": 2957,
      "Ġspan": 2958,
      "ĠProject": 2959,
      "ĠMenuBar": 2960,
      "Array": 2961,
      "88": 2962,
      "by": 2963,
      "col": 2964,
      "ember": 2965,
      "Ġretr": 2966,
      "getElement": 2967,
      "izes": 2968,
      "Ġprojects": 2969,
      "01": 2970,
      "Month": 2971,
      "UP": 2972,
      "cement": 2973,
      "ms": 2974,
      "ets": 2975,
      "Ġannot": 2976,
      "accord": 2977,
      "Ġprofession": 2978,
      "peration": 2979,
      "Control": 2980,
      "ĠObject": 2981,
      "Ġundefined": 2982,
      "clude": 2983,
      "SideNavItem": 2984,
      "Ġapproach": 2985,
      "rich": 2986,
      "ĠQu": 2987,
      "ĶâĶĢâĶĢ": 2988,
      "erc": 2989,
      "Ġpersist": 2990,
      "ething": 2991,
      "ĠNode": 2992,
      "Ġatt": 2993,
      "accordion": 2994,
      "44": 2995,
      "Ġfound": 2996,
      "getId": 2997,
      "ĠDownload": 2998,
      "Ġshipping": 2999,
      "Ġscroll": 3000,
      "Ġsettings": 3001,
      "Ġindicator": 3002,
      "Lumo": 3003,
      "hed": 3004,
      "Ġsit": 3005,
      "Ġconfigur": 3006,
      "ĠPre": 3007,
      "provider": 3008,
      "Ġfollows": 3009,
      "helper": 3010,
      "66": 3011,
      "UN": 3012,
      "sort": 3013,
      "Ġpresent": 3014,
      "ĠTime": 3015,
      "Connection": 3016,
      "Contain": 3017,
      "oose": 3018,
      "Ġinitial": 3019,
      "Ġexplicitly": 3020,
      "');": 3021,
      "Task": 3022,
      "npm": 3023,
      "range": 3024,
      "iness": 3025,
      "Ġpar": 3026,
      "verter": 3027,
      "rib": 3028,
      "Ġjob": 3029,
      "Ġconfirm": 3030,
      "ĠContext": 3031,
      "Ġoffline": 3032,
      "Ġlocation": 3033,
      "Executor": 3034,
      "HT": 3035,
      "Le": 3036,
      "df": 3037,
      "options": 3038,
      "hell": 3039,
      "Ġpush": 3040,
      "Ġver": 3041,
      "ĠAs": 3042,
      "Ġconnection": 3043,
      "ipse": 3044,
      "Ġruns": 3045,
      "ĠEnd": 3046,
      "Ġconstructor": 3047,
      "Ġcorresponding": 3048,
      "TO": 3049,
      "ole": 3050,
      "popover": 3051,
      "tual": 3052,
      "yy": 3053,
      "ľâĶĢâĶĢ": 3054,
      "ination": 3055,
      "Ġsent": 3056,
      "Ġrepository": 3057,
      "usiness": 3058,
      "urs": 3059,
      "urface": 3060,
      "ability": 3061,
      "ĠHel": 3062,
      "ested": 3063,
      "arams": 3064,
      "Ġtrigger": 3065,
      "Future": 3066,
      "Master": 3067,
      "check": 3068,
      "lus": 3069,
      "number": 3070,
      "ality": 3071,
      "Ġdrawer": 3072,
      "ute": 3073,
      "acy": 3074,
      "ified": 3075,
      "ublis": 3076,
      "ĠBinding": 3077,
      "angu": 3078,
      "Ġrendered": 3079,
      "Selection": 3080,
      "Subs": 3081,
      "Ġconsist": 3082,
      "Source": 3083,
      "Ġsure": 3084,
      "Ġred": 3085,
      "ours": 3086,
      "Engine": 3087,
      "aste": 3088,
      "Ġentity": 3089,
      "mplates": 3090,
      "emonstr": 3091,
      "29": 3092,
      "Tree": 3093,
      "cast": 3094,
      "sx": 3095,
      "Ġtech": 3096,
      "Ġconnect": 3097,
      "Ġconstrain": 3098,
      "Ġincludes": 3099,
      "ension": 3100,
      "Ġcollect": 3101,
      "../../": 3102,
      "Feature": 3103,
      "Ġeditor": 3104,
      "erThan": 3105,
      "eners": 3106,
      "Ġinvalid": 3107,
      "Ġhapp": 3108,
      "Ġonce": 3109,
      "ĠSwingBridge": 3110,
      "ĠLocalDate": 3111,
      "Factory": 3112,
      "GE": 3113,
      "Hilla": 3114,
      "Radio": 3115,
      "mat": 3116,
      "target": 3117,
      "Ġsynchron": 3118,
      "ĠCode": 3119,
      "ecess": 3120,
      "Ġarea": 3121,
      "Ġinstances": 3122,
      "ounding": 3123,
      "Ġinteract": 3124,
      "Ġdisplayed": 3125,
      "Ġmanually": 3126,
      "Ġhttps": 3127,
      "Ġ[];": 3128,
      "Ġsince": 3129,
      "Ġnpm": 3130,
      "Ġthree": 3131,
      "Ġcomb": 3132,
      "ĠBuild": 3133,
      "anti": 3134,
      "Ġshared": 3135,
      "Ġinstruct": 3136,
      "Auth": 3137,
      "ĠcartItemsSignal": 3138,
      "FirstName": 3139,
      "Range": 3140,
      "mb": 3141,
      "sw": 3142,
      "enari": 3143,
      "allable": 3144,
      "ential": 3145,
      "andle": 3146,
      "ERT": 3147,
      "Instance": 3148,
      "Navigation": 3149,
      "ek": 3150,
      "Ġdemonstr": 3151,
      "Ġrouter": 3152,
      "ĠBy": 3153,
      "Attach": 3154,
      "Trans": 3155,
      "Ġcenter": 3156,
      "Ġregistration": 3157,
      "ptim": 3158,
      "[]>(": 3159,
      "ĠEvent": 3160,
      "Ġselectors": 3161,
      "Ġ153": 3162,
      "Ġ149": 3163,
      "ĠListSignal": 3164,
      "henticated": 3165,
      "SecurityConfigurer": 3166,
      "Ġ[]);": 3167,
      "ĠDesign": 3168,
      "22": 3169,
      "></": 3170,
      "CP": 3171,
      "Folder": 3172,
      "Slider": 3173,
      "vab": 3174,
      "pplier": 3175,
      "essions": 3176,
      "Ġbeing": 3177,
      "Ġservlet": 3178,
      "ffix": 3179,
      "PA": 3180,
      "ĠName": 3181,
      "Ġcheckbox": 3182,
      "peri": 3183,
      "peek": 3184,
      "Ġdescribed": 3185,
      "Ġsaved": 3186,
      "Updated": 3187,
      "Boolean": 3188,
      "Count": 3189,
      "Duration": 3190,
      "Empty": 3191,
      "Lower": 3192,
      "Payload": 3193,
      "Window": 3194,
      "gacy": 3195,
      "second": 3196,
      "web": 3197,
      "Ġlay": 3198,
      "ĠĠĠĠĠĠĠĠĠĠĠĠĠĠĠĠĠ": 3199,
      "Ġstyling": 3200,
      "Ġargument": 3201,
      "Ġwrap": 3202,
      "Ġconsider": 3203,
      "Ġrelated": 3204,
      "OS": 3205,
      "code": 3206,
      "cell": 3207,
      "ters": 3208,
      "status": 3209,
      "Ġbound": 3210,
      "Ġthrows": 3211,
      "ĠLLM": 3212,
      "IdAnd": 3213,
      "Ġservices": 3214,
      "position": 3215,
      "ĠOptional": 3216,
      "Hello": 3217,
      "69": 3218,
      "Bench": 3219,
      "ma": 3220,
      "ately": 3221,
      "elcast": 3222,
      "ily": 3223,
      "ĠCl": 3224,
      "[]);": 3225,
      "Ġprefix": 3226,
      "Ġarray": 3227,
      "dependencies": 3228,
      "azelcast": 3229,
      "vability": 3230,
      "47": 3231,
      "AB": 3232,
      "ED": 3233,
      "aw": 3234,
      "cle": 3235,
      "Ġtakes": 3236,
      "Ġfetch": 3237,
      "Ġbar": 3238,
      "Ġindividual": 3239,
      "Ġwe": 3240,
      "Ġrules": 3241,
      "Ġcontact": 3242,
      "Ġaren": 3243,
      "MessageList": 3244,
      "Update": 3245,
      "LastName": 3246,
      "sumer": 3247,
      "Ġplain": 3248,
      "ĠUpdate": 3249,
      "Wr": 3250,
      "mvn": 3251,
      "zure": 3252,
      "Ġz": 3253,
      "Ġhorizontal": 3254,
      "setC": 3255,
      "Ġ30": 3256,
      "irectory": 3257,
      "Styles": 3258,
      "Scope": 3259,
      "Validator": 3260,
      "Generator": 3261,
      "83": 3262,
      "Timeline": 3263,
      "VM": 3264,
      "multi": 3265,
      "reating": 3266,
      "Ġdomain": 3267,
      "setTitle": 3268,
      "Ġglob": 3269,
      "ĠMod": 3270,
      "ĠThese": 3271,
      "grade": 3272,
      "Ġloading": 3273,
      "Ġrows": 3274,
      "Ġactions": 3275,
      "Direction": 3276,
      "drag": 3277,
      "ken": 3278,
      "stamp": 3279,
      "Ġpop": 3280,
      "Ġdouble": 3281,
      "Ġinject": 3282,
      "Ġrefer": 3283,
      "Ġ\"/": 3284,
      "ĠMap": 3285,
      "split": 3286,
      "gradle": 3287,
      "eek": 3288,
      "Spacing": 3289,
      "Ġreadonly": 3290,
      "Anonymous": 3291,
      "dicate": 3292,
      "ecessary": 3293,
      "'s": 3294,
      "49": 3295,
      "Build": 3296,
      "Ġscript": 3297,
      "Ġdist": 3298,
      "ilar": 3299,
      "Ġcannot": 3300,
      "ĠVaadinIcon": 3301,
      "ĠWidget": 3302,
      "Columns": 3303,
      "Ġlayouts": 3304,
      "Ġretrie": 3305,
      ">)": 3306,
      "Dk": 3307,
      "Ġtake": 3308,
      "aring": 3309,
      "Ġbox": 3310,
      "Ġoption": 3311,
      "Ġcharts": 3312,
      "ĠGridColumn": 3313,
      "Ġtesting": 3314,
      "ĠfirstUpdated": 3315,
      "Http": 3316,
      "Ġbundle": 3317,
      "oundingMode": 3318,
      "[]>([]);": 3319,
      "No": 3320,
      "mount": 3321,
      "orth": 3322,
      "Ġold": 3323,
      "ĠCard": 3324,
      "setSort": 3325,
      "ĠgetC": 3326,
      "Ġcomplex": 3327,
      "ĠKey": 3328,
      "StyleSheet": 3329,
      "LocalDate": 3330,
      "Ġtransaction": 3331,
      "ierarchical": 3332,
      "FlexComponent": 3333,
      "ĠâĨ": 3334,
      "Responsive": 3335,
      "ilot": 3336,
      "lan": 3337,
      "til": 3338,
      "wise": 3339,
      "ital": 3340,
      "ides": 3341,
      "Ġlight": 3342,
      "overed": 3343,
      "Ġchanged": 3344,
      "Ġhandler": 3345,
      "Ġvisual": 3346,
      "ĠThere": 3347,
      "Price": 3348,
      "77": 3349,
      "ASE": 3350,
      "BigDecimal": 3351,
      "bridge": 3352,
      "Ġpri": 3353,
      "Ġdefines": 3354,
      "Ġtrack": 3355,
      "apped": 3356,
      "Confirm": 3357,
      "ences": 3358,
      "Ġentire": 3359,
      "Ġminutes": 3360,
      "Ġvariants": 3361,
      "61": 3362,
      "adata": 3363,
      "aract": 3364,
      "agent": 3365,
      "ĠCountry": 3366,
      "ulate": 3367,
      "Ġcancel": 3368,
      "thing": 3369,
      "Ġwhenever": 3370,
      "Chain": 3371,
      "ermiss": 3372,
      "views": 3373,
      "Scale": 3374,
      "starter": 3375,
      "ĠMessageList": 3376,
      "Ġsomething": 3377,
      "El": 3378,
      "Tag": 3379,
      "Ġcss": 3380,
      "opilot": 3381,
      "conf": 3382,
      "ather": 3383,
      "template": 3384,
      "ĠAppS": 3385,
      "Ġjust": 3386,
      "====": 3387,
      "Ġtasks": 3388,
      "Ġtools": 3389,
      "ORT": 3390,
      "Else": 3391,
      "lies": 3392,
      "Ġbase": 3393,
      "ĠAccess": 3394,
      "ĠAbstract": 3395,
      "setEnabled": 3396,
      "ecial": 3397,
      "Ġlon": 3398,
      "ĠBrowser": 3399,
      "ĠNo": 3400,
      "Ġcalling": 3401,
      "ChartType": 3402,
      "anguage": 3403,
      "AnonymousAllowed": 3404,
      "Cell": 3405,
      "Employee": 3406,
      "}\">": 3407,
      "Ġom": 3408,
      "otsw": 3409,
      "ĠTask": 3410,
      "INF": 3411,
      "Comparator": 3412,
      "ĠâĨĴ": 3413,
      "CE": 3414,
      "Callable": 3415,
      "MALL": 3416,
      "leg": 3417,
      "Ġthrow": 3418,
      "Ġprogram": 3419,
      "ceed": 3420,
      "ĠParagraph": 3421,
      "Ġ||": 3422,
      "Ġsever": 3423,
      "clipse": 3424,
      "Ġexpress": 3425,
      "Ġicons": 3426,
      "Ġjakarta": 3427,
      "obile": 3428,
      "Ġassign": 3429,
      "ClickListener": 3430,
      "Ġrole": 3431,
      "Ġregular": 3432,
      "ĠâĶĶâĶĢâĶĢ": 3433,
      "ĠEmailField": 3434,
      "KE": 3435,
      "nown": 3436,
      "uster": 3437,
      "andom": 3438,
      "Ġchoose": 3439,
      "Contact": 3440,
      "(({": 3441,
      "Minutes": 3442,
      "ĠDescription": 3443,
      "https": 3444,
      "dev": 3445,
      "\".": 3446,
      "55": 3447,
      "After": 3448,
      "LA": 3449,
      "off": 3450,
      "Ġforms": 3451,
      "Ġbuilding": 3452,
      "Shipping": 3453,
      "Ġincluding": 3454,
      "ighlight": 3455,
      "goal": 3456,
      "Ġembedded": 3457,
      "ynamic": 3458,
      "Ġlonger": 3459,
      "21": 3460,
      "63": 3461,
      "XML": 3462,
      "atest": 3463,
      "Ġproble": 3464,
      "ĠParamet": 3465,
      "ableFuture": 3466,
      "Ġendpoints": 3467,
      "Ġreaders": 3468,
      "scope": 3469,
      "Location": 3470,
      "Ġlibrary": 3471,
      "inux": 3472,
      "Body": 3473,
      "HAL": 3474,
      "TR": 3475,
      "right": 3476,
      "son": 3477,
      "Ġsummary": 3478,
      "Ġpanel": 3479,
      "Ġmemory": 3480,
      "ote": 3481,
      "config": 3482,
      "ĠRoundingMode": 3483,
      "Ġattributes": 3484,
      "ĠAuthentication": 3485,
      "Ġseveral": 3486,
      "HALF": 3487,
      "Ġswitch": 3488,
      "Ġpom": 3489,
      "Ġocc": 3490,
      "Ġoften": 3491,
      "Ġorig": 3492,
      "avigate": 3493,
      "ategories": 3494,
      "Ġopened": 3495,
      "Ġexecute": 3496,
      "IdAndPayload": 3497,
      "mark": 3498,
      "tree": 3499,
      "visible": 3500,
      "xs": 3501,
      "Ġcatch": 3502,
      "Ġcopy": 3503,
      "Ġhierarchy": 3504,
      "setClassName": 3505,
      "ropri": 3506,
      "Ġcreates": 3507,
      "Ġvarious": 3508,
      "price": 3509,
      "Ġediting": 3510,
      "Ġ{...}": 3511,
      "43": 3512,
      "rays": 3513,
      "ently": 3514,
      "igr": 3515,
      "Ġreload": 3516,
      "enders": 3517,
      "Ġvertical": 3518,
      "ĠAll": 3519,
      "ĠAzure": 3520,
      "setLabel": 3521,
      "child": 3522,
      "changed": 3523,
      "Ġexport": 3524,
      "Ġgap": 3525,
      "anges": 3526,
      "Ġattach": 3527,
      "ĠTestBench": 3528,
      "Ġimm": 3529,
      "ercial": 3530,
      "Image": 3531,
      "LIN": 3532,
      "Tip": 3533,
      "close": 3534,
      "iary": 3535,
      "just": 3536,
      "kit": 3537,
      "wh": 3538,
      "}/": 3539,
      "ored": 3540,
      "eturn": 3541,
      "Ġmulti": 3542,
      "ilities": 3543,
      "getName": 3544,
      "abling": 3545,
      "ĠonClick": 3546,
      "Ġbeans": 3547,
      "Registration": 3548,
      "ĠMode": 3549,
      "ĠError": 3550,
      "amed": 3551,
      "oci": 3552,
      "Ġexternal": 3553,
      "sole": 3554,
      "Ġleft": 3555,
      "chestr": 3556,
      "Ġpercentage": 3557,
      "Alignment": 3558,
      "Ġsteps": 3559,
      "ValueChangeMode": 3560,
      "iddleware": 3561,
      "Ġissues": 3562,
      "59": 3563,
      "CO": 3564,
      "Per": 3565,
      "faces": 3566,
      "Ġut": 3567,
      "Ġaxis": 3568,
      "ived": 3569,
      "ections": 3570,
      "Ġpract": 3571,
      "Ġselector": 3572,
      "Ġcurrently": 3573,
      "Ġoutput": 3574,
      "Parameters": 3575,
      "afe": 3576,
      "08": 3577,
      "48": 3578,
      "78": 3579,
      "Push": 3580,
      "Side": 3581,
      "VE": 3582,
      "length": 3583,
      "place": 3584,
      "Ġtable": 3585,
      "Ġtsx": 3586,
      "Ġsec": 3587,
      "ution": 3588,
      "Ġremain": 3589,
      "olbar": 3590,
      "ĠPassword": 3591,
      "service": 3592,
      "ĠEclipse": 3593,
      "ĠRec": 3594,
      "TypeScript": 3595,
      "bindText": 3596,
      "KEY": 3597,
      "pag": 3598,
      "Ġlet": 3599,
      "Ġcrud": 3600,
      "icro": 3601,
      "Ġmove": 3602,
      "gether": 3603,
      "Ġhidden": 3604,
      "search": 3605,
      "Ġ(!": 3606,
      "ĠMulti": 3607,
      "Ġdisc": 3608,
      "Ġexpected": 3609,
      "Ġdescription": 3610,
      "Ġcommun": 3611,
      "ĠDataService": 3612,
      "veloper": 3613,
      "ialized": 3614,
      "screen": 3615,
      "Previous": 3616,
      "cribe": 3617,
      "ChangedEvent": 3618,
      "Ġfails": 3619,
      "ValueChangeListener": 3620,
      "26": 3621,
      "Collaboration": 3622,
      "Save": 3623,
      "Term": 3624,
      "feature": 3625,
      "ĠEach": 3626,
      "toLower": 3627,
      "ButtonVariant": 3628,
      "Ġcomplete": 3629,
      "Ġ174": 3630,
      "Ġ175": 3631,
      "Ġproducts": 3632,
      "ĠDateTimePicker": 3633,
      "Ġsitu": 3634,
      "otswap": 3635,
      "toLowerCase": 3636,
      "Get": 3637,
      "Todo": 3638,
      "Year": 3639,
      "Ġ%": 3640,
      "Ġpa": 3641,
      "ane": 3642,
      "ational": 3643,
      "iler": 3644,
      "setScale": 3645,
      "aving": 3646,
      "ĠPopover": 3647,
      "oped": 3648,
      "Ġ25": 3649,
      "letableFuture": 3650,
      "Ġaccessible": 3651,
      "Ġentry": 3652,
      "ĠServer": 3653,
      "ĠService": 3654,
      "Ġannotated": 3655,
      "Ġet": 3656,
      "Ġbusiness": 3657,
      "Ġob": 3658,
      "address": 3659,
      "sitive": 3660,
      "âĶĤ": 3661,
      "Ġ}}\"": 3662,
      "Ġlayer": 3663,
      "ropriate": 3664,
      "200": 3665,
      "Section": 3666,
      "client": 3667,
      "intern": 3668,
      "Ġplaceholder": 3669,
      "lain": 3670,
      "license": 3671,
      "Ġthough": 3672,
      "Ġthose": 3673,
      "ĠDetails": 3674,
      "Ġviewport": 3675,
      "Ġlisteners": 3676,
      "posed": 3677,
      "Ġresults": 3678,
      "combobox": 3679,
      "Ġstorage": 3680,
      "Ġomitted": 3681,
      "'t": 3682,
      "CH": 3683,
      "Gantt": 3684,
      "Memory": 3685,
      "eed": 3686,
      "panel": 3687,
      "save": 3688,
      "ycle": 3689,
      "request": 3690,
      "etty": 3691,
      "Ġsign": 3692,
      "outing": 3693,
      "Ġoptional": 3694,
      "Ġstr": 3695,
      "axis": 3696,
      "Ġ60": 3697,
      "parse": 3698,
      "Ġrepla": 3699,
      "Ġacross": 3700,
      "duce": 3701,
      "ĠOnly": 3702,
      "chestrator": 3703,
      "Operation": 3704,
      "QL": 3705,
      "bottom": 3706,
      "manager": 3707,
      "string": 3708,
      "Ġincre": 3709,
      "Progress": 3710,
      "ListSignal": 3711,
      "ĠImp": 3712,
      "Ġ200": 3713,
      "Enable": 3714,
      "Ġ50": 3715,
      "Ġspecify": 3716,
      "Ġimportant": 3717,
      "FullName": 3718,
      "ĠGanttSeriesItem": 3719,
      "Ġinstructions": 3720,
      "/.": 3721,
      "Create": 3722,
      "LI": 3723,
      "Popover": 3724,
      "US": 3725,
      "au": 3726,
      "apt": 3727,
      "cing": 3728,
      "fusion": 3729,
      "rics": 3730,
      "Ġtutorial": 3731,
      "Ġpur": 3732,
      "ĠCheck": 3733,
      "Ġhref": 3734,
      "Ġstarts": 3735,
      "ĠPr": 3736,
      "ĠBean": 3737,
      "addSeries": 3738,
      "addValueChangeListener": 3739,
      "ormal": 3740,
      "ĠEd": 3741,
      "Ġcharact": 3742,
      "ertain": 3743,
      "Ġuntil": 3744,
      "Ġpartic": 3745,
      "Ġroles": 3746,
      "Ġsubscription": 3747,
      "vant": 3748,
      "Ġsimilar": 3749,
      "?.": 3750,
      "Comm": 3751,
      "FI": 3752,
      "Target": 3753,
      "\\\"": 3754,
      "clo": 3755,
      "vg": 3756,
      "resp": 3757,
      "icator": 3758,
      "Ġfire": 3759,
      "Ġbasic": 3760,
      "Ġways": 3761,
      "ĠCopilot": 3762,
      "ĠAss": 3763,
      "Ġrule": 3764,
      "ips": 3765,
      "Ġdisable": 3766,
      "Ġruntime": 3767,
      "<>(\"": 3768,
      "ING": 3769,
      "One": 3770,
      "Ġbetter": 3771,
      "Customer": 3772,
      "Ġpassed": 3773,
      "Ġoperations": 3774,
      "Module": 3775,
      "Nullable": 3776,
      "TA": 3777,
      "cated": 3778,
      "Ġtabs": 3779,
      "Ġcache": 3780,
      "Ġbadge": 3781,
      "Ġmonth": 3782,
      "pping": 3783,
      "ols": 3784,
      "getPeople": 3785,
      "Ġdelete": 3786,
      "ĠGet": 3787,
      "Ġincluded": 3788,
      "Ġregister": 3789,
      "ĠQuarkus": 3790,
      "secondary": 3791,
      "category": 3792,
      "pictureUrl": 3793,
      "Ġtogether": 3794,
      "Ġmembership": 3795,
      "Ġmatches": 3796,
      "Ġrest": 3797,
      "ĠStyle": 3798,
      "ĠResp": 3799,
      "module": 3800,
      "Ġintegration": 3801,
      "LUMN": 3802,
      "Parent": 3803,
      "primary": 3804,
      "insert": 3805,
      "Ġclean": 3806,
      "Ġmo": 3807,
      "ully": 3808,
      "istory": 3809,
      "ifec": 3810,
      "Ġbest": 3811,
      "Invalid": 3812,
      "Ġoverflow": 3813,
      "readonly": 3814,
      "Ġ148": 3815,
      "Ġvalidate": 3816,
      "strain": 3817,
      "Ġfiltering": 3818,
      "Ġspecified": 3819,
      "ĠChartType": 3820,
      "Ġdeterm": 3821,
      "ĠMainView": 3822,
      "57": 3823,
      "Hub": 3824,
      "Se": 3825,
      "Vertical": 3826,
      "].": 3827,
      "tel": 3828,
      "urther": 3829,
      "umer": 3830,
      "Ġexperi": 3831,
      "api": 3832,
      "Ġshortcut": 3833,
      "Server": 3834,
      "auto": 3835,
      "private": 3836,
      "Throw": 3837,
      "Instant": 3838,
      "CartItem": 3839,
      "ENTER": 3840,
      "06": 3841,
      "='": 3842,
      "Binding": 3843,
      "Names": 3844,
      "da": 3845,
      "source": 3846,
      "small": 3847,
      "orElse": 3848,
      "arital": 3849,
      "Ġduration": 3850,
      "Ġnative": 3851,
      "ĠSub": 3852,
      "Ġrather": 3853,
      "irtual": 3854,
      "Proposal": 3855,
      "ĠInput": 3856,
      "ĠWith": 3857,
      "UserInfo": 3858,
      "ĠTooltip": 3859,
      "END": 3860,
      "Office": 3861,
      "Subscriber": 3862,
      "54": 3863,
      "Aria": 3864,
      "DA": 3865,
      "DE": 3866,
      "]);": 3867,
      "aType": 3868,
      "full": 3869,
      "handle": 3870,
      "Ġcountry": 3871,
      "Ġprimary": 3872,
      "Ġdel": 3873,
      "Ġnecessary": 3874,
      "acOS": 3875,
      "setMax": 3876,
      "Ġusername": 3877,
      "Ġscenari": 3878,
      "ĠJPA": 3879,
      "Ġcomplet": 3880,
      "Ġdepends": 3881,
      "Ġ172": 3882,
      "DatePicker": 3883,
      "Selector": 3884,
      "ĠAPIs": 3885,
      "Ġtoolbar": 3886,
      "ĠAuto": 3887,
      "localhost": 3888,
      "Beans": 3889,
      "Ġinternal": 3890,
      "aritalStatus": 3891,
      "07": 3892,
      "gent": 3893,
      "gable": 3894,
      "rome": 3895,
      "xl": 3896,
      "Ġ\\": 3897,
      "etes": 3898,
      "Ġdark": 3899,
      "Ġ<>": 3900,
      "ubern": 3901,
      "see": 3902,
      "Ġ({": 3903,
      "ĠMCP": 3904,
      "Ġcompleted": 3905,
      "FilterChain": 3906,
      "parent": 3907,
      "SizeFull": 3908,
      "ĠsearchField": 3909,
      "bservability": 3910,
      "Ġpackages": 3911,
      "ifecycle": 3912,
      "ubernetes": 3913,
      "Focus": 3914,
      "Learn": 3915,
      "effect": 3916,
      "oint": 3917,
      "Ġ];": 3918,
      "atter": 3919,
      "ings": 3920,
      "Ġplatform": 3921,
      "Ġreact": 3922,
      "Ġ'';": 3923,
      "Ġear": 3924,
      "Ġdevelop": 3925,
      "ĠMark": 3926,
      "Ġ143": 3927,
      "validation": 3928,
      "ĠCustomer": 3929,
      "discount": 3930,
      "Ġgood": 3931,
      "ĠâĢĵ": 3932,
      "Description": 3933,
      "location": 3934,
      "ĠOrder": 3935,
      "Container": 3936,
      "LINE": 3937,
      "Long": 3938,
      "Mark": 3939,
      "Out": 3940,
      "Rating": 3941,
      "SMALL": 3942,
      "ba": 3943,
      "hn": 3944,
      "hing": 3945,
      "ph": 3946,
      "pom": 3947,
      "pdf": 3948,
      "ðŁ": 3949,
      "Ġui": 3950,
      "inis": 3951,
      "eries": 3952,
      "Ġcertain": 3953,
      "Ġ===": 3954,
      "getConfiguration": 3955,
      "abilities": 3956,
      "setMin": 3957,
      "These": 3958,
      "addClickListener": 3959,
      "typ": 3960,
      "anded": 3961,
      "Ġ</>": 3962,
      "ĠRadio": 3963,
      "ĠOther": 3964,
      "Ġspacing": 3965,
      "ĠformLayout": 3966,
      "ĠJVM": 3967,
      "ĠGo": 3968,
      "ĠTextArea": 3969,
      "Ġassert": 3970,
      "gedItem": 3971,
      "DO": 3972,
      "element": 3973,
      "rink": 3974,
      "Ġcounter": 3975,
      "Ġmobile": 3976,
      "Ġreactive": 3977,
      "istic": 3978,
      "ĠLong": 3979,
      "Consumer": 3980,
      "Ġoverrid": 3981,
      "Ġinstalled": 3982,
      "Ġsubtotal": 3983,
      "Ġhandling": 3984,
      "bindValue": 3985,
      "Orders": 3986,
      "Ġresponsive": 3987,
      "Ġadmin": 3988,
      "Ġtransl": 3989,
      "AlignItems": 3990,
      "BrowserCallable": 3991,
      "36": 3992,
      "Fr": 3993,
      "Version": 3994,
      "Ġign": 3995,
      "Ġ{}": 3996,
      "Ġmis": 3997,
      "illing": 3998,
      "Ġdeveloper": 3999,
      "Ġlarge": 4000,
      "Ġreturned": 4001,
      "ĠgetElement": 4002,
      "={(": 4003,
      "ĠerrorMessage": 4004,
      "ChangeListener": 4005,
      "ĠProductCatalog": 4006,
      "ATAB": 4007,
      "Ġvisitors": 4008,
      "goals": 4009,
      "vanced": 4010,
      "ĠCloud": 4011,
      "ATABASE": 4012,
      "ns": 4013,
      "olean": 4014,
      "Ġlicense": 4015,
      "itHub": 4016,
      "Ġbrowsers": 4017,
      "Ġ'./": 4018,
      "ĠLe": 4019,
      "change": 4020,
      "boolean": 4021,
      "ĠBox": 4022,
      "cludes": 4023,
      "Ġstarter": 4024,
      "ChangeEvent": 4025,
      "Share": 4026,
      "Local": 4027,
      "Ġmaintain": 4028,
      "ĠlocalUser": 4029,
      "center": 4030,
      "Ġrefresh": 4031,
      "Ġfocused": 4032,
      "Delete": 4033,
      "Background": 4034,
      "Ġparticular": 4035,
      "Horizontal": 4036,
      "Pass": 4037,
      "Swing": 4038,
      "cip": 4039,
      "Ġpol": 4040,
      "Ġnested": 4041,
      "illed": 4042,
      "ĠTabs": 4043,
      "setAttribute": 4044,
      "Ġapplies": 4045,
      "Inter": 4046,
      "Ġlatest": 4047,
      "Ġwhose": 4048,
      "addClassName": 4049,
      "ants": 4050,
      "progress": 4051,
      "ĠNet": 4052,
      "Ext": 4053,
      "Ġenum": 4054,
      "Components": 4055,
      "tings": 4056,
      "Ġvisibility": 4057,
      "Configurator": 4058,
      "echan": 4059,
      "Ġconstraints": 4060,
      "Cancel": 4061,
      "From": 4062,
      "Tabs": 4063,
      "first": 4064,
      "toggle": 4065,
      "atively": 4066,
      "Ġcal": 4067,
      "Ġclo": 4068,
      "Ġfully": 4069,
      "Ġtog": 4070,
      "Ġappropriate": 4071,
      "alling": 4072,
      "ĠOver": 4073,
      "urrency": 4074,
      "anagement": 4075,
      "1234": 4076,
      "ContextMenu": 4077,
      "Show": 4078,
      "EmailField": 4079,
      "Submit": 4080,
      "PageTitle": 4081,
      "Ġartic": 4082,
      "?:": 4083,
      "Birth": 4084,
      "MS": 4085,
      "Main": 4086,
      "Remove": 4087,
      "VER": 4088,
      "country": 4089,
      "ohn": 4090,
      "pa": 4091,
      "Ġfew": 4092,
      "ann": 4093,
      "ansp": 4094,
      "arn": 4095
    },
    "merges": [
      [
        "Ġ",
        "Ġ"
      ],
      [
        "ĠĠ",
        "ĠĠ"
      ],
      [
        "i",
        "n"
      ],
      [
        "o",
        "n"
      ],
      [
        "e",
        "r"
      ],
      [
        "Ġ",
        "t"
      ],
      [
        "e",
        "n"
      ],
      [
        "a",
        "t"
      ],
      [
        "ĠĠ",
        "Ġ"
      ],
      [
        "o",
        "r"
      ],
      [
        "Ġ",
        "a"
      ],
      [
        "h",
        "e"
      ],
      [
        "Ġ",
        "c"
      ],
      [
        "r",
        "e"
      ],
      [
        "l",
        "e"
      ],
      [
        "ĠĠĠĠ",
        "ĠĠĠ"
      ],
      [
        "o",
        "m"
      ],
      [
        "s",
        "t"
      ],
      [
        "a",
        "d"
      ],
      [
        "Ġt",
        "he"
      ],
      [
        "a",
        "l"
      ],
      [
        "i",
        "t"
      ],
      [
        "en",
        "t"
      ],
      [
        "e",
        "t"
      ],
      [
        "o",
        "u"
      ],
      [
        "i",
        "on"
      ],
      [
        "i",
        "c"
      ],
      [
        "Ġ",
        "s"
      ],
      [
        "Ġ",
        "f"
      ],
      [
        "in",
        "g"
      ],
      [
        "e",
        "s"
      ],
      [
        "v",
        "a"
      ],
      [
        "Ġ",
        "p"
      ],
      [
        "a",
        "n"
      ],
      [
        "e",
        "d"
      ],
      [
        "a",
        "r"
      ],
      [
        "c",
        "t"
      ],
      [
        "i",
        "d"
      ],
      [
        "i",
        "s"
      ],
      [
        "ad",
        "in"
      ],
      [
        ")",
        ";"
      ],
      [
        "r",
        "o"
      ],
      [
        "l",
        "o"
      ],
      [
        "Ġ",
        "{"
      ],
      [
        "m",
        "p"
      ],
      [
        "l",
        "a"
      ],
      [
        "Ġ",
        "d"
      ],
      [
        "Ġ",
        "b"
      ],
      [
        "va",
        "adin"
      ],
      [
        "ĠĠĠĠ",
        "ĠĠĠĠ"
      ],
      [
        "at",
        "ion"
      ],
      [
        "e",
        "l"
      ],
      [
        "e",
        "x"
      ],
      [
        "Ġ",
        "}"
      ],
      [
        "Ġt",
        "o"
      ],
      [
        "or",
        "t"
      ],
      [
        "Ġ",
        "in"
      ],
      [
        "Ġ",
        "n"
      ],
      [
        "e",
        "m"
      ],
      [
        "Ġ",
        "w"
      ],
      [
        "u",
        "t"
      ],
      [
        "Ġa",
        "n"
      ],
      [
        "i",
        "g"
      ],
      [
        "Ġ",
        "m"
      ],
      [
        "Ġ",
        "re"
      ],
      [
        "u",
        "s"
      ],
      [
        "at",
        "e"
      ],
      [
        "i",
        "mp"
      ],
      [
        "p",
        "p"
      ],
      [
        "m",
        "e"
      ],
      [
        "om",
        "p"
      ],
      [
        "ou",
        "t"
      ],
      [
        "i",
        "l"
      ],
      [
        "0",
        "0"
      ],
      [
        "Ġ",
        "o"
      ],
      [
        "(",
        ")"
      ],
      [
        "u",
        "r"
      ],
      [
        "Ġ",
        "="
      ],
      [
        "en",
        "d"
      ],
      [
        "imp",
        "ort"
      ],
      [
        "e",
        "w"
      ],
      [
        "a",
        "g"
      ],
      [
        "s",
        "s"
      ],
      [
        "o",
        "l"
      ],
      [
        "o",
        "t"
      ],
      [
        "Ġ",
        "<"
      ],
      [
        "on",
        "ent"
      ],
      [
        "omp",
        "onent"
      ],
      [
        "on",
        "t"
      ],
      [
        "Ġ",
        "S"
      ],
      [
        "er",
        "s"
      ],
      [
        "l",
        "ic"
      ],
      [
        "Ġt",
        "h"
      ],
      [
        "Ġ",
        "1"
      ],
      [
        "Ġ",
        "us"
      ],
      [
        "i",
        "v"
      ],
      [
        "lo",
        "w"
      ],
      [
        "ex",
        "t"
      ],
      [
        "u",
        "e"
      ],
      [
        "Ġan",
        "d"
      ],
      [
        "a",
        "c"
      ],
      [
        "Ġ",
        "v"
      ],
      [
        "g",
        "et"
      ],
      [
        "Ġ",
        "T"
      ],
      [
        "u",
        "m"
      ],
      [
        "Ġ",
        "C"
      ],
      [
        "â",
        "Ģ"
      ],
      [
        "o",
        "d"
      ],
      [
        "Ġ",
        "'"
      ],
      [
        "Ġ",
        "is"
      ],
      [
        "r",
        "id"
      ],
      [
        "a",
        "s"
      ],
      [
        "Ġ",
        "h"
      ],
      [
        "Ġf",
        "or"
      ],
      [
        "u",
        "l"
      ],
      [
        "a",
        "b"
      ],
      [
        "Ġ",
        "st"
      ],
      [
        "el",
        "d"
      ],
      [
        "i",
        "eld"
      ],
      [
        "v",
        "er"
      ],
      [
        "Ġc",
        "om"
      ],
      [
        "a",
        "y"
      ],
      [
        "i",
        "st"
      ],
      [
        "Ġp",
        "ro"
      ],
      [
        "Ġf",
        "r"
      ],
      [
        "a",
        "me"
      ],
      [
        "(",
        "\""
      ],
      [
        "l",
        "y"
      ],
      [
        "ar",
        "t"
      ],
      [
        "m",
        "ent"
      ],
      [
        "ĠĠĠĠĠĠĠĠ",
        "ĠĠĠĠĠĠĠ"
      ],
      [
        "i",
        "f"
      ],
      [
        "Ġ",
        "A"
      ],
      [
        "e",
        "ct"
      ],
      [
        "u",
        "b"
      ],
      [
        "ĠĠĠĠ",
        "ĠĠĠĠĠĠĠ"
      ],
      [
        "Ġ",
        "/"
      ],
      [
        "Ġo",
        "f"
      ],
      [
        "s",
        "et"
      ],
      [
        "e",
        "c"
      ],
      [
        "Ġfr",
        "om"
      ],
      [
        "ĠĠĠĠ",
        "Ġ"
      ],
      [
        "ag",
        "e"
      ],
      [
        "Ġ",
        "y"
      ],
      [
        "al",
        "ue"
      ],
      [
        "Ġ",
        "it"
      ],
      [
        "it",
        "h"
      ],
      [
        "la",
        "ss"
      ],
      [
        "ig",
        "n"
      ],
      [
        "a",
        "ct"
      ],
      [
        "=",
        "\""
      ],
      [
        "es",
        "s"
      ],
      [
        "Ġy",
        "ou"
      ],
      [
        "Ġn",
        "ew"
      ],
      [
        "I",
        "t"
      ],
      [
        "Ġ",
        "on"
      ],
      [
        "t",
        "er"
      ],
      [
        "Ġ",
        "D"
      ],
      [
        "Ġ",
        "L"
      ],
      [
        "a",
        "v"
      ],
      [
        "o",
        "w"
      ],
      [
        "s",
        "e"
      ],
      [
        "a",
        "va"
      ],
      [
        "c",
        "e"
      ],
      [
        "'",
        ";"
      ],
      [
        "Ġc",
        "on"
      ],
      [
        "t",
        "r"
      ],
      [
        "Ġb",
        "e"
      ],
      [
        "i",
        "z"
      ],
      [
        "p",
        "t"
      ],
      [
        "Ġ",
        "e"
      ],
      [
        "u",
        "n"
      ],
      [
        "Ġ",
        "V"
      ],
      [
        "le",
        "ment"
      ],
      [
        "Ġa",
        "pp"
      ],
      [
        "p",
        "er"
      ],
      [
        "Ġw",
        "ith"
      ],
      [
        "c",
        "omponent"
      ],
      [
        "Ġ",
        "-"
      ],
      [
        "Ġ",
        "P"
      ],
      [
        "f",
        "low"
      ],
      [
        "It",
        "em"
      ],
      [
        "i",
        "es"
      ],
      [
        "I",
        "n"
      ],
      [
        "Ġ",
        "("
      ],
      [
        "c",
        "h"
      ],
      [
        "at",
        "a"
      ],
      [
        "t",
        "on"
      ],
      [
        "ut",
        "ton"
      ],
      [
        "Ġ",
        "\""
      ],
      [
        ":",
        ":"
      ],
      [
        "Ġ/",
        "/"
      ],
      [
        "b",
        "o"
      ],
      [
        "la",
        "y"
      ],
      [
        "Ġc",
        "an"
      ],
      [
        "ub",
        "lic"
      ],
      [
        "t",
        "h"
      ],
      [
        "ign",
        "al"
      ],
      [
        "Ġ",
        "|"
      ],
      [
        "Ġd",
        "e"
      ],
      [
        "ur",
        "n"
      ],
      [
        "Ġ",
        "ex"
      ],
      [
        "a",
        "mp"
      ],
      [
        "Ġ",
        "g"
      ],
      [
        "u",
        "st"
      ],
      [
        "a",
        "in"
      ],
      [
        "âĢ",
        "Ļ"
      ],
      [
        "Ġ",
        "r"
      ],
      [
        "(",
        ");"
      ],
      [
        "Ġ",
        "or"
      ],
      [
        "Ġ",
        "l"
      ],
      [
        "t",
        "urn"
      ],
      [
        "in",
        "d"
      ],
      [
        "ac",
        "k"
      ],
      [
        "Ġre",
        "turn"
      ],
      [
        "amp",
        "le"
      ],
      [
        "ers",
        "on"
      ],
      [
        "la",
        "b"
      ],
      [
        "i",
        "ew"
      ],
      [
        "Ġc",
        "lass"
      ],
      [
        "Ġ}",
        ","
      ],
      [
        "Ġw",
        "h"
      ],
      [
        "Ġ",
        "U"
      ],
      [
        "R",
        "e"
      ],
      [
        "p",
        "e"
      ],
      [
        "d",
        "d"
      ],
      [
        "<",
        "/"
      ],
      [
        "ay",
        "out"
      ],
      [
        "s",
        "er"
      ],
      [
        "Ġth",
        "at"
      ],
      [
        "[",
        "]"
      ],
      [
        "ab",
        "le"
      ],
      [
        "r",
        "i"
      ],
      [
        "T",
        "he"
      ],
      [
        "Ġ",
        "B"
      ],
      [
        "Ġa",
        "s"
      ],
      [
        "ad",
        "d"
      ],
      [
        "lic",
        "ation"
      ],
      [
        "ou",
        "n"
      ],
      [
        "a",
        "il"
      ],
      [
        "ul",
        "t"
      ],
      [
        "Ġ",
        "M"
      ],
      [
        "or",
        "m"
      ],
      [
        "it",
        "y"
      ],
      [
        "a",
        "adin"
      ],
      [
        "\"",
        ");"
      ],
      [
        "v",
        "ent"
      ],
      [
        "i",
        "r"
      ],
      [
        "i",
        "le"
      ],
      [
        "L",
        "ayout"
      ],
      [
        "F",
        "ield"
      ],
      [
        "t",
        "y"
      ],
      [
        "o",
        "p"
      ],
      [
        "Ġ",
        "H"
      ],
      [
        "f",
        "ig"
      ],
      [
        "Ġa",
        "l"
      ],
      [
        "Ġc",
        "omponent"
      ],
      [
        "le",
        "ct"
      ],
      [
        "ust",
        "om"
      ],
      [
        "g",
        "e"
      ],
      [
        "Ġ",
        "E"
      ],
      [
        "pt",
        "ion"
      ],
      [
        "i",
        "pp"
      ],
      [
        "Ġth",
        "is"
      ],
      [
        "a",
        "m"
      ],
      [
        "lo",
        "ad"
      ],
      [
        "Ġ",
        "F"
      ],
      [
        "u",
        "re"
      ],
      [
        "an",
        "t"
      ],
      [
        "Ġus",
        "e"
      ],
      [
        "s",
        "p"
      ],
      [
        "Ġ",
        "@"
      ],
      [
        "Ġa",
        "re"
      ],
      [
        "J",
        "ava"
      ],
      [
        "Ġ",
        "."
      ],
      [
        "h",
        "t"
      ],
      [
        "o",
        "c"
      ],
      [
        "an",
        "d"
      ],
      [
        "\"",
        ","
      ],
      [
        "or",
        "d"
      ],
      [
        "00",
        "00"
      ],
      [
        "ĠV",
        "aadin"
      ],
      [
        "N",
        "ame"
      ],
      [
        "ic",
        "e"
      ],
      [
        "u",
        "ct"
      ],
      [
        "n",
        "ipp"
      ],
      [
        "nipp",
        "et"
      ],
      [
        "i",
        "m"
      ],
      [
        "\"",
        ")"
      ],
      [
        "a",
        "p"
      ],
      [
        "Ġs",
        "h"
      ],
      [
        "ĠT",
        "he"
      ],
      [
        "Ġapp",
        "lication"
      ],
      [
        "Ġs",
        "et"
      ],
      [
        "y",
        "pe"
      ],
      [
        "id",
        "e"
      ],
      [
        "S",
        "er"
      ],
      [
        "i",
        "re"
      ],
      [
        "s",
        "nippet"
      ],
      [
        "od",
        "e"
      ],
      [
        "Ġa",
        "dd"
      ],
      [
        "u",
        "p"
      ],
      [
        "Ġp",
        "r"
      ],
      [
        "Ġc",
        "h"
      ],
      [
        "Ġp",
        "ublic"
      ],
      [
        "ic",
        "al"
      ],
      [
        "en",
        "er"
      ],
      [
        "ol",
        "um"
      ],
      [
        "olum",
        "n"
      ],
      [
        "-",
        "-"
      ],
      [
        "j",
        "ect"
      ],
      [
        "P",
        "ro"
      ],
      [
        "Ġc",
        "ont"
      ],
      [
        "ro",
        "w"
      ],
      [
        "ar",
        "d"
      ],
      [
        "lay",
        "out"
      ],
      [
        "ĠĠĠĠĠĠĠĠ",
        "Ġ"
      ],
      [
        "end",
        "er"
      ],
      [
        "I",
        "d"
      ],
      [
        "re",
        "ate"
      ],
      [
        "tr",
        "ing"
      ],
      [
        "Ġs",
        "er"
      ],
      [
        "e",
        "st"
      ],
      [
        "g",
        "in"
      ],
      [
        "Ġit",
        "em"
      ],
      [
        "q",
        "u"
      ],
      [
        "at",
        "ed"
      ],
      [
        "S",
        "ignal"
      ],
      [
        "Ġb",
        "y"
      ],
      [
        "i",
        "al"
      ],
      [
        "iv",
        "ate"
      ],
      [
        "E",
        "lement"
      ],
      [
        "p",
        "o"
      ],
      [
        "Ġ'",
        "@"
      ],
      [
        "Ġs",
        "u"
      ],
      [
        "i",
        "b"
      ],
      [
        "Ġs",
        "e"
      ],
      [
        "r",
        "ing"
      ],
      [
        "i",
        "me"
      ],
      [
        "Ġ<",
        "/"
      ],
      [
        "i",
        "p"
      ],
      [
        "k",
        "e"
      ],
      [
        "Ġpr",
        "ivate"
      ],
      [
        "G",
        "rid"
      ],
      [
        "out",
        "e"
      ],
      [
        "al",
        "l"
      ],
      [
        "L",
        "ist"
      ],
      [
        "()",
        "."
      ],
      [
        "Ġ",
        "lo"
      ],
      [
        "em",
        "o"
      ],
      [
        "m",
        "l"
      ],
      [
        "or",
        "e"
      ],
      [
        "g",
        "r"
      ],
      [
        "ic",
        "ation"
      ],
      [
        "j",
        "ava"
      ],
      [
        "c",
        "k"
      ],
      [
        "lab",
        "el"
      ],
      [
        "d",
        "uct"
      ],
      [
        "v",
        "ice"
      ],
      [
        "Ġ",
        "ext"
      ],
      [
        "t",
        "s"
      ],
      [
        "fig",
        "ur"
      ],
      [
        "Ġv",
        "alue"
      ],
      [
        "at",
        "or"
      ],
      [
        "c",
        "c"
      ],
      [
        "Ġus",
        "er"
      ],
      [
        "\"",
        ">"
      ],
      [
        "iv",
        "e"
      ],
      [
        "o",
        "g"
      ],
      [
        "Ġde",
        "f"
      ],
      [
        "c",
        "on"
      ],
      [
        "Ġ",
        "end"
      ],
      [
        "it",
        "em"
      ],
      [
        "ul",
        "l"
      ],
      [
        "Ġyou",
        "r"
      ],
      [
        "c",
        "ri"
      ],
      [
        "e",
        "p"
      ],
      [
        "il",
        "d"
      ],
      [
        "Ġ",
        "R"
      ],
      [
        "et",
        "h"
      ],
      [
        "d",
        "emo"
      ],
      [
        "v",
        "e"
      ],
      [
        "y",
        "le"
      ],
      [
        "Ġ-",
        ">"
      ],
      [
        "et",
        "ail"
      ],
      [
        "f",
        "orm"
      ],
      [
        "ess",
        "age"
      ],
      [
        "end",
        "s"
      ],
      [
        "Ġ",
        "get"
      ],
      [
        "0000",
        "0"
      ],
      [
        "ct",
        "ion"
      ],
      [
        "j",
        "s"
      ],
      [
        "a",
        "ult"
      ],
      [
        "v",
        "alue"
      ],
      [
        "en",
        "u"
      ],
      [
        "h",
        "is"
      ],
      [
        "al",
        "id"
      ],
      [
        "Ġex",
        "ample"
      ],
      [
        "l",
        "d"
      ],
      [
        "Ġf",
        "ield"
      ],
      [
        "ig",
        "ht"
      ],
      [
        "l",
        "i"
      ],
      [
        "eth",
        "od"
      ],
      [
        "Ġcon",
        "st"
      ],
      [
        "Ġ1",
        "2"
      ],
      [
        "âĢ",
        "ī"
      ],
      [
        "Ġwh",
        "en"
      ],
      [
        "Ġt",
        "r"
      ],
      [
        "p",
        "ut"
      ],
      [
        "c",
        "om"
      ],
      [
        "iz",
        "e"
      ],
      [
        "or",
        "y"
      ],
      [
        "p",
        "ro"
      ],
      [
        "Ġ",
        "if"
      ],
      [
        "a",
        "pp"
      ],
      [
        "f",
        "ield"
      ],
      [
        "ont",
        "end"
      ],
      [
        "Ġ",
        "N"
      ],
      [
        "S",
        "t"
      ],
      [
        "V",
        "alue"
      ],
      [
        "r",
        "or"
      ],
      [
        "ic",
        "on"
      ],
      [
        "an",
        "ge"
      ],
      [
        "Ġ",
        "I"
      ],
      [
        "Ġext",
        "ends"
      ],
      [
        "P",
        "erson"
      ],
      [
        "C",
        "h"
      ],
      [
        "or",
        "iz"
      ],
      [
        "um",
        "o"
      ],
      [
        "C",
        "on"
      ],
      [
        "Ġn",
        "ot"
      ],
      [
        ".",
        "."
      ],
      [
        "u",
        "d"
      ],
      [
        "v",
        "id"
      ],
      [
        "Ġd",
        "ata"
      ],
      [
        "ic",
        "k"
      ],
      [
        "in",
        "e"
      ],
      [
        "n",
        "ot"
      ],
      [
        "Ġo",
        "ver"
      ],
      [
        "Ġst",
        "yle"
      ],
      [
        "ĠS",
        "p"
      ],
      [
        "d",
        "er"
      ],
      [
        "he",
        "ck"
      ],
      [
        "Ġv",
        "iew"
      ],
      [
        "Ġin",
        "st"
      ],
      [
        "figur",
        "ation"
      ],
      [
        "Ġ",
        "up"
      ],
      [
        "er",
        "t"
      ],
      [
        "o",
        "ot"
      ],
      [
        "Ġ",
        "2"
      ],
      [
        "Ġ",
        "In"
      ],
      [
        "t",
        "o"
      ],
      [
        "$",
        "{"
      ],
      [
        "Ġn",
        "ame"
      ],
      [
        "D",
        "ata"
      ],
      [
        "R",
        "oute"
      ],
      [
        "ont",
        "al"
      ],
      [
        "oriz",
        "ontal"
      ],
      [
        "ou",
        "p"
      ],
      [
        "g",
        "rid"
      ],
      [
        "re",
        "act"
      ],
      [
        "l",
        "l"
      ],
      [
        "Ġpro",
        "per"
      ],
      [
        "Ġ",
        "label"
      ],
      [
        "Ġg",
        "rid"
      ],
      [
        ")",
        "."
      ],
      [
        "en",
        "c"
      ],
      [
        "av",
        "e"
      ],
      [
        "ou",
        "r"
      ],
      [
        "Ġm",
        "ethod"
      ],
      [
        "f",
        "f"
      ],
      [
        "er",
        "e"
      ],
      [
        "ol",
        "or"
      ],
      [
        "Ġn",
        "e"
      ],
      [
        "p",
        "ublic"
      ],
      [
        "'",
        ","
      ],
      [
        "Ġf",
        "ol"
      ],
      [
        "le",
        "t"
      ],
      [
        "Ġc",
        "ustom"
      ],
      [
        "ir",
        "st"
      ],
      [
        "a",
        "re"
      ],
      [
        "Ġf",
        "ile"
      ],
      [
        "ou",
        "ld"
      ],
      [
        "Ġ",
        "vaadin"
      ],
      [
        "Ġ",
        "W"
      ],
      [
        "an",
        "g"
      ],
      [
        "rid",
        "e"
      ],
      [
        "Ġh",
        "t"
      ],
      [
        "in",
        "t"
      ],
      [
        "if",
        "ication"
      ],
      [
        "at",
        "h"
      ],
      [
        "E",
        "vent"
      ],
      [
        "Ġt",
        "ag"
      ],
      [
        "E",
        "n"
      ],
      [
        "B",
        "utton"
      ],
      [
        "bo",
        "x"
      ],
      [
        "=",
        "{"
      ],
      [
        "p",
        "ort"
      ],
      [
        "Ġa",
        "ut"
      ],
      [
        "o",
        "id"
      ],
      [
        "s",
        "it"
      ],
      [
        "Ġus",
        "ing"
      ],
      [
        "ro",
        "ot"
      ],
      [
        "E",
        "x"
      ],
      [
        "C",
        "ont"
      ],
      [
        "d",
        "iv"
      ],
      [
        "Ġd",
        "is"
      ],
      [
        "Ġ",
        "O"
      ],
      [
        "Ġne",
        "ed"
      ],
      [
        "ac",
        "h"
      ],
      [
        "as",
        "e"
      ],
      [
        "ect",
        "ed"
      ],
      [
        "b",
        "er"
      ],
      [
        "Ġt",
        "ext"
      ],
      [
        "Ġ",
        "Re"
      ],
      [
        "Ġc",
        "reate"
      ],
      [
        "lo",
        "t"
      ],
      [
        ")",
        ");"
      ],
      [
        "Y",
        "ou"
      ],
      [
        "Ġs",
        "p"
      ],
      [
        "/",
        "/"
      ],
      [
        "or",
        "k"
      ],
      [
        "ur",
        "a"
      ],
      [
        "V",
        "iew"
      ],
      [
        "re",
        "ss"
      ],
      [
        "r",
        "ontend"
      ],
      [
        "il",
        "ter"
      ],
      [
        "Ġt",
        "ype"
      ],
      [
        "Ser",
        "vice"
      ],
      [
        "ption",
        "s"
      ],
      [
        "T",
        "ext"
      ],
      [
        "Ġ",
        "Java"
      ],
      [
        "ĠP",
        "ro"
      ],
      [
        "il",
        "la"
      ],
      [
        "ion",
        "s"
      ],
      [
        "a",
        "st"
      ],
      [
        "ĠS",
        "tring"
      ],
      [
        "Ġdef",
        "ault"
      ],
      [
        "Ġfor",
        "m"
      ],
      [
        "cc",
        "ess"
      ],
      [
        "ick",
        "er"
      ],
      [
        "ĠE",
        "x"
      ],
      [
        "l",
        "it"
      ],
      [
        "Ġ",
        "at"
      ],
      [
        "T",
        "o"
      ],
      [
        "Ġ",
        "va"
      ],
      [
        "ar",
        "am"
      ],
      [
        "âĢ",
        "Ķ"
      ],
      [
        "Ġ",
        "*"
      ],
      [
        "f",
        "er"
      ],
      [
        "at",
        "es"
      ],
      [
        "t",
        "ies"
      ],
      [
        "Ġus",
        "ed"
      ],
      [
        "Ġcomponent",
        "s"
      ],
      [
        "R",
        "ender"
      ],
      [
        "un",
        "ction"
      ],
      [
        "a",
        "ss"
      ],
      [
        "re",
        "s"
      ],
      [
        "oun",
        "d"
      ],
      [
        "bo",
        "ard"
      ],
      [
        "Ġfol",
        "low"
      ],
      [
        "Ġ-",
        "-"
      ],
      [
        "e",
        "f"
      ],
      [
        "as",
        "h"
      ],
      [
        "ic",
        "h"
      ],
      [
        "u",
        "ild"
      ],
      [
        "C",
        "olumn"
      ],
      [
        "Ġl",
        "ist"
      ],
      [
        "b",
        "utton"
      ],
      [
        "re",
        "ad"
      ],
      [
        "in",
        "al"
      ],
      [
        "ow",
        "n"
      ],
      [
        "ack",
        "age"
      ],
      [
        "ur",
        "r"
      ],
      [
        "th",
        "er"
      ],
      [
        "it",
        "le"
      ],
      [
        "The",
        "me"
      ],
      [
        "ab",
        "el"
      ],
      [
        "S",
        "tring"
      ],
      [
        "Ġv",
        "oid"
      ],
      [
        "ĠT",
        "his"
      ],
      [
        "Ġs",
        "c"
      ],
      [
        "ĠL",
        "umo"
      ],
      [
        "Ġse",
        "lect"
      ],
      [
        "ĠU",
        "I"
      ],
      [
        "e",
        "b"
      ],
      [
        "oun",
        "t"
      ],
      [
        "ĠA",
        "ura"
      ],
      [
        "Ġ",
        "he"
      ],
      [
        "end",
        "enc"
      ],
      [
        "Item",
        "s"
      ],
      [
        "ind",
        "er"
      ],
      [
        "ib",
        "le"
      ],
      [
        "ess",
        "ion"
      ],
      [
        "Ġpro",
        "t"
      ],
      [
        "o",
        "ver"
      ],
      [
        "ert",
        "ical"
      ],
      [
        "id",
        "get"
      ],
      [
        "Ġ",
        "en"
      ],
      [
        "ec",
        "ur"
      ],
      [
        "etail",
        "s"
      ],
      [
        "ĠĠĠĠĠĠĠĠ",
        "ĠĠĠĠĠĠĠĠĠĠĠ"
      ],
      [
        "e",
        "e"
      ],
      [
        "able",
        "d"
      ],
      [
        "Ġ1",
        "5"
      ],
      [
        "od",
        "el"
      ],
      [
        "d",
        "ate"
      ],
      [
        "ecur",
        "ity"
      ],
      [
        "Ġe",
        "lement"
      ],
      [
        "Ġ",
        "J"
      ],
      [
        "op",
        "le"
      ],
      [
        "er",
        "ror"
      ],
      [
        "an",
        "s"
      ],
      [
        "t",
        "ext"
      ],
      [
        "aram",
        "et"
      ],
      [
        "n",
        "ew"
      ],
      [
        "ar",
        "y"
      ],
      [
        "row",
        "ser"
      ],
      [
        "L",
        "abel"
      ],
      [
        "urr",
        "ent"
      ],
      [
        "a",
        "k"
      ],
      [
        "Ġ",
        "Grid"
      ],
      [
        "Ġ=",
        ">"
      ],
      [
        "q",
        "ue"
      ],
      [
        "Ġ",
        "G"
      ],
      [
        "s",
        "o"
      ],
      [
        "s",
        "ide"
      ],
      [
        "ad",
        "er"
      ],
      [
        "lic",
        "k"
      ],
      [
        "av",
        "ig"
      ],
      [
        "Ġitem",
        "s"
      ],
      [
        "Ġe",
        "vent"
      ],
      [
        "Ġser",
        "ver"
      ],
      [
        "Ġht",
        "ml"
      ],
      [
        "e",
        "lect"
      ],
      [
        "Ġ",
        "un"
      ],
      [
        "Ġc",
        "omp"
      ],
      [
        "Ġde",
        "p"
      ],
      [
        "out",
        "er"
      ],
      [
        "um",
        "ber"
      ],
      [
        "c",
        "l"
      ],
      [
        "ers",
        "ion"
      ],
      [
        "pp",
        "ort"
      ],
      [
        "Ġ",
        "3"
      ],
      [
        "Ġapp",
        "ly"
      ],
      [
        "Ġprot",
        "ected"
      ],
      [
        "an",
        "ce"
      ],
      [
        "c",
        "lass"
      ],
      [
        "ĠL",
        "it"
      ],
      [
        "F",
        "rontend"
      ],
      [
        "ash",
        "board"
      ],
      [
        "ar",
        "i"
      ],
      [
        "Ġfollow",
        "ing"
      ],
      [
        "ac",
        "e"
      ],
      [
        "ĠD",
        "iv"
      ],
      [
        "Ġthe",
        "me"
      ],
      [
        "()",
        ");"
      ],
      [
        "Ġsh",
        "ould"
      ],
      [
        "qu",
        "ire"
      ],
      [
        "id",
        "th"
      ],
      [
        "Ġ",
        "root"
      ],
      [
        "Ġin",
        "ter"
      ],
      [
        "Ġt",
        "est"
      ],
      [
        "um",
        "ent"
      ],
      [
        "li",
        "ent"
      ],
      [
        "il",
        "ity"
      ],
      [
        "b",
        "ject"
      ],
      [
        "Ġover",
        "ride"
      ],
      [
        "Ġ/",
        ">"
      ],
      [
        "F",
        "orm"
      ],
      [
        "que",
        "st"
      ],
      [
        "Ġh",
        "as"
      ],
      [
        "Ser",
        "ies"
      ],
      [
        "u",
        "al"
      ],
      [
        "vid",
        "er"
      ],
      [
        "â",
        "Ķ"
      ],
      [
        "t",
        "e"
      ],
      [
        "orizontal",
        "Layout"
      ],
      [
        "Ġ",
        "0"
      ],
      [
        "e",
        "ople"
      ],
      [
        "an",
        "ag"
      ],
      [
        "S",
        "S"
      ],
      [
        "n",
        "ame"
      ],
      [
        "Ġd",
        "o"
      ],
      [
        "art",
        "s"
      ],
      [
        "ord",
        "er"
      ],
      [
        "Ġp",
        "re"
      ],
      [
        "Ġr",
        "ender"
      ],
      [
        "o",
        "x"
      ],
      [
        "Ġ1",
        "4"
      ],
      [
        "Ġs",
        "ignal"
      ],
      [
        "o",
        "o"
      ],
      [
        "p",
        "en"
      ],
      [
        "ial",
        "og"
      ],
      [
        "Ġst",
        "at"
      ],
      [
        "Ġ",
        "imp"
      ],
      [
        "N",
        "ot"
      ],
      [
        "h",
        "en"
      ],
      [
        "Ġon",
        "ly"
      ],
      [
        "sp",
        "an"
      ],
      [
        "ĠEx",
        "ample"
      ],
      [
        "Ġc",
        "all"
      ],
      [
        "Ġpro",
        "ject"
      ],
      [
        "Ġre",
        "s"
      ],
      [
        "cri",
        "pt"
      ],
      [
        "Ġal",
        "l"
      ],
      [
        "i",
        "x"
      ],
      [
        "1",
        "8"
      ],
      [
        "b",
        "ack"
      ],
      [
        "at",
        "ing"
      ],
      [
        "Ġb",
        "utton"
      ],
      [
        "ertical",
        "Layout"
      ],
      [
        "s",
        "h"
      ],
      [
        "it",
        "or"
      ],
      [
        "Ġwh",
        "ich"
      ],
      [
        "Ġh",
        "ave"
      ],
      [
        "component",
        "s"
      ],
      [
        "ĠĠĠĠĠĠĠĠ",
        "ĠĠĠĠĠĠĠĠĠĠĠĠĠĠĠ"
      ],
      [
        "C",
        "omponent"
      ],
      [
        "g",
        "er"
      ],
      [
        "he",
        "et"
      ],
      [
        "ĠLit",
        "Element"
      ],
      [
        "Ġm",
        "ore"
      ],
      [
        "Ġ",
        "layout"
      ],
      [
        "ical",
        "ly"
      ],
      [
        "Ġan",
        "y"
      ],
      [
        "not",
        "ation"
      ],
      [
        "ire",
        "ct"
      ],
      [
        "Ġr",
        "un"
      ],
      [
        "lab",
        "le"
      ],
      [
        "o",
        "st"
      ],
      [
        "ĠL",
        "ist"
      ],
      [
        ")",
        ","
      ],
      [
        "Ġit",
        "s"
      ],
      [
        "Ġ",
        ">"
      ],
      [
        "Ġ",
        "id"
      ],
      [
        "th",
        "is"
      ],
      [
        "om",
        "ain"
      ],
      [
        "Ġ1",
        "7"
      ],
      [
        "at",
        "ar"
      ],
      [
        "a",
        "x"
      ],
      [
        "Ġh",
        "ow"
      ],
      [
        "T",
        "ype"
      ],
      [
        "R",
        "oot"
      ],
      [
        "u",
        "es"
      ],
      [
        "ĠSp",
        "ring"
      ],
      [
        "ĠP",
        "erson"
      ],
      [
        "D",
        "ate"
      ],
      [
        "c",
        "ont"
      ],
      [
        "List",
        "ener"
      ],
      [
        "re",
        "e"
      ],
      [
        "le",
        "s"
      ],
      [
        "ou",
        "s"
      ],
      [
        "Ġcont",
        "ent"
      ],
      [
        "p",
        "ackage"
      ],
      [
        "Ġs",
        "ub"
      ],
      [
        "ec",
        "ut"
      ],
      [
        "heck",
        "box"
      ],
      [
        "Ġcon",
        "figuration"
      ],
      [
        "ĠB",
        "utton"
      ],
      [
        "c",
        "es"
      ],
      [
        "ag",
        "es"
      ],
      [
        "y",
        "n"
      ],
      [
        "l",
        "u"
      ],
      [
        "Ġ",
        "java"
      ],
      [
        "Ġal",
        "so"
      ],
      [
        "po",
        "int"
      ],
      [
        "Ġp",
        "ath"
      ],
      [
        "ar",
        "k"
      ],
      [
        "h",
        "ent"
      ],
      [
        "at",
        "ure"
      ],
      [
        "Ġ",
        "`"
      ],
      [
        "Ġp",
        "age"
      ],
      [
        "P",
        "I"
      ],
      [
        "l",
        "ing"
      ],
      [
        "Ġva",
        "r"
      ],
      [
        "le",
        "d"
      ],
      [
        "(",
        "'"
      ],
      [
        "Ġ",
        "5"
      ],
      [
        "Ġimp",
        "lement"
      ],
      [
        "er",
        "m"
      ],
      [
        "Ġex",
        "p"
      ],
      [
        "c",
        "reate"
      ],
      [
        "ari",
        "ant"
      ],
      [
        "p",
        "lay"
      ],
      [
        "t",
        "p"
      ],
      [
        "Ġa",
        "r"
      ],
      [
        "ex",
        "port"
      ],
      [
        "Ġv",
        "alid"
      ],
      [
        "ĠT",
        "ext"
      ],
      [
        "Ġ--",
        ">"
      ],
      [
        "!",
        "--"
      ],
      [
        "st",
        "r"
      ],
      [
        "Ġp",
        "o"
      ],
      [
        "Render",
        "Root"
      ],
      [
        "Ġ",
        "+"
      ],
      [
        "al",
        "se"
      ],
      [
        "Ġapply",
        "Theme"
      ],
      [
        "Ġ",
        "4"
      ],
      [
        "S",
        "elect"
      ],
      [
        "cl",
        "ud"
      ],
      [
        "Ġ",
        "le"
      ],
      [
        "en",
        "ce"
      ],
      [
        "gr",
        "oup"
      ],
      [
        "ec",
        "if"
      ],
      [
        "ht",
        "ml"
      ],
      [
        "oc",
        "ument"
      ],
      [
        "on",
        "e"
      ],
      [
        "S",
        "ty"
      ],
      [
        "Ġo",
        "ther"
      ],
      [
        "c",
        "ustom"
      ],
      [
        "t",
        "ime"
      ],
      [
        "ĠC",
        "omponent"
      ],
      [
        "ro",
        "p"
      ],
      [
        "Ġproper",
        "ty"
      ],
      [
        "Ġs",
        "o"
      ],
      [
        "I",
        "con"
      ],
      [
        "Ġ<",
        "!--"
      ],
      [
        "ke",
        "y"
      ],
      [
        "ener",
        "ated"
      ],
      [
        "ff",
        "ect"
      ],
      [
        "Ġst",
        "ate"
      ],
      [
        "Ġproper",
        "ties"
      ],
      [
        "Ġ",
        "You"
      ],
      [
        "t",
        "ing"
      ],
      [
        "Ġsu",
        "pport"
      ],
      [
        "e",
        "ature"
      ],
      [
        "r",
        "oup"
      ],
      [
        "Ġ}",
        ");"
      ],
      [
        "V",
        "ariant"
      ],
      [
        "E",
        "R"
      ],
      [
        "ĠF",
        "or"
      ],
      [
        "p",
        "erson"
      ],
      [
        "Ġlo",
        "g"
      ],
      [
        "t",
        "he"
      ],
      [
        "F",
        "low"
      ],
      [
        "Ġb",
        "rowser"
      ],
      [
        "ect",
        "ion"
      ],
      [
        "P",
        "icker"
      ],
      [
        "w",
        "ing"
      ],
      [
        "lu",
        "gin"
      ],
      [
        "Ġch",
        "ang"
      ],
      [
        "om",
        "e"
      ],
      [
        "S",
        "p"
      ],
      [
        "on",
        "d"
      ],
      [
        "d",
        "omain"
      ],
      [
        "on",
        "g"
      ],
      [
        "Ġb",
        "ack"
      ],
      [
        "Ġw",
        "r"
      ],
      [
        "c",
        "olumn"
      ],
      [
        "Ġ",
        "error"
      ],
      [
        "Ġon",
        "e"
      ],
      [
        "Ġd",
        "es"
      ],
      [
        "A",
        "R"
      ],
      [
        "lo",
        "y"
      ],
      [
        "O",
        "ptions"
      ],
      [
        "r",
        "ud"
      ],
      [
        "ar",
        "ch"
      ],
      [
        "ĠRe",
        "act"
      ],
      [
        "el",
        "l"
      ],
      [
        "c",
        "al"
      ],
      [
        "endenc",
        "y"
      ],
      [
        "al",
        "ues"
      ],
      [
        "Ġ",
        "icon"
      ],
      [
        "er",
        "y"
      ],
      [
        "w",
        "ord"
      ],
      [
        "ou",
        "g"
      ],
      [
        "ĠA",
        "PI"
      ],
      [
        "B",
        "ox"
      ],
      [
        "p",
        "load"
      ],
      [
        "Ġ",
        "["
      ],
      [
        "H",
        "e"
      ],
      [
        "form",
        "ation"
      ],
      [
        "ar",
        "get"
      ],
      [
        "m",
        "o"
      ],
      [
        "Ġcont",
        "ain"
      ],
      [
        "1",
        "2"
      ],
      [
        "oug",
        "h"
      ],
      [
        "S",
        "cript"
      ],
      [
        "Ġ",
        "It"
      ],
      [
        "is",
        "ible"
      ],
      [
        "Ġp",
        "aramet"
      ],
      [
        "Ġan",
        "notation"
      ],
      [
        "item",
        "s"
      ],
      [
        "Ġt",
        "ime"
      ],
      [
        "Ġpro",
        "duct"
      ],
      [
        "Ġf",
        "inal"
      ],
      [
        "Ġc",
        "lient"
      ],
      [
        "add",
        "ing"
      ],
      [
        "A",
        "l"
      ],
      [
        "ĠC",
        "h"
      ],
      [
        "fig",
        "ure"
      ],
      [
        "ass",
        "word"
      ],
      [
        "Ġthe",
        "m"
      ],
      [
        "Ġs",
        "ame"
      ],
      [
        "r",
        "outer"
      ],
      [
        "Ġin",
        "to"
      ],
      [
        "Ġ",
        "6"
      ],
      [
        "la",
        "st"
      ],
      [
        "lab",
        "or"
      ],
      [
        "Ġre",
        "quire"
      ],
      [
        "U",
        "ser"
      ],
      [
        "Ġ",
        "load"
      ],
      [
        "=\"",
        "${"
      ],
      [
        "y",
        "st"
      ],
      [
        "oun",
        "tr"
      ],
      [
        "ol",
        "labor"
      ],
      [
        "Ġa",
        "ccess"
      ],
      [
        "ĠC",
        "on"
      ],
      [
        "g",
        "ist"
      ],
      [
        "le",
        "an"
      ],
      [
        "Ġre",
        "ad"
      ],
      [
        "ex",
        "ample"
      ],
      [
        "yst",
        "em"
      ],
      [
        "Ġb",
        "uild"
      ],
      [
        "O",
        "ver"
      ],
      [
        "as",
        "ic"
      ],
      [
        "d",
        "ep"
      ],
      [
        "Ġf",
        "irst"
      ],
      [
        "anag",
        "er"
      ],
      [
        "T",
        "ime"
      ],
      [
        "as",
        "k"
      ],
      [
        "Ġn",
        "ull"
      ],
      [
        "Ġ",
        "ent"
      ],
      [
        "ad",
        "i"
      ],
      [
        "Ġcom",
        "m"
      ],
      [
        "Ġstat",
        "ic"
      ],
      [
        "hent",
        "ication"
      ],
      [
        "Ġst",
        "art"
      ],
      [
        "Re",
        "act"
      ],
      [
        "Pro",
        "vider"
      ],
      [
        "av",
        "en"
      ],
      [
        "ro",
        "ll"
      ],
      [
        "sit",
        "ion"
      ],
      [
        "l",
        "ine"
      ],
      [
        "le",
        "x"
      ],
      [
        "Ġc",
        "ode"
      ],
      [
        "t",
        "ip"
      ],
      [
        "ol",
        "tip"
      ],
      [
        "tr",
        "ue"
      ],
      [
        "avig",
        "ation"
      ],
      [
        "ter",
        "n"
      ],
      [
        "M",
        "essage"
      ],
      [
        "Ġ*",
        "/"
      ],
      [
        "V",
        "aadin"
      ],
      [
        "em",
        "ail"
      ],
      [
        "ollabor",
        "ation"
      ],
      [
        "Ġo",
        "bject"
      ],
      [
        "ay",
        "s"
      ],
      [
        "b",
        "ar"
      ],
      [
        "y",
        "p"
      ],
      [
        "F",
        "or"
      ],
      [
        "ot",
        "h"
      ],
      [
        "ĠD",
        "ata"
      ],
      [
        "Ġ",
        "qu"
      ],
      [
        "per",
        "ty"
      ],
      [
        "c",
        "he"
      ],
      [
        "our",
        "ce"
      ],
      [
        "se",
        "lect"
      ],
      [
        "L",
        "it"
      ],
      [
        "c",
        "olor"
      ],
      [
        "Ġh",
        "and"
      ],
      [
        "O",
        "N"
      ],
      [
        "T",
        "his"
      ],
      [
        "a",
        "ke"
      ],
      [
        "in",
        "put"
      ],
      [
        "Ġw",
        "ork"
      ],
      [
        "if",
        "act"
      ],
      [
        "gr",
        "ound"
      ],
      [
        "ĠC",
        "SS"
      ],
      [
        "ce",
        "ption"
      ],
      [
        "ts",
        "x"
      ],
      [
        "e",
        "ar"
      ],
      [
        "M",
        "enu"
      ],
      [
        "in",
        "k"
      ],
      [
        "ĠA",
        "pp"
      ],
      [
        "<",
        ">"
      ],
      [
        "ĠH",
        "illa"
      ],
      [
        "p",
        "art"
      ],
      [
        "f",
        "ace"
      ],
      [
        "Ġd",
        "irect"
      ],
      [
        "I",
        "N"
      ],
      [
        "C",
        "lass"
      ],
      [
        "Ġm",
        "essage"
      ],
      [
        "w",
        "e"
      ],
      [
        "re",
        "am"
      ],
      [
        "Ġ1",
        "1"
      ],
      [
        "Ġ1",
        "6"
      ],
      [
        "Ġa",
        "b"
      ],
      [
        "r",
        "a"
      ],
      [
        "Ġc",
        "olumn"
      ],
      [
        "()",
        ","
      ],
      [
        "ator",
        "s"
      ],
      [
        "r",
        "ag"
      ],
      [
        "ad",
        "ge"
      ],
      [
        "Ġst",
        "ring"
      ],
      [
        "n",
        "ing"
      ],
      [
        "'",
        ")"
      ],
      [
        "Ġ",
        ");"
      ],
      [
        "Ġin",
        "formation"
      ],
      [
        "at",
        "ch"
      ],
      [
        "la",
        "ce"
      ],
      [
        "as",
        "ed"
      ],
      [
        "p",
        "x"
      ],
      [
        "Ġdis",
        "play"
      ],
      [
        "M",
        "L"
      ],
      [
        "Ġn",
        "o"
      ],
      [
        "Ġal",
        "low"
      ],
      [
        "il",
        "l"
      ],
      [
        "Ġ1",
        "0"
      ],
      [
        "ĠI",
        "f"
      ],
      [
        "ation",
        "s"
      ],
      [
        "Ġd",
        "ocument"
      ],
      [
        "om",
        "at"
      ],
      [
        "mp",
        "l"
      ],
      [
        "f",
        "or"
      ],
      [
        "Pro",
        "duct"
      ],
      [
        "Ġre",
        "quest"
      ],
      [
        "Ġpro",
        "vid"
      ],
      [
        "re",
        "en"
      ],
      [
        "ol",
        "der"
      ],
      [
        "oc",
        "us"
      ],
      [
        "ve",
        "lo"
      ],
      [
        "Ġf",
        "unction"
      ],
      [
        "Ġv",
        "alues"
      ],
      [
        "Ġsu",
        "ch"
      ],
      [
        "m",
        "ail"
      ],
      [
        "ut",
        "il"
      ],
      [
        "Ch",
        "ange"
      ],
      [
        "x",
        "is"
      ],
      [
        "Ġ",
        "&"
      ],
      [
        "A",
        "n"
      ],
      [
        "W",
        "idget"
      ],
      [
        "s",
        "ing"
      ],
      [
        "Ġm",
        "od"
      ],
      [
        "v",
        "iew"
      ],
      [
        "f",
        "ter"
      ],
      [
        "Ġsh",
        "ow"
      ],
      [
        "ĠText",
        "Field"
      ],
      [
        "the",
        "me"
      ],
      [
        "Ġchang",
        "es"
      ],
      [
        "Cont",
        "ext"
      ],
      [
        "Ġl",
        "i"
      ],
      [
        "ĠS",
        "t"
      ],
      [
        "ifact",
        "Id"
      ],
      [
        "A",
        "dd"
      ],
      [
        "f",
        "unction"
      ],
      [
        "ind",
        "ing"
      ],
      [
        "âĶ",
        "Ģ"
      ],
      [
        "in",
        "ed"
      ],
      [
        "\">",
        "</"
      ],
      [
        "group",
        "Id"
      ],
      [
        "ĠĠĠĠĠĠĠĠ",
        "ĠĠĠĠĠ"
      ],
      [
        "art",
        "ifactId"
      ],
      [
        "ĠH",
        "T"
      ],
      [
        "r",
        "ror"
      ],
      [
        "a",
        "ut"
      ],
      [
        "ate",
        "g"
      ],
      [
        "w",
        "ork"
      ],
      [
        "s",
        "heet"
      ],
      [
        "Ġ",
        "K"
      ],
      [
        "/",
        "*"
      ],
      [
        "Ġinst",
        "ance"
      ],
      [
        "Sty",
        "le"
      ],
      [
        "Ġc",
        "urrent"
      ],
      [
        "Ġf",
        "ilter"
      ],
      [
        "on",
        "ly"
      ],
      [
        "Ġaut",
        "omat"
      ],
      [
        "Ġsu",
        "per"
      ],
      [
        "m",
        "ap"
      ],
      [
        "tr",
        "ib"
      ],
      [
        "trib",
        "ut"
      ],
      [
        "Ġcon",
        "figure"
      ],
      [
        "bo",
        "Box"
      ],
      [
        "i",
        "lable"
      ],
      [
        "id",
        "er"
      ],
      [
        "i",
        "er"
      ],
      [
        "Ġp",
        "erson"
      ],
      [
        "f",
        "o"
      ],
      [
        "S",
        "h"
      ],
      [
        "ial",
        "iz"
      ],
      [
        "Ġsp",
        "ecif"
      ],
      [
        "B",
        "y"
      ],
      [
        "Ġp",
        "er"
      ],
      [
        "our",
        "ces"
      ],
      [
        "v",
        "atar"
      ],
      [
        "O",
        "n"
      ],
      [
        "ĠN",
        "ot"
      ],
      [
        "Ġc",
        "olor"
      ],
      [
        "Ġ}",
        "}"
      ],
      [
        "8",
        "0"
      ],
      [
        "ĠF",
        "low"
      ],
      [
        "Ġli",
        "ke"
      ],
      [
        "b",
        "ind"
      ],
      [
        "h",
        "illa"
      ],
      [
        "own",
        "load"
      ],
      [
        "Ġt",
        "yp"
      ],
      [
        "Ġser",
        "vice"
      ],
      [
        "Ġ`",
        ";"
      ],
      [
        "re",
        "f"
      ],
      [
        "em",
        "b"
      ],
      [
        "per",
        "ties"
      ],
      [
        "l",
        "er"
      ],
      [
        "ĠSp",
        "an"
      ],
      [
        "it",
        "e"
      ],
      [
        "v",
        "ersion"
      ],
      [
        "al",
        "s"
      ],
      [
        "Ġd",
        "ate"
      ],
      [
        "Pro",
        "perty"
      ],
      [
        "M",
        "ode"
      ],
      [
        "u",
        "le"
      ],
      [
        "Ġ",
        "key"
      ],
      [
        "ac",
        "he"
      ],
      [
        "Ġs",
        "lot"
      ],
      [
        "A",
        "ut"
      ],
      [
        "ro",
        "l"
      ],
      [
        "En",
        "d"
      ],
      [
        "G",
        "roup"
      ],
      [
        "ountr",
        "y"
      ],
      [
        "e",
        "ad"
      ],
      [
        "A",
        "L"
      ],
      [
        "Ġin",
        "clud"
      ],
      [
        "Not",
        "e"
      ],
      [
        "E",
        "d"
      ],
      [
        "Ġc",
        "re"
      ],
      [
        "it",
        "ion"
      ],
      [
        "Ġch",
        "art"
      ],
      [
        "Ġ",
        "row"
      ],
      [
        "N",
        "av"
      ],
      [
        "d",
        "ata"
      ],
      [
        "ed",
        "it"
      ],
      [
        "ĠV",
        "erticalLayout"
      ],
      [
        "D",
        "iv"
      ],
      [
        "cri",
        "ption"
      ],
      [
        "r",
        "uct"
      ],
      [
        "Ġdo",
        "es"
      ],
      [
        "ĠT",
        "o"
      ],
      [
        "Ġapplication",
        "s"
      ],
      [
        "Ġp",
        "eople"
      ],
      [
        "R",
        "es"
      ],
      [
        "Ġ",
        "j"
      ],
      [
        "va",
        "ilable"
      ],
      [
        "ĠS",
        "h"
      ],
      [
        "v",
        "ed"
      ],
      [
        "res",
        "ent"
      ],
      [
        "F",
        "ilter"
      ],
      [
        "Ġup",
        "d"
      ],
      [
        "O",
        "M"
      ],
      [
        "Ġn",
        "umber"
      ],
      [
        "S",
        "c"
      ],
      [
        "e",
        "an"
      ],
      [
        "..",
        "."
      ],
      [
        "O",
        "r"
      ],
      [
        "Ġ",
        "out"
      ],
      [
        "ĠH",
        "orizontalLayout"
      ],
      [
        "Ġautomat",
        "ically"
      ],
      [
        "im",
        "age"
      ],
      [
        "c",
        "ount"
      ],
      [
        "Ġd",
        "if"
      ],
      [
        "ult",
        "ip"
      ],
      [
        "po",
        "sit"
      ],
      [
        "Ġm",
        "in"
      ],
      [
        "Ġe",
        "ach"
      ],
      [
        "p",
        "icker"
      ],
      [
        "Ġb",
        "ut"
      ],
      [
        "e",
        "y"
      ],
      [
        "ef",
        "ault"
      ],
      [
        "He",
        "ader"
      ],
      [
        "A",
        "pp"
      ],
      [
        "c",
        "ess"
      ],
      [
        "F",
        "ile"
      ],
      [
        "s",
        "c"
      ],
      [
        "v",
        "i"
      ],
      [
        "on",
        "s"
      ],
      [
        "c",
        "ord"
      ],
      [
        "Ġm",
        "an"
      ],
      [
        "velo",
        "p"
      ],
      [
        "B",
        "ar"
      ],
      [
        "p",
        "ar"
      ],
      [
        "v",
        "alid"
      ],
      [
        "ing",
        "le"
      ],
      [
        "are",
        "d"
      ],
      [
        "P",
        "eople"
      ],
      [
        "Ġin",
        "put"
      ],
      [
        "op",
        "over"
      ],
      [
        "at",
        "us"
      ],
      [
        "let",
        "e"
      ],
      [
        "us",
        "e"
      ],
      [
        "Ġm",
        "ay"
      ],
      [
        "oo",
        "lean"
      ],
      [
        "last",
        "Name"
      ],
      [
        "I",
        "f"
      ],
      [
        "Ġ12",
        "5"
      ],
      [
        "Over",
        "ride"
      ],
      [
        "adi",
        "o"
      ],
      [
        "Ġ12",
        "4"
      ],
      [
        "m",
        "it"
      ],
      [
        "ĠU",
        "ser"
      ],
      [
        "Ġva",
        "ri"
      ],
      [
        "ame",
        "work"
      ],
      [
        "Ġb",
        "et"
      ],
      [
        "4",
        "00000"
      ],
      [
        "L",
        "oc"
      ],
      [
        "Ġmethod",
        "s"
      ],
      [
        "Ġfile",
        "s"
      ],
      [
        "E",
        "rror"
      ],
      [
        "g",
        "ress"
      ],
      [
        "ĠPro",
        "duct"
      ],
      [
        "D",
        "etails"
      ],
      [
        "i",
        "a"
      ],
      [
        "Ġg",
        "ener"
      ],
      [
        "6",
        "00000"
      ],
      [
        "A",
        "xis"
      ],
      [
        "Ġt",
        "arget"
      ],
      [
        "e",
        "vent"
      ],
      [
        "Ġtr",
        "ue"
      ],
      [
        "irst",
        "Name"
      ],
      [
        "0000",
        "00"
      ],
      [
        "d",
        "ex"
      ],
      [
        "e",
        "ver"
      ],
      [
        "at",
        "ive"
      ],
      [
        "ec",
        "or"
      ],
      [
        "Render",
        "er"
      ],
      [
        ":",
        "//"
      ],
      [
        "C",
        "ustom"
      ],
      [
        "f",
        "ore"
      ],
      [
        "Ġo",
        "pen"
      ],
      [
        "T",
        "itle"
      ],
      [
        "Ġm",
        "enu"
      ],
      [
        "Ġse",
        "e"
      ],
      [
        "Ġhe",
        "l"
      ],
      [
        "posit",
        "ory"
      ],
      [
        "w",
        "o"
      ],
      [
        "o",
        "k"
      ],
      [
        "Ġa",
        "vailable"
      ],
      [
        "ĠC",
        "ustom"
      ],
      [
        "if",
        "y"
      ],
      [
        "ind",
        "ow"
      ],
      [
        "Q",
        "u"
      ],
      [
        "m",
        "ary"
      ],
      [
        "st",
        "art"
      ],
      [
        "b",
        "le"
      ],
      [
        "m",
        "enu"
      ],
      [
        "o",
        "b"
      ],
      [
        "v",
        "el"
      ],
      [
        "S",
        "ize"
      ],
      [
        "m",
        "odel"
      ],
      [
        "Ġdocument",
        "ation"
      ],
      [
        "us",
        "er"
      ],
      [
        "ac",
        "ing"
      ],
      [
        "ab",
        "s"
      ],
      [
        "lot",
        "Options"
      ],
      [
        "ĠF",
        "orm"
      ],
      [
        "ĠD",
        "ate"
      ],
      [
        "Ġfield",
        "s"
      ],
      [
        "order",
        "ed"
      ],
      [
        "r",
        "ough"
      ],
      [
        "Ġf",
        "eature"
      ],
      [
        "ĠS",
        "wing"
      ],
      [
        "Ġch",
        "ange"
      ],
      [
        "om",
        "boBox"
      ],
      [
        "ĠS",
        "ee"
      ],
      [
        "Ġd",
        "etails"
      ],
      [
        "Ġre",
        "mo"
      ],
      [
        "fer",
        "ence"
      ],
      [
        "1",
        "0"
      ],
      [
        "custom",
        "Element"
      ],
      [
        "Ġus",
        "ers"
      ],
      [
        "endenc",
        "ies"
      ],
      [
        "d",
        "ecor"
      ],
      [
        "Ġselect",
        "ed"
      ],
      [
        "f",
        "ession"
      ],
      [
        "g",
        "enerated"
      ],
      [
        "Ġr",
        "oute"
      ],
      [
        "\")",
        ");"
      ],
      [
        "Ġ12",
        "3"
      ],
      [
        "C",
        "omp"
      ],
      [
        "H",
        "and"
      ],
      [
        "W",
        "hen"
      ],
      [
        "Ġ",
        "8"
      ],
      [
        "Ġ",
        "${"
      ],
      [
        "Ġre",
        "sp"
      ],
      [
        "sp",
        "ring"
      ],
      [
        "we",
        "en"
      ],
      [
        "d",
        "ic"
      ],
      [
        "()",
        ")"
      ],
      [
        "ch",
        "arts"
      ],
      [
        "(",
        "--"
      ],
      [
        "er",
        "n"
      ],
      [
        "Ġin",
        "t"
      ],
      [
        "8",
        "00000"
      ],
      [
        "}",
        "\""
      ],
      [
        "ĠA",
        "n"
      ],
      [
        "H",
        "orizontalLayout"
      ],
      [
        "w",
        "n"
      ],
      [
        "Ġa",
        "ss"
      ],
      [
        "v",
        "let"
      ],
      [
        "el",
        "y"
      ],
      [
        "ĠT",
        "ype"
      ],
      [
        "po",
        "s"
      ],
      [
        "ec",
        "ond"
      ],
      [
        "Ġwh",
        "ere"
      ],
      [
        "o",
        "f"
      ],
      [
        "te",
        "ger"
      ],
      [
        "A",
        "T"
      ],
      [
        "T",
        "est"
      ],
      [
        "m",
        "ain"
      ],
      [
        "Ġt",
        "itle"
      ],
      [
        "Ġw",
        "eb"
      ],
      [
        "Ġcustom",
        "Element"
      ],
      [
        "Ġwith",
        "out"
      ],
      [
        "ĠI",
        "D"
      ],
      [
        "t",
        "ed"
      ],
      [
        "Ġ",
        "7"
      ],
      [
        "Ġthe",
        "y"
      ],
      [
        "ĠS",
        "er"
      ],
      [
        "Ġth",
        "rough"
      ],
      [
        "im",
        "al"
      ],
      [
        "Ġparamet",
        "er"
      ],
      [
        "decor",
        "ators"
      ],
      [
        "A",
        "ll"
      ],
      [
        "m",
        "y"
      ],
      [
        "Ġv",
        "ersion"
      ],
      [
        "Ġform",
        "at"
      ],
      [
        "R",
        "L"
      ],
      [
        "U",
        "n"
      ],
      [
        "V",
        "erticalLayout"
      ],
      [
        "le",
        "ss"
      ],
      [
        "Ġv",
        "is"
      ],
      [
        "Ġa",
        "d"
      ],
      [
        "Ġuse",
        "Signal"
      ],
      [
        "E",
        "mail"
      ],
      [
        "Ġres",
        "ult"
      ],
      [
        "dep",
        "endency"
      ],
      [
        "Ġth",
        "ere"
      ],
      [
        "Ġ.",
        ".."
      ],
      [
        "d",
        "is"
      ],
      [
        "en",
        "s"
      ],
      [
        "c",
        "omp"
      ],
      [
        "ĠU",
        "se"
      ],
      [
        "Ġnot",
        "ification"
      ],
      [
        "rid",
        "ge"
      ],
      [
        "Ġdif",
        "fer"
      ],
      [
        "f",
        "alse"
      ],
      [
        "ic",
        "es"
      ],
      [
        "r",
        "ation"
      ],
      [
        "ide",
        "Nav"
      ],
      [
        "c",
        "ss"
      ],
      [
        "a",
        "le"
      ],
      [
        "Ġex",
        "ecut"
      ],
      [
        "w",
        "ith"
      ],
      [
        "an",
        "el"
      ],
      [
        "(",
        "("
      ],
      [
        "s",
        "ize"
      ],
      [
        "Ex",
        "ample"
      ],
      [
        "ordered",
        "layout"
      ],
      [
        "S",
        "ub"
      ],
      [
        "pro",
        "duct"
      ],
      [
        ".",
        ","
      ],
      [
        "2",
        "0"
      ],
      [
        "ĠA",
        "dd"
      ],
      [
        "2",
        "00000"
      ],
      [
        "o",
        "gin"
      ],
      [
        "Ġcreate",
        "RenderRoot"
      ],
      [
        "Ġc",
        "lick"
      ],
      [
        "p",
        "r"
      ],
      [
        "Ġm",
        "ain"
      ],
      [
        "ignal",
        "s"
      ],
      [
        "ult",
        "i"
      ],
      [
        "Ġht",
        "tp"
      ],
      [
        "mpl",
        "ate"
      ],
      [
        "Ġ1",
        "8"
      ],
      [
        "create",
        "RenderRoot"
      ],
      [
        "or",
        "re"
      ],
      [
        "ultip",
        "le"
      ],
      [
        "E",
        "N"
      ],
      [
        "U",
        "I"
      ],
      [
        "d",
        "ashboard"
      ],
      [
        "ig",
        "h"
      ],
      [
        "i",
        "ed"
      ],
      [
        "Ġa",
        "ct"
      ],
      [
        "Ġm",
        "ode"
      ],
      [
        "Ġlo",
        "cal"
      ],
      [
        "Ġinst",
        "ead"
      ],
      [
        "r",
        "y"
      ],
      [
        "ĠE",
        "n"
      ],
      [
        "Ġc",
        "heck"
      ],
      [
        "Ġthe",
        "se"
      ],
      [
        "ast",
        "er"
      ],
      [
        "2",
        "5"
      ],
      [
        "In",
        "fo"
      ],
      [
        "p",
        "lugin"
      ],
      [
        "Ġ",
        "âĢĶ"
      ],
      [
        "at",
        "al"
      ],
      [
        "Ġthe",
        "ir"
      ],
      [
        "Con",
        "figuration"
      ],
      [
        "S",
        "T"
      ],
      [
        "Ġ",
        ":"
      ],
      [
        "Ġs",
        "ession"
      ],
      [
        "set",
        "Header"
      ],
      [
        "vi",
        "ous"
      ],
      [
        "atal",
        "og"
      ],
      [
        "Ġa",
        "fter"
      ],
      [
        "il",
        "t"
      ],
      [
        "Ch",
        "art"
      ],
      [
        "A",
        "t"
      ],
      [
        "D",
        "ec"
      ],
      [
        "ĠU",
        "pload"
      ],
      [
        "f",
        "r"
      ],
      [
        "f",
        "ile"
      ],
      [
        "ar",
        "ent"
      ],
      [
        "Ġview",
        "s"
      ],
      [
        "W",
        "idth"
      ],
      [
        "Ġdiffer",
        "ent"
      ],
      [
        "Ġb",
        "inder"
      ],
      [
        "Ġcont",
        "ext"
      ],
      [
        "=",
        "="
      ],
      [
        "C",
        "lick"
      ],
      [
        "Ġo",
        "wn"
      ],
      [
        "Ex",
        "ception"
      ],
      [
        "ĠHT",
        "ML"
      ],
      [
        "am",
        "es"
      ],
      [
        "V",
        "is"
      ],
      [
        "in",
        "ts"
      ],
      [
        "ĠU",
        "RL"
      ],
      [
        "U",
        "p"
      ],
      [
        "Ġt",
        "wo"
      ],
      [
        "Ġf",
        "alse"
      ],
      [
        "mp",
        "ty"
      ],
      [
        "ir",
        "m"
      ],
      [
        "com",
        "bo"
      ],
      [
        "Text",
        "Field"
      ],
      [
        "Ġre",
        "p"
      ],
      [
        "Ġd",
        "ialog"
      ],
      [
        "Ġser",
        "ies"
      ],
      [
        "ateg",
        "ory"
      ],
      [
        "Ġcon",
        "f"
      ],
      [
        "M",
        "anager"
      ],
      [
        "Ġs",
        "ingle"
      ],
      [
        "Hand",
        "ler"
      ],
      [
        "f",
        "ul"
      ],
      [
        "ĠC",
        "ont"
      ],
      [
        "Ġa",
        "cc"
      ],
      [
        "Ġn",
        "avigation"
      ],
      [
        "Ġ",
        "Item"
      ],
      [
        "tribut",
        "e"
      ],
      [
        "Ġto",
        "p"
      ],
      [
        "Ġbet",
        "ween"
      ],
      [
        "h",
        "orizontal"
      ],
      [
        "Data",
        "Provider"
      ],
      [
        "Ġs",
        "ide"
      ],
      [
        "Ġus",
        "es"
      ],
      [
        "ce",
        "pt"
      ],
      [
        "Ġinter",
        "face"
      ],
      [
        "Ġab",
        "out"
      ],
      [
        "us",
        "h"
      ],
      [
        "3",
        "4"
      ],
      [
        "r",
        "c"
      ],
      [
        "Cont",
        "ent"
      ],
      [
        "velop",
        "ment"
      ],
      [
        "Ġo",
        "ptions"
      ],
      [
        "S",
        "ecurity"
      ],
      [
        "ĠC",
        "omp"
      ],
      [
        "Ġbe",
        "fore"
      ],
      [
        "Ġor",
        "g"
      ],
      [
        "ra",
        "w"
      ],
      [
        "Ġt",
        "e"
      ],
      [
        "Ġt",
        "ask"
      ],
      [
        "ĠH",
        "ow"
      ],
      [
        "gin",
        "e"
      ],
      [
        "v",
        "ers"
      ],
      [
        "lo",
        "ck"
      ],
      [
        "Ġcon",
        "s"
      ],
      [
        "id",
        "d"
      ],
      [
        "ĠV",
        "alue"
      ],
      [
        "K",
        "ey"
      ],
      [
        "Ġup",
        "date"
      ],
      [
        "T",
        "h"
      ],
      [
        "im",
        "it"
      ],
      [
        "gist",
        "ration"
      ],
      [
        "Ġ",
        "k"
      ],
      [
        "ad",
        "le"
      ],
      [
        "Ġlo",
        "gin"
      ],
      [
        "ĠType",
        "Script"
      ],
      [
        "P",
        "re"
      ],
      [
        "lo",
        "se"
      ],
      [
        "up",
        "load"
      ],
      [
        "Ġsc",
        "reen"
      ],
      [
        "Ġch",
        "ild"
      ],
      [
        "(",
        "()"
      ],
      [
        "D",
        "is"
      ],
      [
        "m",
        "in"
      ],
      [
        "t",
        "est"
      ],
      [
        "Ġclass",
        "es"
      ],
      [
        "cri",
        "b"
      ],
      [
        "ang",
        "ed"
      ],
      [
        "yn",
        "c"
      ],
      [
        "l",
        "umo"
      ],
      [
        "c",
        "ent"
      ],
      [
        "r",
        "ay"
      ],
      [
        "ver",
        "t"
      ],
      [
        "l",
        "ider"
      ],
      [
        "N",
        "on"
      ],
      [
        "Ġw",
        "ant"
      ],
      [
        "Ġfr",
        "ontend"
      ],
      [
        "m",
        "all"
      ],
      [
        "Ġto",
        "ol"
      ],
      [
        "Ġtr",
        "ans"
      ],
      [
        "it",
        "ies"
      ],
      [
        "Ġb",
        "u"
      ],
      [
        "ipp",
        "ing"
      ],
      [
        "Ġhe",
        "ader"
      ],
      [
        "M",
        "E"
      ],
      [
        "V",
        "alid"
      ],
      [
        "r",
        "ap"
      ],
      [
        "ĠB",
        "inder"
      ],
      [
        "row",
        "s"
      ],
      [
        "Ġget",
        "People"
      ],
      [
        "not",
        "ification"
      ],
      [
        "O",
        "R"
      ],
      [
        "Ġ",
        "import"
      ],
      [
        "Ġth",
        "an"
      ],
      [
        "um",
        "b"
      ],
      [
        "set",
        "P"
      ],
      [
        "In",
        "put"
      ],
      [
        "b",
        "uild"
      ],
      [
        "\")",
        ","
      ],
      [
        "ĠW",
        "eb"
      ],
      [
        "mp",
        "loy"
      ],
      [
        "oc",
        "k"
      ],
      [
        "P",
        "age"
      ],
      [
        "Ġs",
        "ystem"
      ],
      [
        "ĠM",
        "y"
      ],
      [
        "ĠW",
        "hen"
      ],
      [
        "O",
        "pen"
      ],
      [
        "c",
        "ed"
      ],
      [
        "Ġc",
        "ase"
      ],
      [
        "em",
        "ent"
      ],
      [
        "act",
        "ion"
      ],
      [
        "av",
        "atar"
      ],
      [
        "ur",
        "ation"
      ],
      [
        "ver",
        "y"
      ],
      [
        "\"",
        ";"
      ],
      [
        "U",
        "t"
      ],
      [
        "f",
        "irstName"
      ],
      [
        "at",
        "ab"
      ],
      [
        "ĠM",
        "aven"
      ],
      [
        "Ġdoes",
        "n"
      ],
      [
        "a",
        "it"
      ],
      [
        "Ġ",
        "email"
      ],
      [
        "ĠCh",
        "art"
      ],
      [
        "9",
        "9"
      ],
      [
        "Ġ",
        "[]"
      ],
      [
        "Data",
        "Service"
      ],
      [
        "U",
        "pload"
      ],
      [
        "Ġm",
        "ultiple"
      ],
      [
        "Ġst",
        "or"
      ],
      [
        "Ġaut",
        "hentication"
      ],
      [
        "ĠS",
        "et"
      ],
      [
        "H",
        "el"
      ],
      [
        "or",
        "s"
      ],
      [
        "Ġs",
        "ome"
      ],
      [
        "n",
        "ection"
      ],
      [
        "Ġin",
        "it"
      ],
      [
        "ess",
        "ages"
      ],
      [
        "ition",
        "al"
      ],
      [
        "s",
        "ignals"
      ],
      [
        "E",
        "ffect"
      ],
      [
        "ĠT",
        "est"
      ],
      [
        "ĠNot",
        "ification"
      ],
      [
        "m",
        "essage"
      ],
      [
        "Ġc",
        "orre"
      ],
      [
        "roll",
        "er"
      ],
      [
        "L",
        "ast"
      ],
      [
        "M",
        "odel"
      ],
      [
        "n",
        "ull"
      ],
      [
        "Ġm",
        "ust"
      ],
      [
        "ant",
        "t"
      ],
      [
        "Ġset",
        "ting"
      ],
      [
        "Al",
        "ign"
      ],
      [
        "ĠS",
        "ecurity"
      ],
      [
        "emb",
        "ers"
      ],
      [
        "Ġs",
        "ize"
      ],
      [
        "ut",
        "ed"
      ],
      [
        "ĠS",
        "ignal"
      ],
      [
        "ref",
        "ix"
      ],
      [
        "a",
        "use"
      ],
      [
        "c",
        "heckbox"
      ],
      [
        "Ġ",
        "edit"
      ],
      [
        "add",
        "Column"
      ],
      [
        "Series",
        "Item"
      ],
      [
        "U",
        "r"
      ],
      [
        "Ġa",
        "c"
      ],
      [
        "Ġb",
        "ased"
      ],
      [
        "ak",
        "es"
      ],
      [
        "F",
        "ull"
      ],
      [
        "i",
        "e"
      ],
      [
        "Ġrequire",
        "d"
      ],
      [
        "<>",
        "("
      ],
      [
        "Ġof",
        "f"
      ],
      [
        "ser",
        "ver"
      ],
      [
        "Ġcall",
        "back"
      ],
      [
        "Ġspecif",
        "ic"
      ],
      [
        "Ur",
        "l"
      ],
      [
        "c",
        "ard"
      ],
      [
        "Ġ1",
        "3"
      ],
      [
        "ĠB",
        "oot"
      ],
      [
        "1",
        "4"
      ],
      [
        "C",
        "atalog"
      ],
      [
        "In",
        "st"
      ],
      [
        "ption",
        "al"
      ],
      [
        "res",
        "h"
      ],
      [
        "Ġp",
        "art"
      ],
      [
        "St",
        "atus"
      ],
      [
        "Ġvalid",
        "ation"
      ],
      [
        "l",
        "ist"
      ],
      [
        "w",
        "idth"
      ],
      [
        "Ġ",
        "!"
      ],
      [
        "Ġ",
        "?"
      ],
      [
        "Ġw",
        "ay"
      ],
      [
        "ons",
        "ive"
      ],
      [
        "o",
        "pe"
      ],
      [
        "on",
        "se"
      ],
      [
        "iz",
        "ed"
      ],
      [
        "ual",
        "ly"
      ],
      [
        "\"",
        ":"
      ],
      [
        "Ġelement",
        "s"
      ],
      [
        "Ġallow",
        "s"
      ],
      [
        "B",
        "ean"
      ],
      [
        "Ġm",
        "ake"
      ],
      [
        "itor",
        "s"
      ],
      [
        "n",
        "ect"
      ],
      [
        "v",
        "ide"
      ],
      [
        "Ġprovid",
        "es"
      ],
      [
        "Dec",
        "imal"
      ],
      [
        "5",
        "0"
      ],
      [
        "le",
        "ar"
      ],
      [
        "Ġw",
        "idth"
      ],
      [
        "O",
        "f"
      ],
      [
        "at",
        "tern"
      ],
      [
        "c",
        "urrent"
      ],
      [
        "d",
        "etail"
      ],
      [
        "r",
        "en"
      ],
      [
        "Ġf",
        "ont"
      ],
      [
        "Ġp",
        "ackage"
      ],
      [
        "End",
        "point"
      ],
      [
        "in",
        "es"
      ],
      [
        "Ġc",
        "ol"
      ],
      [
        "Ġd",
        "et"
      ],
      [
        "Ġg",
        "o"
      ],
      [
        "p",
        "m"
      ],
      [
        "Ġp",
        "ass"
      ],
      [
        "Ġb",
        "oth"
      ],
      [
        "Con",
        "figur"
      ],
      [
        "b",
        "asic"
      ],
      [
        "c",
        "el"
      ],
      [
        "ad",
        "ing"
      ],
      [
        "Ġback",
        "ground"
      ],
      [
        "c",
        "rud"
      ],
      [
        "r",
        "on"
      ],
      [
        "Ġstyle",
        "s"
      ],
      [
        "Ġup",
        "load"
      ],
      [
        "n",
        "av"
      ],
      [
        "ib",
        "ility"
      ],
      [
        "cont",
        "ent"
      ],
      [
        "W",
        "ith"
      ],
      [
        "Ġa",
        "ction"
      ],
      [
        "st",
        "ate"
      ],
      [
        "ĠD",
        "OM"
      ],
      [
        "ier",
        "arch"
      ],
      [
        "Ġf",
        "ull"
      ],
      [
        "u",
        "pport"
      ],
      [
        "ig",
        "Decimal"
      ],
      [
        "ĠK",
        "it"
      ],
      [
        "S",
        "ort"
      ],
      [
        "al",
        "led"
      ],
      [
        "ic",
        "t"
      ],
      [
        "Ġd",
        "on"
      ],
      [
        "Ġtest",
        "s"
      ],
      [
        "Ġ",
        "el"
      ],
      [
        "Ġm",
        "e"
      ],
      [
        "Ġo",
        "per"
      ],
      [
        "Ġm",
        "odel"
      ],
      [
        "d",
        "ay"
      ],
      [
        "Ġre",
        "f"
      ],
      [
        "ĠM",
        "enu"
      ],
      [
        "Ġb",
        "ec"
      ],
      [
        "ul",
        "ar"
      ],
      [
        "I",
        "mp"
      ],
      [
        "Ġth",
        "en"
      ],
      [
        "raw",
        "er"
      ],
      [
        "Ġpro",
        "vide"
      ],
      [
        "={",
        "{"
      ],
      [
        "sh",
        "ot"
      ],
      [
        "1",
        "6"
      ],
      [
        "C",
        "olor"
      ],
      [
        "Ġb",
        "inding"
      ],
      [
        "ec",
        "h"
      ],
      [
        "h",
        "er"
      ],
      [
        "end",
        "ed"
      ],
      [
        "Ġlo",
        "c"
      ],
      [
        "ĠL",
        "ayout"
      ],
      [
        "J",
        "s"
      ],
      [
        "h",
        "ip"
      ],
      [
        "out",
        "es"
      ],
      [
        "Ġuse",
        "Effect"
      ],
      [
        "embers",
        "hip"
      ],
      [
        "t",
        "itle"
      ],
      [
        "an",
        "y"
      ],
      [
        "Ġcolumn",
        "s"
      ],
      [
        "V",
        "isible"
      ],
      [
        "f",
        "rontend"
      ],
      [
        "g",
        "ed"
      ],
      [
        "Ġp",
        "lugin"
      ],
      [
        "ar",
        "gin"
      ],
      [
        "end",
        "ing"
      ],
      [
        "Ġs",
        "ecurity"
      ],
      [
        "Ġis",
        "n"
      ],
      [
        "âĶĢ",
        "âĶĢ"
      ],
      [
        "at",
        "er"
      ],
      [
        "Not",
        "ification"
      ],
      [
        "x",
        "y"
      ],
      [
        "Ġ",
        "X"
      ],
      [
        "er",
        "ed"
      ],
      [
        "St",
        "art"
      ],
      [
        "Con",
        "fig"
      ],
      [
        "ĠS",
        "ty"
      ],
      [
        "all",
        "back"
      ],
      [
        "N",
        "umber"
      ],
      [
        "ist",
        "ing"
      ],
      [
        "Ġparamet",
        "ers"
      ],
      [
        "Ġupd",
        "ates"
      ],
      [
        "P",
        "o"
      ],
      [
        "as",
        "es"
      ],
      [
        "Re",
        "f"
      ],
      [
        "Re",
        "pository"
      ],
      [
        "app",
        "er"
      ],
      [
        "Ġw",
        "ould"
      ],
      [
        "F",
        "irst"
      ],
      [
        "}",
        "</"
      ],
      [
        "lo",
        "gin"
      ],
      [
        "Ġre",
        "cord"
      ],
      [
        "lace",
        "h"
      ],
      [
        ")",
        ")"
      ],
      [
        "g",
        "o"
      ],
      [
        "Ġ",
        "Field"
      ],
      [
        "L",
        "E"
      ],
      [
        "Ġ",
        "()"
      ],
      [
        "ou",
        "ble"
      ],
      [
        "Ġf",
        "ind"
      ],
      [
        "atab",
        "ase"
      ],
      [
        "1",
        "7"
      ],
      [
        "t",
        "ach"
      ],
      [
        "Ġn",
        "avig"
      ],
      [
        "ol",
        "d"
      ],
      [
        "ont",
        "h"
      ],
      [
        "Ġst",
        "ep"
      ],
      [
        "ĠV",
        "iew"
      ],
      [
        "qu",
        "als"
      ],
      [
        "Ġneed",
        "s"
      ],
      [
        "ĠApp",
        "lication"
      ],
      [
        "ĠValue",
        "Signal"
      ],
      [
        "A",
        "r"
      ],
      [
        "ur",
        "ing"
      ],
      [
        "Ġe",
        "very"
      ],
      [
        "Ġtyp",
        "es"
      ],
      [
        "Ġre",
        "ference"
      ],
      [
        "Ġdis",
        "abled"
      ],
      [
        "st",
        "yle"
      ],
      [
        "ed",
        "itor"
      ],
      [
        "quire",
        "d"
      ],
      [
        "Ġsignal",
        "s"
      ],
      [
        "Ġa",
        "w"
      ],
      [
        "Ġ",
        "9"
      ],
      [
        "Ġd",
        "ec"
      ],
      [
        "Ġb",
        "oolean"
      ],
      [
        "Ġg",
        "enerated"
      ],
      [
        "Ġcont",
        "rol"
      ],
      [
        "Ġqu",
        "ery"
      ],
      [
        "Ġdirect",
        "ly"
      ],
      [
        "St",
        "ep"
      ],
      [
        "re",
        "m"
      ],
      [
        "ic",
        "s"
      ],
      [
        "Ġf",
        "ocus"
      ],
      [
        "Ġin",
        "side"
      ],
      [
        "ĠT",
        "h"
      ],
      [
        "ĠM",
        "essage"
      ],
      [
        "6",
        "2"
      ],
      [
        "Ġaut",
        "o"
      ],
      [
        "ad",
        "ow"
      ],
      [
        "Ġd",
        "rag"
      ],
      [
        "un",
        "d"
      ],
      [
        "Ġ>",
        "</"
      ],
      [
        "ef",
        "ore"
      ],
      [
        "Ġdep",
        "endencies"
      ],
      [
        "vert",
        "ical"
      ],
      [
        "t",
        "op"
      ],
      [
        "Ġg",
        "u"
      ],
      [
        "ant",
        "ity"
      ],
      [
        "M",
        "in"
      ],
      [
        "d",
        "u"
      ],
      [
        "Ġs",
        "ave"
      ],
      [
        "Ġm",
        "ax"
      ],
      [
        "ĠComponent",
        "s"
      ],
      [
        "Ġbu",
        "ilt"
      ],
      [
        "P",
        "aramet"
      ],
      [
        "f",
        "ont"
      ],
      [
        "get",
        "C"
      ],
      [
        "set",
        "Value"
      ],
      [
        "Ġde",
        "velopment"
      ],
      [
        "\")",
        "."
      ],
      [
        "p",
        "adding"
      ],
      [
        "2",
        "4"
      ],
      [
        "Ġbe",
        "en"
      ],
      [
        "In",
        "dex"
      ],
      [
        "yn",
        "ch"
      ],
      [
        "ar",
        "ator"
      ],
      [
        "ĠM",
        "ain"
      ],
      [
        "po",
        "ints"
      ],
      [
        "1",
        "9"
      ],
      [
        "re",
        "a"
      ],
      [
        "ch",
        "art"
      ],
      [
        "ynch",
        "ron"
      ],
      [
        "Ġbe",
        "an"
      ],
      [
        "laceh",
        "older"
      ],
      [
        "v",
        "en"
      ],
      [
        "ĠC",
        "lass"
      ],
      [
        "ĠD",
        "es"
      ],
      [
        "ĠC",
        "ollaboration"
      ],
      [
        "Ġh",
        "ere"
      ],
      [
        "pro",
        "perties"
      ],
      [
        "Ġ*/",
        "}"
      ],
      [
        "f",
        "t"
      ],
      [
        "Ġv",
        "isible"
      ],
      [
        "6",
        "4"
      ],
      [
        "Ġ1",
        "9"
      ],
      [
        "v",
        "ir"
      ],
      [
        "is",
        "e"
      ],
      [
        "Ġ{",
        "/*"
      ],
      [
        "f",
        "ilter"
      ],
      [
        "Ġt",
        "erm"
      ],
      [
        "ht",
        "tp"
      ],
      [
        "Ġstyle",
        "sheet"
      ],
      [
        "Ed",
        "itor"
      ],
      [
        "al",
        "ly"
      ],
      [
        "Ġdep",
        "loy"
      ],
      [
        "aut",
        "h"
      ],
      [
        "Ut",
        "ility"
      ],
      [
        "v",
        "ices"
      ],
      [
        "oth",
        "er"
      ],
      [
        "Ġdirect",
        "ory"
      ],
      [
        "g",
        "th"
      ],
      [
        "p",
        "ath"
      ],
      [
        "Ã",
        "¤"
      ],
      [
        "Ġd",
        "rop"
      ],
      [
        "iz",
        "ation"
      ],
      [
        "Ġg",
        "iv"
      ],
      [
        "ir",
        "th"
      ],
      [
        "Ġhand",
        "le"
      ],
      [
        "el",
        "f"
      ],
      [
        "P",
        "R"
      ],
      [
        "s",
        "ub"
      ],
      [
        "Ġ",
        "ro"
      ],
      [
        "ĠS",
        "elect"
      ],
      [
        "T",
        "r"
      ],
      [
        "em",
        "ory"
      ],
      [
        "Ġimplement",
        "s"
      ],
      [
        "d",
        "ialog"
      ],
      [
        "la",
        "g"
      ],
      [
        "Ġth",
        "read"
      ],
      [
        "U",
        "se"
      ],
      [
        "od",
        "y"
      ],
      [
        "Ġfol",
        "der"
      ],
      [
        "lo",
        "g"
      ],
      [
        "ut",
        "es"
      ],
      [
        "ers",
        "ist"
      ],
      [
        "ĠA",
        "ut"
      ],
      [
        "Ġend",
        "point"
      ],
      [
        "Variant",
        "s"
      ],
      [
        "Ġcontain",
        "s"
      ],
      [
        "s",
        "um"
      ],
      [
        "y",
        "m"
      ],
      [
        "Ġ",
        "$"
      ],
      [
        "ĠĠĠĠĠĠĠĠ",
        "ĠĠĠĠĠĠĠĠ"
      ],
      [
        "mploy",
        "ee"
      ],
      [
        "Ġel",
        "se"
      ],
      [
        "c",
        "lick"
      ],
      [
        "ith",
        "er"
      ],
      [
        "Ġshow",
        "s"
      ],
      [
        "S",
        "heet"
      ],
      [
        "o",
        "se"
      ],
      [
        "Ġdef",
        "ined"
      ],
      [
        "ĠIn",
        "st"
      ],
      [
        "B",
        "asic"
      ],
      [
        "n",
        "er"
      ],
      [
        "}",
        ">"
      ],
      [
        "Ġt",
        "ab"
      ],
      [
        "he",
        "ight"
      ],
      [
        "Ġreturn",
        "s"
      ],
      [
        "Ġen",
        "able"
      ],
      [
        "Time",
        "Picker"
      ],
      [
        "Ġ",
        "im"
      ],
      [
        "al",
        "Date"
      ],
      [
        "ĠE",
        "lement"
      ],
      [
        "read",
        "sheet"
      ],
      [
        "ĠC",
        "reate"
      ],
      [
        "ĠC",
        "omboBox"
      ],
      [
        "3",
        "8"
      ],
      [
        "7",
        "5"
      ],
      [
        "]",
        ";"
      ],
      [
        "s",
        "u"
      ],
      [
        "t",
        "en"
      ],
      [
        "Ġc",
        "art"
      ],
      [
        "Ġin",
        "v"
      ],
      [
        "Ġan",
        "other"
      ],
      [
        "Ġfeature",
        "s"
      ],
      [
        "v",
        "es"
      ],
      [
        "om",
        "m"
      ],
      [
        "st",
        "ream"
      ],
      [
        "ty",
        "pe"
      ],
      [
        "Theme",
        "Variants"
      ],
      [
        "Imp",
        "ort"
      ],
      [
        "b",
        "order"
      ],
      [
        "u",
        "les"
      ],
      [
        "Ġre",
        "g"
      ],
      [
        "ri",
        "a"
      ],
      [
        "Grid",
        "Column"
      ],
      [
        "re",
        "ak"
      ],
      [
        "Ġw",
        "idget"
      ],
      [
        "ĠD",
        "ashboard"
      ],
      [
        "Ġse",
        "par"
      ],
      [
        "Ġneed",
        "ed"
      ],
      [
        "Ġstat",
        "us"
      ],
      [
        "6",
        "0"
      ],
      [
        "ĠL",
        "oc"
      ],
      [
        "oo",
        "k"
      ],
      [
        "fr",
        "amework"
      ],
      [
        "ĠHow",
        "ever"
      ],
      [
        "D",
        "e"
      ],
      [
        "c",
        "r"
      ],
      [
        "f",
        "irm"
      ],
      [
        "s",
        "ure"
      ],
      [
        "Ġp",
        "la"
      ],
      [
        "ĠS",
        "upport"
      ],
      [
        "Ġ1",
        "00"
      ],
      [
        "Ġl",
        "ink"
      ],
      [
        "ĠThe",
        "y"
      ],
      [
        "Class",
        "Name"
      ],
      [
        "A",
        "rea"
      ],
      [
        "Ġ}",
        ")"
      ],
      [
        "lic",
        "it"
      ],
      [
        "Ġpo",
        "sition"
      ],
      [
        "3",
        "0"
      ],
      [
        "B",
        "ack"
      ],
      [
        "D",
        "etail"
      ],
      [
        "x",
        "ml"
      ],
      [
        "Ġs",
        "ource"
      ],
      [
        "Ġsub",
        "s"
      ],
      [
        "w",
        "ays"
      ],
      [
        "Ġd",
        "atabase"
      ],
      [
        "op",
        "en"
      ],
      [
        "te",
        "gr"
      ],
      [
        "Ġrun",
        "ning"
      ],
      [
        "g",
        "le"
      ],
      [
        "r",
        "adle"
      ],
      [
        "Ġ",
        "âĢ"
      ],
      [
        "St",
        "ate"
      ],
      [
        "Ch",
        "anged"
      ],
      [
        "Ġlist",
        "ener"
      ],
      [
        "Ġproduct",
        "ion"
      ],
      [
        "Un",
        "it"
      ],
      [
        "l",
        "ight"
      ],
      [
        "()",
        "));"
      ],
      [
        "od",
        "o"
      ],
      [
        "Ġpro",
        "cess"
      ],
      [
        "set",
        "Items"
      ],
      [
        "l",
        "at"
      ],
      [
        "ri",
        "mary"
      ],
      [
        "Ġun",
        "der"
      ],
      [
        "Ġpre",
        "vious"
      ],
      [
        "cont",
        "ext"
      ],
      [
        "spring",
        "framework"
      ],
      [
        "Ġ}",
        ";"
      ],
      [
        "Ġn",
        "ames"
      ],
      [
        "ment",
        "s"
      ],
      [
        "Ġadd",
        "ress"
      ],
      [
        "com",
        "m"
      ],
      [
        ">",
        "("
      ],
      [
        "Ġre",
        "l"
      ],
      [
        "Ġwh",
        "ile"
      ],
      [
        "Ġdep",
        "endency"
      ],
      [
        "Al",
        "low"
      ],
      [
        "pos",
        "al"
      ],
      [
        "v",
        "oid"
      ],
      [
        "en",
        "gth"
      ],
      [
        "Ġa",
        "g"
      ],
      [
        "In",
        "it"
      ],
      [
        "con",
        "st"
      ],
      [
        "c",
        "ollaboration"
      ],
      [
        "ĠL",
        "ogin"
      ],
      [
        "app",
        "lication"
      ],
      [
        "Add",
        "ress"
      ],
      [
        "A",
        "ccess"
      ],
      [
        "S",
        "ideNav"
      ],
      [
        "t",
        "om"
      ],
      [
        "u",
        "i"
      ],
      [
        "Ġb",
        "ind"
      ],
      [
        "im",
        "um"
      ],
      [
        "Ġse",
        "arch"
      ],
      [
        "Ġvari",
        "ant"
      ],
      [
        "4",
        "0"
      ],
      [
        "B",
        "rowser"
      ],
      [
        "C",
        "ountry"
      ],
      [
        "add",
        "ThemeVariants"
      ],
      [
        "sp",
        "acing"
      ],
      [
        "Ġsh",
        "are"
      ],
      [
        "App",
        "lication"
      ],
      [
        "rap",
        "h"
      ],
      [
        "r",
        "iv"
      ],
      [
        "Ed",
        "it"
      ],
      [
        "T",
        "ab"
      ],
      [
        "Ġ",
        "âĶ"
      ],
      [
        "in",
        "ce"
      ],
      [
        "ad",
        "e"
      ],
      [
        "ĠA",
        "l"
      ],
      [
        "1",
        "3"
      ],
      [
        "R",
        "ow"
      ],
      [
        "Ġre",
        "gist"
      ],
      [
        "ĠU",
        "p"
      ],
      [
        "oot",
        "er"
      ],
      [
        "Ġhel",
        "per"
      ],
      [
        "Ġf",
        "lex"
      ],
      [
        "ex",
        "ecut"
      ],
      [
        "Ġw",
        "indow"
      ],
      [
        "Ġm",
        "ost"
      ],
      [
        "Ġe",
        "ffect"
      ],
      [
        "Ġclass",
        "Name"
      ],
      [
        "To",
        "oltip"
      ],
      [
        "mo",
        "ve"
      ],
      [
        "Ġs",
        "ort"
      ],
      [
        "ed",
        "d"
      ],
      [
        "Ġtr",
        "y"
      ],
      [
        "Form",
        "at"
      ],
      [
        "ĠID",
        "E"
      ],
      [
        "6",
        "5"
      ],
      [
        "S",
        "ee"
      ],
      [
        "Ġback",
        "end"
      ],
      [
        "C",
        "ode"
      ],
      [
        "I",
        "T"
      ],
      [
        "b",
        "ased"
      ],
      [
        "Ġd",
        "ownload"
      ],
      [
        "Ġid",
        "ent"
      ],
      [
        "get",
        "Value"
      ],
      [
        "Ġh",
        "igh"
      ],
      [
        "\"",
        "]"
      ],
      [
        "A",
        "s"
      ],
      [
        "ĠF",
        "ile"
      ],
      [
        "ire",
        "d"
      ],
      [
        "Ġadd",
        "ed"
      ],
      [
        "Ġlo",
        "ok"
      ],
      [
        "Ġload",
        "ed"
      ],
      [
        "Ġp",
        "arent"
      ],
      [
        "Ġinst",
        "all"
      ],
      [
        "Product",
        "Catalog"
      ],
      [
        "N",
        "ull"
      ],
      [
        "Ġf",
        "ail"
      ],
      [
        "read",
        "cr"
      ],
      [
        "An",
        "d"
      ],
      [
        "readcr",
        "umb"
      ],
      [
        "D",
        "ashboard"
      ],
      [
        "M",
        "od"
      ],
      [
        "t",
        "ab"
      ],
      [
        "el",
        "ine"
      ],
      [
        "Ġin",
        "dic"
      ],
      [
        "Ġbe",
        "low"
      ],
      [
        "app",
        "ing"
      ],
      [
        "B",
        "ridge"
      ],
      [
        "Ġ",
        "i"
      ],
      [
        "ile",
        "d"
      ],
      [
        "1",
        "00"
      ],
      [
        "f",
        "ind"
      ],
      [
        "n",
        "o"
      ],
      [
        "Ġn",
        "ext"
      ],
      [
        "Ġm",
        "ap"
      ],
      [
        "ĠO",
        "n"
      ],
      [
        "ĠPro",
        "perties"
      ],
      [
        "Ġconfigure",
        "d"
      ],
      [
        "Ġaw",
        "ait"
      ],
      [
        "ay",
        "load"
      ],
      [
        "Ġbe",
        "h"
      ],
      [
        "Ġsc",
        "he"
      ],
      [
        "text",
        "field"
      ],
      [
        "che",
        "s"
      ],
      [
        ")",
        "}"
      ],
      [
        "U",
        "M"
      ],
      [
        "Ġp",
        "assword"
      ],
      [
        "ut",
        "ure"
      ],
      [
        "Ġl",
        "imit"
      ],
      [
        "oun",
        "ter"
      ],
      [
        "Value",
        "Change"
      ],
      [
        "6",
        "7"
      ],
      [
        "C",
        "heckbox"
      ],
      [
        "S",
        "E"
      ],
      [
        "w",
        "idget"
      ],
      [
        "he",
        "ther"
      ],
      [
        "re",
        "et"
      ],
      [
        "ire",
        "ction"
      ],
      [
        "Ġdef",
        "ine"
      ],
      [
        "li",
        "er"
      ],
      [
        "ĠIn",
        "teger"
      ],
      [
        "I",
        "D"
      ],
      [
        "T",
        "P"
      ],
      [
        "a",
        "f"
      ],
      [
        "Ġp",
        "adding"
      ],
      [
        "ache",
        "d"
      ],
      [
        "re",
        "move"
      ],
      [
        "Ġs",
        "imp"
      ],
      [
        "Ġl",
        "ine"
      ],
      [
        "Ġact",
        "ive"
      ],
      [
        "C",
        "ard"
      ],
      [
        "Value",
        "Signal"
      ],
      [
        "Ġen",
        "abled"
      ],
      [
        "Qu",
        "ery"
      ],
      [
        "b",
        "inder"
      ],
      [
        "lo",
        "cal"
      ],
      [
        "Ġ=",
        "="
      ],
      [
        "Ġimplement",
        "ation"
      ],
      [
        ")",
        ":"
      ],
      [
        "d",
        "ef"
      ],
      [
        "d",
        "own"
      ],
      [
        "Re",
        "quest"
      ],
      [
        "9",
        "4"
      ],
      [
        "Form",
        "Layout"
      ],
      [
        "Ġdes",
        "ign"
      ],
      [
        "B",
        "inder"
      ],
      [
        "Ġas",
        "ync"
      ],
      [
        "ĠI",
        "con"
      ],
      [
        "Po",
        "sition"
      ],
      [
        "I",
        "ON"
      ],
      [
        "S",
        "u"
      ],
      [
        "U",
        "T"
      ],
      [
        "r",
        "un"
      ],
      [
        "Ġs",
        "ection"
      ],
      [
        "Ġcomm",
        "and"
      ],
      [
        "a",
        "z"
      ],
      [
        "m",
        "aven"
      ],
      [
        "ro",
        "ss"
      ],
      [
        "Ġm",
        "ark"
      ],
      [
        "ĠV",
        "alid"
      ],
      [
        "vir",
        "on"
      ],
      [
        "1",
        "5"
      ],
      [
        "d",
        "e"
      ],
      [
        "s",
        "ed"
      ],
      [
        "Ġe",
        "ither"
      ],
      [
        "bo",
        "ve"
      ],
      [
        "Ġor",
        "der"
      ],
      [
        "Ġcontain",
        "er"
      ],
      [
        "N",
        "A"
      ],
      [
        "are",
        "a"
      ],
      [
        "Allow",
        "ed"
      ],
      [
        "readcrumb",
        "s"
      ],
      [
        "d",
        "es"
      ],
      [
        "h",
        "ost"
      ],
      [
        "Ġb",
        "lock"
      ],
      [
        "Ġw",
        "ell"
      ],
      [
        "ĠD",
        "efault"
      ],
      [
        "Re",
        "ad"
      ],
      [
        "con",
        "figuration"
      ],
      [
        "En",
        "abled"
      ],
      [
        "F",
        "lex"
      ],
      [
        "O",
        "bject"
      ],
      [
        "S",
        "et"
      ],
      [
        "u",
        "g"
      ],
      [
        "Ġa",
        "bove"
      ],
      [
        "Ġn",
        "on"
      ],
      [
        "or",
        "g"
      ],
      [
        "Ġm",
        "atch"
      ],
      [
        "Ġm",
        "essages"
      ],
      [
        "op",
        "y"
      ],
      [
        "Ġal",
        "ign"
      ],
      [
        "v",
        "is"
      ],
      [
        "Ġterm",
        "inal"
      ],
      [
        "o",
        "ve"
      ],
      [
        "va",
        "r"
      ],
      [
        "ar",
        "ning"
      ],
      [
        "Ġsupport",
        "ed"
      ],
      [
        "(",
        "{"
      ],
      [
        "C",
        "omboBox"
      ],
      [
        "C",
        "allback"
      ],
      [
        "p",
        "assword"
      ],
      [
        "Ġapp",
        "ear"
      ],
      [
        "Ġl",
        "ong"
      ],
      [
        "ord",
        "ion"
      ],
      [
        "icon",
        "s"
      ],
      [
        "Ġat",
        "tribute"
      ],
      [
        "select",
        "ed"
      ],
      [
        "r",
        "adio"
      ],
      [
        "b",
        "adge"
      ],
      [
        "h",
        "one"
      ],
      [
        "Ġd",
        "uring"
      ],
      [
        "add",
        "Item"
      ],
      [
        "Ġsupport",
        "s"
      ],
      [
        "Sp",
        "an"
      ],
      [
        "ict",
        "ure"
      ],
      [
        "2",
        "8"
      ],
      [
        "A",
        "N"
      ],
      [
        "w",
        "r"
      ],
      [
        "he",
        "l"
      ],
      [
        "AL",
        "L"
      ],
      [
        "Ġn",
        "ow"
      ],
      [
        "ch",
        "or"
      ],
      [
        "r",
        "om"
      ],
      [
        "he",
        "ader"
      ],
      [
        "Ġc",
        "ard"
      ],
      [
        "Ġm",
        "ight"
      ],
      [
        "Ġfr",
        "amework"
      ],
      [
        "js",
        "on"
      ],
      [
        "ĠG",
        "antt"
      ],
      [
        "A",
        "vatar"
      ],
      [
        "S",
        "ession"
      ],
      [
        "re",
        "d"
      ],
      [
        "Ġac",
        "cept"
      ],
      [
        "L",
        "og"
      ],
      [
        "c",
        "ut"
      ],
      [
        "en",
        "gine"
      ],
      [
        "Ġe",
        "mpty"
      ],
      [
        "ĠJava",
        "Script"
      ],
      [
        "ag",
        "raph"
      ],
      [
        "Ġpro",
        "gress"
      ],
      [
        "ter",
        "m"
      ],
      [
        "Ġsh",
        "own"
      ],
      [
        "ĠR",
        "un"
      ],
      [
        "Or",
        "der"
      ],
      [
        "icture",
        "Url"
      ],
      [
        "r",
        "ain"
      ],
      [
        "Ġc",
        "ount"
      ],
      [
        "ort",
        "cut"
      ],
      [
        "ot",
        "al"
      ],
      [
        "ot",
        "tom"
      ],
      [
        "2",
        "3"
      ],
      [
        "M",
        "y"
      ],
      [
        "p",
        "refix"
      ],
      [
        "Ġ",
        "lastName"
      ],
      [
        "Ġto",
        "t"
      ],
      [
        "iv",
        "ely"
      ],
      [
        "Ġdes",
        "crib"
      ],
      [
        "ĠCon",
        "figuration"
      ],
      [
        "Ġper",
        "form"
      ],
      [
        "Open",
        "ed"
      ],
      [
        "1",
        "1"
      ],
      [
        "D",
        "es"
      ],
      [
        "Ġ",
        "Y"
      ],
      [
        "Ġ",
        "â"
      ],
      [
        "Ġuse",
        "ful"
      ],
      [
        "<>",
        "();"
      ],
      [
        "U",
        "sing"
      ],
      [
        "Ġs",
        "mall"
      ],
      [
        "ser",
        "ies"
      ],
      [
        "Ġal",
        "ways"
      ],
      [
        "res",
        "ources"
      ],
      [
        "Ġpo",
        "ss"
      ],
      [
        "ProductCatalog",
        "Item"
      ],
      [
        "Ġre",
        "comm"
      ],
      [
        "ĠT",
        "ree"
      ],
      [
        "ĠA",
        "I"
      ],
      [
        "ĠR",
        "es"
      ],
      [
        "Ġover",
        "lay"
      ],
      [
        "Ġresp",
        "onse"
      ],
      [
        "dis",
        "abled"
      ],
      [
        "idd",
        "le"
      ],
      [
        "P",
        "r"
      ],
      [
        "ar",
        "agraph"
      ],
      [
        "Ġre",
        "ce"
      ],
      [
        "Ġlabel",
        "s"
      ],
      [
        "al",
        "ign"
      ],
      [
        "va",
        "n"
      ],
      [
        "Ex",
        "p"
      ],
      [
        "ĠJ",
        "AR"
      ],
      [
        "ĠHT",
        "TP"
      ],
      [
        "v",
        "al"
      ],
      [
        "Ġa",
        "vatar"
      ],
      [
        "Ġd",
        "ashboard"
      ],
      [
        "Ġe",
        "as"
      ],
      [
        "Ġexp",
        "licit"
      ],
      [
        "Ġhel",
        "p"
      ],
      [
        "2",
        "7"
      ],
      [
        "Ġs",
        "rc"
      ],
      [
        "Ġp",
        "attern"
      ],
      [
        "Ġst",
        "and"
      ],
      [
        "Ġwr",
        "ite"
      ],
      [
        "I",
        "C"
      ],
      [
        "b",
        "ser"
      ],
      [
        "c",
        "re"
      ],
      [
        "g",
        "ap"
      ],
      [
        "Ġs",
        "av"
      ],
      [
        "ĠĠĠĠĠĠĠĠ",
        "ĠĠĠĠĠĠĠĠĠĠĠĠĠĠĠĠĠĠĠĠĠĠĠ"
      ],
      [
        "Ġm",
        "anager"
      ],
      [
        "ĠD",
        "e"
      ],
      [
        "Ġconst",
        "ruct"
      ],
      [
        "Ġen",
        "sure"
      ],
      [
        "Ġrequest",
        "s"
      ],
      [
        "C",
        "art"
      ],
      [
        "D",
        "ialog"
      ],
      [
        "l",
        "is"
      ],
      [
        "m",
        "od"
      ],
      [
        "Ġc",
        "l"
      ],
      [
        "ĠC",
        "heckbox"
      ],
      [
        "act",
        "ive"
      ],
      [
        "sp",
        "ecif"
      ],
      [
        "ĠLumo",
        "Utility"
      ],
      [
        "adi",
        "us"
      ],
      [
        "ializ",
        "ation"
      ],
      [
        "Ġcre",
        "ating"
      ],
      [
        "Ġcart",
        "Items"
      ],
      [
        "H",
        "t"
      ],
      [
        "Ġw",
        "ill"
      ],
      [
        "Ġv",
        "ia"
      ],
      [
        "ib",
        "r"
      ],
      [
        "for",
        "Field"
      ],
      [
        "w",
        "ay"
      ],
      [
        "Ġ",
        "la"
      ],
      [
        "le",
        "ase"
      ],
      [
        "..",
        "/"
      ],
      [
        "en",
        "se"
      ],
      [
        "le",
        "vel"
      ],
      [
        "iz",
        "ing"
      ],
      [
        "ĠB",
        "igDecimal"
      ],
      [
        "im",
        "eline"
      ],
      [
        "Ġset",
        "up"
      ],
      [
        "ĠJ",
        "S"
      ],
      [
        "Ġevent",
        "s"
      ],
      [
        "Ġres",
        "ources"
      ],
      [
        "Ġinclud",
        "e"
      ],
      [
        "Vis",
        "a"
      ],
      [
        "Ġme",
        "ans"
      ],
      [
        "9",
        "5"
      ],
      [
        "Ġ",
        "image"
      ],
      [
        "Label",
        "s"
      ],
      [
        "sh",
        "ow"
      ],
      [
        "Ġannotation",
        "s"
      ],
      [
        "Hel",
        "per"
      ],
      [
        "Ġm",
        "y"
      ],
      [
        "En",
        "ter"
      ],
      [
        "viron",
        "ment"
      ],
      [
        "term",
        "inal"
      ],
      [
        "P",
        "anel"
      ],
      [
        "ĠD",
        "is"
      ],
      [
        "Ġapp",
        "ro"
      ],
      [
        "Ġwith",
        "in"
      ],
      [
        "let",
        "ed"
      ],
      [
        "ĠG",
        "radle"
      ],
      [
        "Res",
        "p"
      ],
      [
        "ĠUser",
        "Info"
      ],
      [
        "ĠForm",
        "Layout"
      ],
      [
        "ierarch",
        "y"
      ],
      [
        "Ġgiv",
        "en"
      ],
      [
        "B",
        "adge"
      ],
      [
        "M",
        "ap"
      ],
      [
        "i",
        "ent"
      ],
      [
        "on",
        "ym"
      ],
      [
        "ed",
        "ia"
      ],
      [
        "cont",
        "ain"
      ],
      [
        "Sp",
        "ring"
      ],
      [
        "i",
        "o"
      ],
      [
        "Ġc",
        "lear"
      ],
      [
        "et",
        "ch"
      ],
      [
        "Ġre",
        "al"
      ],
      [
        "Ġg",
        "roup"
      ],
      [
        "back",
        "ground"
      ],
      [
        "Ġrequire",
        "s"
      ],
      [
        "ĠSt",
        "art"
      ],
      [
        "Ġchild",
        "ren"
      ],
      [
        "Non",
        "Null"
      ],
      [
        "style",
        "s"
      ],
      [
        "def",
        "ined"
      ],
      [
        "ex",
        "p"
      ],
      [
        "Ġpro",
        "vider"
      ],
      [
        "¦",
        "âĢ"
      ],
      [
        "Ġs",
        "econd"
      ],
      [
        "Ġin",
        "dex"
      ],
      [
        "art",
        "a"
      ],
      [
        "over",
        "lay"
      ],
      [
        "str",
        "act"
      ],
      [
        "Ġsepar",
        "ate"
      ],
      [
        "¦âĢ",
        "ĭ"
      ],
      [
        "g",
        "ument"
      ],
      [
        "ar",
        "ge"
      ],
      [
        "ac",
        "es"
      ],
      [
        "Ġst",
        "ream"
      ],
      [
        "ak",
        "arta"
      ],
      [
        "Ġwr",
        "it"
      ],
      [
        "Ġcomm",
        "on"
      ],
      [
        "ĠSupport",
        "ed"
      ],
      [
        "collaboration",
        "engine"
      ],
      [
        "re",
        "t"
      ],
      [
        "act",
        "ory"
      ],
      [
        "ĠL",
        "og"
      ],
      [
        "Ġtr",
        "ig"
      ],
      [
        "Ġsub",
        "mit"
      ],
      [
        "Ġbec",
        "ause"
      ],
      [
        "onym",
        "ous"
      ],
      [
        "n",
        "ap"
      ],
      [
        "iv",
        "es"
      ],
      [
        "ĠT",
        "r"
      ],
      [
        "ser",
        "t"
      ],
      [
        "Ġrep",
        "resent"
      ],
      [
        ".",
        "/"
      ],
      [
        "C",
        "heck"
      ],
      [
        "D",
        "I"
      ],
      [
        "s",
        "wing"
      ],
      [
        "v",
        "n"
      ],
      [
        "w",
        "it"
      ],
      [
        "Ġ/",
        "*"
      ],
      [
        "Ġr",
        "outes"
      ],
      [
        "Ser",
        "vlet"
      ],
      [
        "Ġle",
        "vel"
      ],
      [
        "Ġprovid",
        "ed"
      ],
      [
        "EN",
        "T"
      ],
      [
        "Ġte",
        "mplate"
      ],
      [
        "nap",
        "shot"
      ],
      [
        "A",
        "I"
      ],
      [
        "Ġv",
        "ers"
      ],
      [
        "Ġacc",
        "ount"
      ],
      [
        "Ġtop",
        "ic"
      ],
      [
        "O",
        "P"
      ],
      [
        "h",
        "as"
      ],
      [
        "m",
        "ax"
      ],
      [
        "Ġt",
        "ree"
      ],
      [
        "Ġc",
        "ategory"
      ],
      [
        "Ġre",
        "port"
      ],
      [
        "Ġr",
        "ight"
      ],
      [
        "Ġwh",
        "at"
      ],
      [
        "ĠR",
        "outer"
      ],
      [
        "Ġstor",
        "ed"
      ],
      [
        "Ġc",
        "alled"
      ],
      [
        "Ġp",
        "arts"
      ],
      [
        "Ġhe",
        "ight"
      ],
      [
        "Ġremo",
        "ved"
      ],
      [
        "w",
        "are"
      ],
      [
        "Ġc",
        "ould"
      ],
      [
        "Ġto",
        "oltip"
      ],
      [
        "Aut",
        "o"
      ],
      [
        "NA",
        "ME"
      ],
      [
        "ic",
        "ated"
      ],
      [
        "Ġp",
        "ack"
      ],
      [
        "Ġw",
        "hether"
      ],
      [
        "ĠR",
        "oute"
      ],
      [
        "form",
        "at"
      ],
      [
        "Ġdis",
        "count"
      ],
      [
        "Select",
        "ed"
      ],
      [
        "ruct",
        "ure"
      ],
      [
        "3",
        "5"
      ],
      [
        "6",
        "8"
      ],
      [
        "G",
        "ener"
      ],
      [
        "L",
        "ogin"
      ],
      [
        "in",
        "ter"
      ],
      [
        "ed",
        "i"
      ],
      [
        "is",
        "s"
      ],
      [
        "ac",
        "cess"
      ],
      [
        "En",
        "t"
      ],
      [
        "Ġits",
        "elf"
      ],
      [
        "Dis",
        "abled"
      ],
      [
        "D",
        "rop"
      ],
      [
        "H",
        "ow"
      ],
      [
        "O",
        "ff"
      ],
      [
        "o",
        "ord"
      ],
      [
        "Ġm",
        "anag"
      ],
      [
        "get",
        "Style"
      ],
      [
        "av",
        "i"
      ],
      [
        "a",
        "iled"
      ],
      [
        "Ġin",
        "tegr"
      ],
      [
        "Ġm",
        "akes"
      ],
      [
        "bo",
        "ot"
      ],
      [
        "Ġex",
        "isting"
      ],
      [
        "sp",
        "ond"
      ],
      [
        "to",
        "oltip"
      ],
      [
        "ountr",
        "ies"
      ],
      [
        "we",
        "ight"
      ],
      [
        "L",
        "ink"
      ],
      [
        "en",
        "ch"
      ],
      [
        "ent",
        "er"
      ],
      [
        "Ġm",
        "et"
      ],
      [
        "ĠS",
        "ystem"
      ],
      [
        "set",
        "Width"
      ],
      [
        "In",
        "teger"
      ],
      [
        "ĠU",
        "n"
      ],
      [
        "read",
        "y"
      ],
      [
        "Ġpre",
        "vent"
      ],
      [
        "Res",
        "ult"
      ],
      [
        "idd",
        "en"
      ],
      [
        "g",
        "ing"
      ],
      [
        "Ġ",
        "ke"
      ],
      [
        "Ġa",
        "void"
      ],
      [
        "ĠS",
        "c"
      ],
      [
        "ĠC",
        "rud"
      ],
      [
        "able",
        "s"
      ],
      [
        "Configur",
        "er"
      ],
      [
        "Ġstylesheet",
        "s"
      ],
      [
        "Ġag",
        "ain"
      ],
      [
        "N",
        "ode"
      ],
      [
        "P",
        "assword"
      ],
      [
        "if",
        "ier"
      ],
      [
        "ĠU",
        "s"
      ],
      [
        "Ġaut",
        "h"
      ],
      [
        "Ġselect",
        "ion"
      ],
      [
        "Paramet",
        "er"
      ],
      [
        "lat",
        "form"
      ],
      [
        "edd",
        "ed"
      ],
      [
        "4",
        "5"
      ],
      [
        "d",
        "ers"
      ],
      [
        "Ġ{",
        "..."
      ],
      [
        "ĠT",
        "ab"
      ],
      [
        "og",
        "gle"
      ],
      [
        "li",
        "ed"
      ],
      [
        "Ġposs",
        "ible"
      ],
      [
        "8",
        "9"
      ],
      [
        "M",
        "ax"
      ],
      [
        "U",
        "s"
      ],
      [
        "a",
        "ura"
      ],
      [
        "f",
        "ocus"
      ],
      [
        "p",
        "i"
      ],
      [
        "v",
        "ing"
      ],
      [
        "x",
        "x"
      ],
      [
        "Ġ",
        "emb"
      ],
      [
        "ĠV",
        "is"
      ],
      [
        "th",
        "en"
      ],
      [
        "Ġex",
[...]
