{
  "version": "1.0",
  "truncation": null,
  "padding": null,
  "added_tokens": [
    {
      "id": 0,
      "content": "<pad>",
      "single_word": false,
      "lstrip": false,
      "rstrip": false,
      "normalized": false,
      "special": true
    },
    {
      "id": 1,
      "content": "<unk>",
      "single_word": false,
      "lstrip": false,
      "rstrip": false,
      "normalized": false,
      "special": true
    },
    {
      "id": 2,
      "content": "<bos>",
      "single_word": false,
      "lstrip": false,
      "rstrip": false,
      "normalized": false,
      "special": true
    },
    {
      "id": 3,
      "content": "<eos>",
      "single_word": false,
      "lstrip": false,
      "rstrip": false,
      "normalized": false,
      "special": true
    }
  ],
  "normalizer": null,
  "pre_tokenizer": {
    "type": "ByteLevel",
    "add_prefix_space": false,
    "trim_offsets": true,
    "use_regex": true
  },
  "post_processor": null,
  "decoder": {
    "type": "ByteLevel",
    "add_prefix_space": true,
    "trim_offsets": true,
    "use_regex": true
  },
  "model": {
    "type": "BPE",
    "dropout": null,
    "unk_token": "<unk>",
    "continuing_subword_prefix": null,
    "end_of_word_suffix": null,
    "fuse_unk": false,
    "byte_fallback": false,
    "ignore_merges": false,
    "vocab": {
      "<pad>": 0,
      "<unk>": 1,
      "<bos>": 2,
      "<eos>": 3,
      "!": 4,
      "\"": 5,
      "#": 6,
      "$": 7,
      "%": 8,
      "&": 9,
      "'": 10,
      "(": 11,
      ")": 12,
      "*": 13,
      "+": 14,
      ",": 15,
      "-": 16,
      ".": 17,
      "/": 18,
      "0": 19,
      "1": 20,
      "2": 21,
      "3": 22,
      "4": 23,
      "5": 24,
      "6": 25,
      "7": 26,
      "8": 27,
      "9": 28,
      ":": 29,
      ";": 30,
      "<": 31,
      "=": 32,
      ">": 33,
      "?": 34,
      "@": 35,
      "A": 36,
      "B": 37,
      "C": 38,
      "D": 39,
      "E": 40,
      "F": 41,
      "G": 42,
      "H": 43,
      "I": 44,
      "J": 45,
      "K": 46,
      "L": 47,
      "M": 48,
      "N": 49,
      "O": 50,
      "P": 51,
      "Q": 52,
      "R": 53,
      "S": 54,
      "T": 55,
      "U": 56,
      "V": 57,
      "W": 58,
      "X": 59,
      "Y": 60,
      "Z": 61,
      "[": 62,
      "\\": 63,
      "]": 64,
      "^": 65,
      "_": 66,
      "`": 67,
      "a": 68,
      "b": 69,
      "c": 70,
      "d": 71,
      "e": 72,
      "f": 73,
      "g": 74,
      "h": 75,
      "i": 76,
      "j": 77,
      "k": 78,
      "l": 79,
      "m": 80,
      "n": 81,
      "o": 82,
      "p": 83,
      "q": 84,
      "r": 85,
      "s": 86,
      "t": 87,
      "u": 88,
      "v": 89,
      "w": 90,
      "x": 91,
      "y": 92,
      "z": 93,
      "{": 94,
      "|": 95,
      "}": 96,
      "~": 97,
      "¡": 98,
      "¢": 99,
      "£": 100,
      "¤": 101,
      "¥": 102,
      "¦": 103,
      "§": 104,
      "¨": 105,
      "©": 106,
      "ª": 107,
      "«": 108,
      "¬": 109,
      "®": 110,
      "¯": 111,
      "°": 112,
      "±": 113,
      "²": 114,
      "³": 115,
      "´": 116,
      "µ": 117,
      "¶": 118,
      "·": 119,
      "¸": 120,
      "¹": 121,
      "º": 122,
      "»": 123,
      "¼": 124,
      "½": 125,
      "¾": 126,
      "¿": 127,
      "Â": 128,
      "Ã": 129,
      "Ä": 130,
      "Å": 131,
      "É": 132,
      "Ê": 133,
      "Ñ": 134,
      "Ò": 135,
      "á": 136,
      "â": 137,
      "ã": 138,
      "ä": 139,
      "å": 140,
      "æ": 141,
      "ç": 142,
      "è": 143,
      "é": 144,
      "î": 145,
      "ï": 146,
      "ð": 147,
      "ĉ": 148,
      "Ċ": 149,
      "Ġ": 150,
      "Ģ": 151,
      "ģ": 152,
      "Ĥ": 153,
      "ĥ": 154,
      "Ħ": 155,
      "ħ": 156,
      "Ĩ": 157,
      "ĩ": 158,
      "Ī": 159,
      "ī": 160,
      "Ĭ": 161,
      "ĭ": 162,
      "Į": 163,
      "į": 164,
      "İ": 165,
      "ı": 166,
      "Ĳ": 167,
      "ĳ": 168,
      "Ĵ": 169,
      "ĵ": 170,
      "Ķ": 171,
      "ķ": 172,
      "ĸ": 173,
      "Ĺ": 174,
      "ĺ": 175,
      "Ļ": 176,
      "ļ": 177,
      "Ľ": 178,
      "ľ": 179,
      "Ŀ": 180,
      "ŀ": 181,
      "Ł": 182,
      "ł": 183,
      "Ń": 184,
      "Ġt": 185,
      "he": 186,
      "Ġa": 187,
      "Ġs": 188,
      "nd": 189,
      "Ġw": 190,
      "Ġthe": 191,
      "ed": 192,
      "Ġb": 193,
      "Ġto": 194,
      "Ġand": 195,
      "Ġh": 196,
      "Ġf": 197,
      "in": 198,
      "ĠT": 199,
      "Ġwa": 200,
      "re": 201,
      "it": 202,
      "ou": 203,
      "Ġl": 204,
      "Ġd": 205,
      "Ġc": 206,
      "Ġp": 207,
      "ay": 208,
      "Ġm": 209,
      "er": 210,
      "Ġwas": 211,
      "om": 212,
      "ĠThe": 213,
      "Ġhe": 214,
      "is": 215,
      "ar": 216,
      "Ġn": 217,
      "on": 218,
      "im": 219,
      "Ġsa": 220,
      "id": 221,
      "ll": 222,
      "Ġha": 223,
      "Ġg": 224,
      "at": 225,
      "ĠS": 226,
      "ing": 227,
      "ot": 228,
      "en": 229,
      "an": 230,
      "le": 231,
      "or": 232,
      "end": 233,
      "ir": 234,
      "of": 235,
      "am": 236,
      "et": 237,
      "ĠH": 238,
      "Ġit": 239,
      "Ġth": 240,
      "ig": 241,
      "ĠThey": 242,
      "Ġin": 243,
      "il": 244,
      "Ġpl": 245,
      "ĠHe": 246,
      "Ġ\"": 247,
      "ow": 248,
      "ver": 249,
      "ri": 250,
      "ut": 251,
      "Ġu": 252,
      "Ġbe": 253,
      "Ġsaid": 254,
      "Ġplay": 255,
      "ith": 256,
      "pp": 257,
      "Ġwith": 258,
      "Ġday": 259,
      "On": 260,
      "Ġy": 261,
      "oo": 262,
      "ked": 263,
      "Ġr": 264,
      "ex": 265,
      "ce": 266,
      "Ġher": 267,
      "ĠI": 268,
      "ld": 269,
      "ĠShe": 270,
      "ĠTim": 271,
      "Ġhis": 272,
      "Ġst": 273,
      "ke": 274,
      "Ġbig": 275,
      "nt": 276,
      "ck": 277,
      "Ġyou": 278,
      "st": 279,
      "very": 280,
      "ve": 281,
      "Ġon": 282,
      "un": 283,
      "Ġhapp": 284,
      "riend": 285,
      "all": 286,
      "Ġfriend": 287,
      "ext": 288,
      "ily": 289,
      "ĠL": 290,
      "Ġthey": 291,
      "oft": 292,
      "Ġwe": 293,
      "Ġhad": 294,
      "Ġnot": 295,
      "Ġli": 296,
      "Ġup": 297,
      "her": 298,
      "Ġwant": 299,
      "Ġof": 300,
      "ad": 301,
      "itt": 302,
      "<|": 303,
      "|>": 304,
      "endoft": 305,
      "endoftext": 306,
      "se": 307,
      "ĠB": 308,
      "Ġe": 309,
      "Ġdo": 310,
      "ent": 311,
      "Ġhappy": 312,
      "es": 313,
      "Ġvery": 314,
      "ĠM": 315,
      "Ġthat": 316,
      "Ġsaw": 317,
      "One": 318,
      "'s": 319,
      "ould": 320,
      "Ġfor": 321,
      "Ġmom": 322,
      "Ġsh": 323,
      "ittle": 324,
      "Ġlittle": 325,
      "Ġshe": 326,
      "ch": 327,
      "ime": 328,
      "Ġnam": 329,
      ".\"": 330,
      "Ġtime": 331,
      "Ġk": 332,
      "ound": 333,
      "Ġso": 334,
      "Ġthere": 335,
      "Ġnamed": 336,
      "Ġsm": 337,
      "Ġbo": 338,
      "Ġwere": 339,
      "ĠLily": 340,
      "Ġne": 341,
      "out": 342,
      "Ġwanted": 343,
      "Ġbut": 344,
      "The": 345,
      "Ġfriends": 346,
      "ved": 347,
      "!\"": 348,
      "ht": 349,
      "ĠTom": 350,
      "ird": 351,
      "el": 352,
      "al": 353,
      "Ġbird": 354,
      "Ġan": 355,
      "ake": 356,
      "ome": 357,
      "Ġtoo": 358,
      "ĠIt": 359,
      "ug": 360,
      "ide": 361,
      "Ġwent": 362,
      "Ġwh": 363,
      "Ġhel": 364,
      "Ġis": 365,
      "Once": 366,
      "Ġall": 367,
      "ue": 368,
      "Ġhelp": 369,
      "Ġloo": 370,
      "Ġlo": 371,
      "ter": 372,
      "ĠA": 373,
      "Ġupon": 374,
      "ry": 375,
      "ore": 376,
      "ind": 377,
      "Ġfun": 378,
      "get": 379,
      "ill": 380,
      "Ġtoy": 381,
      "ame": 382,
      "Ġas": 383,
      "ra": 384,
      "Ġat": 385,
      "Ġj": 386,
      "Ġdid": 387,
      "Ġre": 388,
      "gether": 389,
      "ur": 390,
      "Ġo": 391,
      "Ġse": 392,
      "Ġtogether": 393,
      "ack": 394,
      "ly": 395,
      "Ġcat": 396,
      "Ġtre": 397,
      "ood": 398,
      "ic": 399,
      "ted": 400,
      "Ġdog": 401,
      "Ġcould": 402,
      "Ġcan": 403,
      "Ġtheir": 404,
      "ard": 405,
      "ec": 406,
      "ark": 407,
      "Ġgir": 408,
      "Ġplayed": 409,
      "Ġhim": 410,
      "Ġball": 411,
      "?\"": 412,
      "Ġro": 413,
      "Ġgirl": 414,
      "way": 415,
      "Ġgo": 416,
      "hed": 417,
      "my": 418,
      "Ġare": 419,
      "Ġfr": 420,
      "Ġout": 421,
      "Ġle": 422,
      "ain": 423,
      "um": 424,
      "hen": 425,
      "Ġkn": 426,
      "Ġthem": 427,
      "'t": 428,
      "ax": 429,
      "Ġsad": 430,
      "ul": 431,
      "Ġboy": 432,
      "Ġtree": 433,
      "other": 434,
      "Ġhave": 435,
      "Ġman": 436,
      "Ġcl": 437,
      "Ġloved": 438,
      "Ġlooked": 439,
      "oug": 440,
      "Ġfound": 441,
      "Ġsp": 442,
      "Ġstar": 443,
      "ĠSue": 444,
      "one": 445,
      "hing": 446,
      "Ġsc": 447,
      "Ġback": 448,
      "own": 449,
      "ĠMax": 450,
      "are": 451,
      "Ġlike": 452,
      "ful": 453,
      "side": 454,
      "Ġme": 455,
      "Ġbec": 456,
      "ight": 457,
      "ong": 458,
      "Ġpark": 459,
      "Ġcar": 460,
      "op": 461,
      "elt": 462,
      "ĠOne": 463,
      "Ġwould": 464,
      "Ġliked": 465,
      "Ġla": 466,
      "Ġmake": 467,
      "round": 468,
      "Ġfa": 469,
      "Ġfelt": 470,
      "You": 471,
      "ĠW": 472,
      "ell": 473,
      "Ġsee": 474,
      "ag": 475,
      "ĠBut": 476,
      "omet": 477,
      "Ġasked": 478,
      "Ġnew": 479,
      "ice": 480,
      "Ġno": 481,
      "ĠSam": 482,
      "ouse": 483,
      "ared": 484,
      "Ġstarted": 485,
      "Ġcame": 486,
      "ĠBen": 487,
      "Ġal": 488,
      "Ġother": 489,
      "ought": 490,
      "iled": 491,
      "Ġsomet": 492,
      "Ġag": 493,
      "ss": 494,
      "Ġgood": 495,
      "Ġsmall": 496,
      "Ġbr": 497,
      "Ġsmiled": 498,
      "Ġsay": 499,
      "ade": 500,
      "ried": 501,
      "ings": 502,
      "ĠĊ": 503,
      "ob": 504,
      "pot": 505,
      "Ġwor": 506,
      "Ġfind": 507,
      "ia": 508,
      "ty": 509,
      "Ġex": 510,
      "Ġfrom": 511,
      "Ġaway": 512,
      "Ġput": 513,
      "Ġwhat": 514,
      "Ġsomething": 515,
      "Ġmade": 516,
      "Ġthought": 517,
      "ened": 518,
      "Ġhome": 519,
      "Ġco": 520,
      "Ġplaying": 521,
      "ook": 522,
      "Ġevery": 523,
      "uc": 524,
      "Ġwal": 525,
      "Ġmu": 526,
      "ach": 527,
      "arn": 528,
      "ie": 529,
      "ĠSpot": 530,
      "Ġran": 531,
      "ile": 532,
      "ĠF": 533,
      "ĠJ": 534,
      "ave": 535,
      "Ġagain": 536,
      "dd": 537,
      "Ġsome": 538,
      "Ġlaug": 539,
      "Ġhouse": 540,
      "Ġdown": 541,
      "Ġpr": 542,
      "Ġfl": 543,
      "king": 544,
      "Ġtook": 545,
      "Ġscared": 546,
      "ure": 547,
      "if": 548,
      "ny": 549,
      "Ġtoys": 550,
      "Ġlearn": 551,
      "ab": 552,
      "ĠYou": 553,
      "Ġwill": 554,
      "Ġbox": 555,
      "ick": 556,
      "ep": 557,
      "ret": 558,
      "Ġmy": 559,
      "Ġaround": 560,
      "Ġyour": 561,
      "Ġthings": 562,
      "oud": 563,
      "Ġbl": 564,
      "Ġwhen": 565,
      "uck": 566,
      "ish": 567,
      "Ġlived": 568,
      "Ġfe": 569,
      "as": 570,
      "Ġthen": 571,
      "Ġsun": 572,
      "Ġsw": 573,
      ",\"": 574,
      "Ġch": 575,
      "us": 576,
      "pped": 577,
      "Ġab": 578,
      "ĠMia": 579,
      "ank": 580,
      "Ġget": 581,
      "ist": 582,
      "ucy": 583,
      "Tim": 584,
      "ump": 585,
      "Th": 586,
      "Ġlot": 587,
      "oth": 588,
      "ap": 589,
      "Ġtried": 590,
      "Ġknow": 591,
      "Ġsays": 592,
      "Ġgot": 593,
      "ust": 594,
      "ited": 595,
      "Ġwho": 596,
      "Ġkne": 597,
      "Ġmany": 598,
      "nder": 599,
      "Ġint": 600,
      "Ġabout": 601,
      "Lily": 602,
      "Ġpret": 603,
      "ĠD": 604,
      "ĠĠ": 605,
      "Ġany": 606,
      "Ġdec": 607,
      "ive": 608,
      "Ġred": 609,
      "Ġv": 610,
      "ace": 611,
      "Ġknew": 612,
      "ous": 613,
      "Ġmore": 614,
      "ise": 615,
      "ally": 616,
      "Ġcare": 617,
      "qu": 618,
      "Ġpic": 619,
      "au": 620,
      "Ġhug": 621,
      "ĠLucy": 622,
      "Ġpo": 623,
      "Ġlearned": 624,
      "Ġwater": 625,
      "fter": 626,
      "âĢ": 627,
      "Ġbecame": 628,
      "Ġbest": 629,
      "Ġop": 630,
      "ause": 631,
      "Ġgre": 632,
      "Ġexc": 633,
      "ways": 634,
      "urp": 635,
      "Ġoutside": 636,
      "Ġlaughed": 637,
      "Ġlook": 638,
      "Ġalways": 639,
      "ant": 640,
      "Ġshow": 641,
      "Ġdecid": 642,
      "Ġun": 643,
      "fe": 644,
      "ĠBob": 645,
      "Ġroom": 646,
      "Ġho": 647,
      "Ġdecided": 648,
      "Ġbecause": 649,
      "Ġinto": 650,
      "ite": 651,
      "ĠSo": 652,
      "Ġeat": 653,
      "ers": 654,
      "Ġpe": 655,
      "ĠAnd": 656,
      "Ġjump": 657,
      "Ġboth": 658,
      "ĠMom": 659,
      "Ġdad": 660,
      "They": 661,
      "Ġke": 662,
      "udd": 663,
      "Ġone": 664,
      "Ġthis": 665,
      "ĠE": 666,
      "nn": 667,
      "Ġexcited": 668,
      "Ġfast": 669,
      "Ġnice": 670,
      "Ġfeel": 671,
      "Tom": 672,
      "Ġrun": 673,
      "Yes": 674,
      "Ġlong": 675,
      "Ġtold": 676,
      "Ġsk": 677,
      "Ġam": 678,
      "our": 679,
      "urpr": 680,
      "ull": 681,
      "Ġinside": 682,
      "Ġtr": 683,
      "Ġmo": 684,
      "Ġsurpr": 685,
      "ink": 686,
      "Ġpretty": 687,
      "iny": 688,
      "Ġsor": 689,
      "og": 690,
      "Wh": 691,
      "Ġtake": 692,
      "Ġsl": 693,
      "Ġeach": 694,
      "Ġgave": 695,
      "Ġmuch": 696,
      "lew": 697,
      "Ġgra": 698,
      "nna": 699,
      "Ġhow": 700,
      "Ġstr": 701,
      "Ġrock": 702,
      "ara": 703,
      "imal": 704,
      "ĠC": 705,
      "Ġanimal": 706,
      "ged": 707,
      "Ġneed": 708,
      "Ġor": 709,
      "But": 710,
      "Ġthan": 711,
      "ven": 712,
      "etter": 713,
      "Ġtow": 714,
      "ess": 715,
      "Ġunder": 716,
      "Ġold": 717,
      "Ġsorry": 718,
      "ge": 719,
      "ro": 720,
      "ised": 721,
      "urt": 722,
      "Ġcle": 723,
      "Ġfish": 724,
      "and": 725,
      "Ġwalked": 726,
      "Ġclo": 727,
      "ase": 728,
      "ast": 729,
      "urn": 730,
      "Ġbear": 731,
      "Ġhand": 732,
      "ĠWe": 733,
      "Ġkind": 734,
      "ĠHis": 735,
      "ion": 736,
      "pl": 737,
      "here": 738,
      "Ġjust": 739,
      "Ġhappened": 740,
      "Ġlist": 741,
      "Ġte": 742,
      "Ġflow": 743,
      "Ġfood": 744,
      "Ġdidn": 745,
      "Ġhig": 746,
      "Ġanimals": 747,
      "Ġus": 748,
      "ine": 749,
      "Ġwat": 750,
      "Ġnear": 751,
      "ate": 752,
      "Ġtry": 753,
      "ched": 754,
      "Ġide": 755,
      "Ġsky": 756,
      "Ġsn": 757,
      "ving": 758,
      "Ġfi": 759,
      "rom": 760,
      "Ġidea": 761,
      "Ġbetter": 762,
      "ĠAmy": 763,
      "Ġbug": 764,
      "Ġheard": 765,
      "Ġits": 766,
      "gry": 767,
      "Ġtw": 768,
      "able": 769,
      "pec": 770,
      "Ġlet": 771,
      "Ġcom": 772,
      "ff": 773,
      "Ġen": 774,
      "Ġif": 775,
      "Ġcareful": 776,
      "Ġshare": 777,
      "ial": 778,
      "Thank": 779,
      "ort": 780,
      "Mom": 781,
      "Ġfly": 782,
      "Ġstor": 783,
      "Ġflew": 784,
      "ĠTh": 785,
      "more": 786,
      "Ġanymore": 787,
      "Ġspec": 788,
      "Ġspecial": 789,
      "Ġby": 790,
      "Ġlots": 791,
      "Ġnever": 792,
      "lf": 793,
      "ream": 794,
      "Ġdan": 795,
      "Ġfo": 796,
      "Ġbu": 797,
      "Ġdon": 798,
      "Ġwind": 799,
      "Ġgr": 800,
      "Ġtal": 801,
      "Ġclean": 802,
      "Ġend": 803,
      "ber": 804,
      "Ġlove": 805,
      "rm": 806,
      "ople": 807,
      "ĠThen": 808,
      "Ġeven": 809,
      "Ġmag": 810,
      "Ġover": 811,
      "Ġhard": 812,
      "Ġshiny": 813,
      "udden": 814,
      "Ġfore": 815,
      "Ġcake": 816,
      "ak": 817,
      "Ġcol": 818,
      "Ġbook": 819,
      "Ġturn": 820,
      "Ġfam": 821,
      "Ġbad": 822,
      "Ġsafe": 823,
      "Ġafter": 824,
      "ady": 825,
      "Ġpeople": 826,
      "ĠAnna": 827,
      "uddenly": 828,
      "Ġproud": 829,
      "ĠEvery": 830,
      "Ġsurprised": 831,
      "pected": 832,
      "Let": 833,
      "Ġhigh": 834,
      "Ġcu": 835,
      "Ġhurt": 836,
      "ble": 837,
      "Ġcome": 838,
      "imb": 839,
      "Ġdoor": 840,
      "arden": 841,
      "Ġgarden": 842,
      "Ġground": 843,
      "Ġopened": 844,
      "Ġpicked": 845,
      "Ġloud": 846,
      "Ġclimb": 847,
      "ild": 848,
      "Ġim": 849,
      "expected": 850,
      "Ġunexpected": 851,
      "Ġche": 852,
      "ail": 853,
      "Ġgl": 854,
      "As": 855,
      "Ġgive": 856,
      "Ġway": 857,
      "Ġcolor": 858,
      "'m": 859,
      "Ġthanked": 860,
      "Ġblue": 861,
      "Ġstill": 862,
      "age": 863,
      "ip": 864,
      "Ġever": 865,
      "Ġcall": 866,
      "iz": 867,
      "Ġhugged": 868,
      "ĠFrom": 869,
      "Ġfar": 870,
      "ĠHer": 871,
      "ĠSara": 872,
      "No": 873,
      "ĠWhen": 874,
      "ct": 875,
      "Ġoff": 876,
      "em": 877,
      "ough": 878,
      "Ġmagic": 879,
      "ummy": 880,
      "ĠK": 881,
      "Ġjumped": 882,
      "Ġshould": 883,
      "Ġpar": 884,
      "ool": 885,
      "Ġfamily": 886,
      "Ġkid": 887,
      "Ġsmile": 888,
      "hes": 889,
      "uff": 890,
      "Ġplace": 891,
      "kay": 892,
      "ĠIn": 893,
      "Ġnow": 894,
      "Ġwalk": 895,
      "Ġgreat": 896,
      "Ġqu": 897,
      "ĠP": 898,
      "Ġstrong": 899,
      "Ġstay": 900,
      "Ġunt": 901,
      "aut": 902,
      "Ġsto": 903,
      "ture": 904,
      "Ġforest": 905,
      "ane": 906,
      "Ġbra": 907,
      "itty": 908,
      "Ġfrog": 909,
      "Ġuntil": 910,
      "Ġbro": 911,
      "oon": 912,
      "Ġbeaut": 913,
      "dy": 914,
      "Ġsqu": 915,
      "Ġstick": 916,
      "ies": 917,
      "Ġnext": 918,
      "Ġboat": 919,
      "lease": 920,
      "Ġapp": 921,
      "ning": 922,
      "th": 923,
      "Ġhappily": 924,
      "Ġlisten": 925,
      "aking": 926,
      "Ġtra": 927,
      "Ġkids": 928,
      "iful": 929,
      "by": 930,
      "Ġbeautiful": 931,
      "Ġhelped": 932,
      "pt": 933,
      "Ġimp": 934,
      "Ġdra": 935,
      "Ġshowed": 936,
      "be": 937,
      "Ġclos": 938,
      "oy": 939,
      "unny": 940,
      "Ġstory": 941,
      "Ġwhile": 942,
      "It": 943,
      "ress": 944,
      "Ġtown": 945,
      "rel": 946,
      "Ġrain": 947,
      "Ġpicture": 948,
      "Ġbeing": 949,
      "Ġrem": 950,
      "ary": 951,
      "Ġeveryone": 952,
      "ree": 953,
      "Ġmor": 954,
      "Ġmet": 955,
      "Ġhat": 956,
      "Ġcalled": 957,
      "Ġad": 958,
      "Ġstopped": 959,
      "He": 960,
      "Ġgame": 961,
      "Now": 962,
      "Ġwo": 963,
      "ger": 964,
      "Can": 965,
      "Ġangry": 966,
      "uffy": 967,
      "Ġopen": 968,
      "Ġsoft": 969,
      "When": 970,
      "vent": 971,
      "Ġkeep": 972,
      "Ġtruck": 973,
      "Ġyummy": 974,
      "Ġcry": 975,
      "Ġlost": 976,
      "Ġbed": 977,
      "ĠLet": 978,
      "Ġde": 979,
      "ĠSally": 980,
      "Ġwarm": 981,
      "Ġbrave": 982,
      "Ġmouse": 983,
      "ĠWh": 984,
      "Ġate": 985,
      "so": 986,
      "ĠKitty": 987,
      "fore": 988,
      "ished": 989,
      "Ġhole": 990,
      "Ġdoll": 991,
      "Ġcouldn": 992,
      "Ġwatch": 993,
      "Ġalso": 994,
      "Ġleave": 995,
      "dded": 996,
      "ĠR": 997,
      "Ġfell": 998,
      "bit": 999,
      "Ġgreen": 1000,
      "Ġtwo": 1001,
      "Ġface": 1002,
      "iss": 1003,
      "irst": 1004,
      "gan": 1005,
      "Ġflowers": 1006,
      "What": 1007,
      "Ġnoise": 1008,
      "abbit": 1009,
      "owl": 1010,
      "Ġwhere": 1011,
      "az": 1012,
      "ock": 1013,
      "ĠĠĠĠ": 1014,
      "Ġsoon": 1015,
      "self": 1016,
      "Ġuse": 1017,
      "Ġslide": 1018,
      "luffy": 1019,
      "Ġrabbit": 1020,
      "Ġbefore": 1021,
      "ired": 1022,
      "Ġpus": 1023,
      "irrel": 1024,
      "les": 1025,
      "Ġsat": 1026,
      "illy": 1027,
      "Ġhear": 1028,
      "Ġpa": 1029,
      "âĢĿ": 1030,
      "Hi": 1031,
      "âĢľ": 1032,
      "Ġkept": 1033,
      "ub": 1034,
      "ear": 1035,
      "That": 1036,
      "Ġsquirrel": 1037,
      "ma": 1038,
      "Then": 1039,
      "Ġnodded": 1040,
      "Ġexpl": 1041,
      "Ġcook": 1042,
      "Ġstore": 1043,
      "Ġhands": 1044,
      "Look": 1045,
      "Ġbirds": 1046,
      "Ġpain": 1047,
      "Ġgoing": 1048,
      "Ġfunny": 1049,
      "Ġhaving": 1050,
      "day": 1051,
      "uch": 1052,
      "Ġsing": 1053,
      "aybe": 1054,
      "Ġey": 1055,
      "Ġcatch": 1056,
      "aug": 1057,
      "aught": 1058,
      "Ġfin": 1059,
      "ĠFluffy": 1060,
      "ĠCan": 1061,
      "Ġyell": 1062,
      "uit": 1063,
      "Ġthink": 1064,
      "leep": 1065,
      "Ġcra": 1066,
      "Ben": 1067,
      "Ġbre": 1068,
      "Ġfix": 1069,
      "ange": 1070,
      "Ġused": 1071,
      "Ġtired": 1072,
      "Ġbunny": 1073,
      "Ġbus": 1074,
      "Ġlooking": 1075,
      "Ġwork": 1076,
      "ting": 1077,
      "air": 1078,
      "Ġwr": 1079,
      "Ġthr": 1080,
      "ĠG": 1081,
      "We": 1082,
      "Ġour": 1083,
      "Ġcon": 1084,
      "Ġpull": 1085,
      "thing": 1086,
      "Ġwait": 1087,
      "ĠNow": 1088,
      "Ġkit": 1089,
      "Ġhas": 1090,
      "led": 1091,
      "Ġsound": 1092,
      "Ġjo": 1093,
      "Ġmean": 1094,
      "ember": 1095,
      "Ġpond": 1096,
      "Ġbeh": 1097,
      "Ġdr": 1098,
      "Ġsunny": 1099,
      "Ġothers": 1100,
      "Ġask": 1101,
      "ng": 1102,
      "chen": 1103,
      "Ġkitchen": 1104,
      "Ġtalk": 1105,
      "Ġflo": 1106,
      "Ġdif": 1107,
      "Ġhead": 1108,
      "Ġfirst": 1109,
      "Ġreal": 1110,
      "ĠJo": 1111,
      "rew": 1112,
      "Ġpie": 1113,
      "Ġtri": 1114,
      "ath": 1115,
      "Ġmommy": 1116,
      "Ġimport": 1117,
      "ello": 1118,
      "Ġeyes": 1119,
      "Hello": 1120,
      "Ġfav": 1121,
      "Ġmess": 1122,
      "Ġvo": 1123,
      "joy": 1124,
      "Ġz": 1125,
      "Ġright": 1126,
      "ac": 1127,
      "Ġremember": 1128,
      "Ġflower": 1129,
      "Ġparty": 1130,
      "ious": 1131,
      "Ġcold": 1132,
      "ĠDo": 1133,
      "ft": 1134,
      "Ġswe": 1135,
      "Ġsand": 1136,
      "ĠâĢľ": 1137,
      "ount": 1138,
      "orn": 1139,
      "Ġrace": 1140,
      "imes": 1141,
      "Ġcuri": 1142,
      "Ġimportant": 1143,
      "Ġduck": 1144,
      "Ġshared": 1145,
      "Ġmoral": 1146,
      "llow": 1147,
      "zy": 1148,
      "ĠJack": 1149,
      "Ġice": 1150,
      "Ġokay": 1151,
      "Ġadvent": 1152,
      "At": 1153,
      "Ġworked": 1154,
      "Ġcla": 1155,
      "Ġenjoy": 1156,
      "Ġmaking": 1157,
      "Ġbright": 1158,
      "Ġown": 1159,
      "Ġdress": 1160,
      "Ġcurious": 1161,
      "Ġdis": 1162,
      "Ġtall": 1163,
      "Ġdir": 1164,
      "Ġhop": 1165,
      "reed": 1166,
      "Ġhid": 1167,
      "hn": 1168,
      "Ġfavor": 1169,
      "Ġri": 1170,
      "ect": 1171,
      "Ġfavorite": 1172,
      "Ġsleep": 1173,
      "Wow": 1174,
      "Ġthing": 1175,
      "Ġbegan": 1176,
      "Ġmon": 1177,
      "Ġbag": 1178,
      "Ġhill": 1179,
      "Don": 1180,
      "Ġrest": 1181,
      "Ġdraw": 1182,
      "Ġhere": 1183,
      "bed": 1184,
      "Ġyard": 1185,
      "Ġtell": 1186,
      "ĠFin": 1187,
      "Ġfollow": 1188,
      "que": 1189,
      "co": 1190,
      "ster": 1191,
      "Ġbel": 1192,
      "Ġmove": 1193,
      "Ġwatched": 1194,
      "Ġcut": 1195,
      "Ġnight": 1196,
      "Ġpick": 1197,
      "Ġagreed": 1198,
      "ign": 1199,
      "Ġblock": 1200,
      "ĠThis": 1201,
      "Ġhun": 1202,
      "aper": 1203,
      "lly": 1204,
      "Ġstop": 1205,
      "ied": 1206,
      "Ġbehind": 1207,
      "Ġsurprise": 1208,
      "Ġsho": 1209,
      "After": 1210,
      "Ġhot": 1211,
      "Ġtable": 1212,
      "fere": 1213,
      "Ġgrass": 1214,
      "Ġworry": 1215,
      "Ġdark": 1216,
      "Ġtrees": 1217,
      "Ġvoice": 1218,
      "Ġwalking": 1219,
      "Ġtop": 1220,
      "Ġdiffere": 1221,
      "Ġgrab": 1222,
      "Ġfloor": 1223,
      "Ġfarm": 1224,
      "Ġlion": 1225,
      "Ġplease": 1226,
      "Ġsong": 1227,
      "Ġtail": 1228,
      "Ġread": 1229,
      "Ġbutter": 1230,
      "Ġsweet": 1231,
      "Max": 1232,
      "Ġshout": 1233,
      "Ġcolors": 1234,
      "Ġlady": 1235,
      "ĠDad": 1236,
      "âĢĻ": 1237,
      "Ġforg": 1238,
      "isy": 1239,
      "Ġleaves": 1240,
      "Ġcloser": 1241,
      "Ġcars": 1242,
      "Ġneeded": 1243,
      "bo": 1244,
      "Ġturned": 1245,
      "aring": 1246,
      "Ġtast": 1247,
      "Why": 1248,
      "Ġwood": 1249,
      "Ġdifferent": 1250,
      "Ġcried": 1251,
      "Ġdel": 1252,
      "ered": 1253,
      "Ġlaugh": 1254,
      "Ġpiece": 1255,
      "Ġdoes": 1256,
      "ĠMr": 1257,
      "Ġadventure": 1258,
      "Ġroll": 1259,
      "Ġfire": 1260,
      "Ġcr": 1261,
      "ike": 1262,
      "Ġhungry": 1263,
      "Ġhair": 1264,
      "ĠSuddenly": 1265,
      "Ġfull": 1266,
      "Ġyellow": 1267,
      "Ġpaper": 1268,
      "Ġfeeling": 1269,
      "av": 1270,
      "Ġprin": 1271,
      "Sue": 1272,
      "Ġtouch": 1273,
      "ĠAs": 1274,
      "Sam": 1275,
      "Anna": 1276,
      "Ġper": 1277,
      "Ġwet": 1278,
      "Ġfriendly": 1279,
      "oom": 1280,
      "ken": 1281,
      "ient": 1282,
      "cked": 1283,
      "ached": 1284,
      "Ġswing": 1285,
      "Ġfruit": 1286,
      "Ġbroken": 1287,
      "Ġready": 1288,
      "Ġprom": 1289,
      "bye": 1290,
      "Ġanother": 1291,
      "ppy": 1292,
      "ĠThat": 1293,
      "Ġlight": 1294,
      "Ġpretend": 1295,
      "ater": 1296,
      "Ġdance": 1297,
      "Ġclimbed": 1298,
      "where": 1299,
      "Ġlistened": 1300,
      "Ġonly": 1301,
      "ĠBobo": 1302,
      "Ġdanc": 1303,
      "Ġrunning": 1304,
      "sh": 1305,
      "Ġplan": 1306,
      "Ġgone": 1307,
      "Ġswim": 1308,
      "Suddenly": 1309,
      "Ġtrain": 1310,
      "ila": 1311,
      "ĠJane": 1312,
      "Sara": 1313,
      "ndma": 1314,
      "Ġclose": 1315,
      "She": 1316,
      "Ġsmell": 1317,
      "aby": 1318,
      "Ġamaz": 1319,
      "So": 1320,
      "Ġhold": 1321,
      "Ġblocks": 1322,
      "ĠTimmy": 1323,
      "Ġwonder": 1324,
      "Ġrepl": 1325,
      "ĠAll": 1326,
      "Ġreached": 1327,
      "Ġsees": 1328,
      "Ġbutterf": 1329,
      "Ġwall": 1330,
      "red": 1331,
      "ation": 1332,
      "Ġac": 1333,
      "oney": 1334,
      "Ġdri": 1335,
      "Ġhelping": 1336,
      "Ġpu": 1337,
      "Ġslow": 1338,
      "Ġcream": 1339,
      "af": 1340,
      "Ġcool": 1341,
      "Ġglad": 1342,
      "Ġbeen": 1343,
      "Ġant": 1344,
      "Ġless": 1345,
      "Ġgoodbye": 1346,
      "ather": 1347,
      "Ġfight": 1348,
      "Ġpushed": 1349,
      "Mia": 1350,
      "ĠO": 1351,
      "iced": 1352,
      "Ġfair": 1353,
      "Ġmust": 1354,
      "Ġhide": 1355,
      "Ġwindow": 1356,
      "Ġmoment": 1357,
      "Ġar": 1358,
      "Ġsit": 1359,
      "Ġchild": 1360,
      "Ġname": 1361,
      "Ġballoon": 1362,
      "Ġexplore": 1363,
      "Ġsnow": 1364,
      "ĠEveryone": 1365,
      "ield": 1366,
      "Ġdone": 1367,
      "Ġwished": 1368,
      "Ġste": 1369,
      "Ġbaby": 1370,
      "Ġwag": 1371,
      "Ġperf": 1372,
      "Ġstuck": 1373,
      "Ġbuy": 1374,
      "Ġmight": 1375,
      "Ġthank": 1376,
      "ash": 1377,
      "ized": 1378,
      "icy": 1379,
      "Ġtrying": 1380,
      "Ġbar": 1381,
      "Ġbit": 1382,
      "Ġcoming": 1383,
      "Ġapple": 1384,
      "Ġfall": 1385,
      "Ġquick": 1386,
      "Ġbuild": 1387,
      "In": 1388,
      "Ġscary": 1389,
      "Ġlooks": 1390,
      "Ġdoing": 1391,
      "Ġunderst": 1392,
      "Ġdin": 1393,
      "Ġdream": 1394,
      "Ġwin": 1395,
      "aisy": 1396,
      "Ġdirty": 1397,
      "Ġheld": 1398,
      "ames": 1399,
      "amp": 1400,
      "Ġmar": 1401,
      "Ġbooks": 1402,
      "Ġcount": 1403,
      "Ġleft": 1404,
      "art": 1405,
      "Ġbutterfly": 1406,
      "Ġshouted": 1407,
      "Ġreplied": 1408,
      "Ġthrough": 1409,
      "pe": 1410,
      "avy": 1411,
      "Ġreach": 1412,
      "ott": 1413,
      "Ġtiny": 1414,
      "Ġdro": 1415,
      "key": 1416,
      "Ġwhy": 1417,
      "Ġair": 1418,
      "Ġbran": 1419,
      "Ġland": 1420,
      "Ġthree": 1421,
      "ix": 1422,
      "Ġspl": 1423,
      "Ġpulled": 1424,
      "Ġtreat": 1425,
      "Ġgrow": 1426,
      "Ġwise": 1427,
      "Ġbrother": 1428,
      "Ġsure": 1429,
      "Ġwoods": 1430,
      "Ġmat": 1431,
      "'re": 1432,
      "Ġchair": 1433,
      "ins": 1434,
      "ely": 1435,
      "ask": 1436,
      "Ġseen": 1437,
      "Ġpink": 1438,
      "Ġowl": 1439,
      "Ġcre": 1440,
      "Ġclapped": 1441,
      "Ġplant": 1442,
      "Ġcup": 1443,
      "Ġsometimes": 1444,
      "Ġcont": 1445,
      "Ġfill": 1446,
      "andy": 1447,
      "Ġcloud": 1448,
      "oup": 1449,
      "Ġjob": 1450,
      "outh": 1451,
      "ton": 1452,
      "Ġcolorful": 1453,
      "Ġnest": 1454,
      "Ġremembered": 1455,
      "Ġbigger": 1456,
      "Ġmouth": 1457,
      "ph": 1458,
      "ud": 1459,
      "Okay": 1460,
      "Ġjoin": 1461,
      "Ġlesson": 1462,
      "ĠThere": 1463,
      "room": 1464,
      "This": 1465,
      "Ġwaved": 1466,
      "Ġgrabbed": 1467,
      "uddy": 1468,
      "Ġstayed": 1469,
      "Oh": 1470,
      "Ġset": 1471,
      "Ġpaint": 1472,
      "Ġclot": 1473,
      "ower": 1474,
      "orm": 1475,
      "Ġclothes": 1476,
      "ds": 1477,
      "ĠAfter": 1478,
      "cle": 1479,
      "Ġwaited": 1480,
      "Ġquickly": 1481,
      "Ġbroke": 1482,
      "ucky": 1483,
      "Ġgames": 1484,
      "Ġcast": 1485,
      "Ġblew": 1486,
      "Ġgent": 1487,
      "ĠMommy": 1488,
      "ries": 1489,
      "Jo": 1490,
      "Ġnoticed": 1491,
      "Ġenjoyed": 1492,
      "Ġlikes": 1493,
      "Ġpictures": 1494,
      "der": 1495,
      "Ġsea": 1496,
      "Ġheavy": 1497,
      "Ġcomp": 1498,
      "Ġalone": 1499,
      "Ġgif": 1500,
      "asure": 1501,
      "Ġanything": 1502,
      "Ġmus": 1503,
      "Ġspot": 1504,
      "Ġmiss": 1505,
      "Ġhopped": 1506,
      "Ġturns": 1507,
      "Ġworld": 1508,
      "Ġyear": 1509,
      "Ġpat": 1510,
      "Ġbott": 1511,
      "Ġpot": 1512,
      "Ġpen": 1513,
      "lc": 1514,
      "Her": 1515,
      "Ġmix": 1516,
      "Ġarm": 1517,
      "Ġbike": 1518,
      "Ġtight": 1519,
      "Ġeverywhere": 1520,
      "Ġwon": 1521,
      "Lucy": 1522,
      "Ġtower": 1523,
      "Ġthrew": 1524,
      "Ġhimself": 1525,
      "Ġfollowed": 1526,
      "man": 1527,
      "ĠBuddy": 1528,
      "less": 1529,
      "Ġride": 1530,
      "Ġswam": 1531,
      "row": 1532,
      "Ġje": 1533,
      "ctor": 1534,
      "ape": 1535,
      "Ġkey": 1536,
      "Bob": 1537,
      "cess": 1538,
      "\".": 1539,
      "ee": 1540,
      "Ġwhite": 1541,
      "Ġmakes": 1542,
      "Ġwrong": 1543,
      "arent": 1544,
      "ĠDaisy": 1545,
      "ĠWhat": 1546,
      "Ġbreak": 1547,
      "ner": 1548,
      "Do": 1549,
      "Ġblack": 1550,
      "Spot": 1551,
      "Ġdeep": 1552,
      "thy": 1553,
      "Ġmusic": 1554,
      "Ġpol": 1555,
      "Ġem": 1556,
      "Ġdelic": 1557,
      "ued": 1558,
      "Ġparent": 1559,
      "Ġbee": 1560,
      "ves": 1561,
      "Ġforgot": 1562,
      "Ġcastle": 1563,
      "olly": 1564,
      "ance": 1565,
      "iet": 1566,
      "Ġwear": 1567,
      "ister": 1568,
      "os": 1569,
      "Ġhit": 1570,
      "up": 1571,
      "oun": 1572,
      "Ġve": 1573,
      "Ġquiet": 1574,
      "Ġvis": 1575,
      "Ġround": 1576,
      "ang": 1577,
      "ts": 1578,
      "Ġdanced": 1579,
      "ully": 1580,
      "Ġwants": 1581,
      "Ġleaf": 1582,
      "Ġnap": 1583,
      "Ġmonster": 1584,
      "ĠJohn": 1585,
      "Ġunderstand": 1586,
      "rot": 1587,
      "ren": 1588,
      "Ġbowl": 1589,
      "Ġbor": 1590,
      "itten": 1591,
      "Ġtalked": 1592,
      "Ġfaster": 1593,
      "Ġdry": 1594,
      "Ġcookies": 1595,
      "Ġsign": 1596,
      "Ġbrought": 1597,
      "fully": 1598,
      "cy": 1599,
      "Ġleg": 1600,
      "ross": 1601,
      "ĠĠĠ": 1602,
      "Ġside": 1603,
      "Ġres": 1604,
      "Ġmum": 1605,
      "zz": 1606,
      "From": 1607,
      "Ġbutton": 1608,
      "ĠInside": 1609,
      "Ġsmart": 1610,
      "ipp": 1611,
      "Ġsec": 1612,
      "Ġpoin": 1613,
      "Ġrel": 1614,
      "Ġwell": 1615,
      "Ġrocks": 1616,
      "Ġsomeone": 1617,
      "His": 1618,
      "ence": 1619,
      "Ġsharing": 1620,
      "Ġele": 1621,
      "Ġfox": 1622,
      "Ġhappen": 1623,
      "Ġbranch": 1624,
      "ĠLila": 1625,
      "Ġfinished": 1626,
      "Ġreally": 1627,
      "ards": 1628,
      "Ġdinner": 1629,
      "Ġsister": 1630,
      "Ġfield": 1631,
      "eddy": 1632,
      "Ġcontin": 1633,
      "ĠTo": 1634,
      "Ġflying": 1635,
      "Ġworried": 1636,
      "Ġvisit": 1637,
      "Ġel": 1638,
      "Ġbeach": 1639,
      "Ġque": 1640,
      "ĠMaybe": 1641,
      "Ġsecret": 1642,
      "Ġking": 1643,
      "ĠSarah": 1644,
      "ated": 1645,
      "John": 1646,
      "gy": 1647,
      "Ġtoday": 1648,
      "Ġperfect": 1649,
      "Ġriver": 1650,
      "Ġeverything": 1651,
      "Ġshin": 1652,
      "Ġgu": 1653,
      "Ġsilly": 1654,
      "Ġdanger": 1655,
      "Ġchildren": 1656,
      "ĠJoe": 1657,
      "Ġelse": 1658,
      "ĠSoon": 1659,
      "Ġfilled": 1660,
      "Ġfur": 1661,
      "Ġsmiles": 1662,
      "ĠAt": 1663,
      "Ġwelc": 1664,
      "ĠEm": 1665,
      "Ġgi": 1666,
      "Ġwish": 1667,
      "ead": 1668,
      "While": 1669,
      "Ġsang": 1670,
      "Ġsnack": 1671,
      "ze": 1672,
      "Ġpudd": 1673,
      "Ġeating": 1674,
      "Ġpieces": 1675,
      "Ġrealized": 1676,
      "Ġpromised": 1677,
      "Ġspr": 1678,
      "Ġpig": 1679,
      "Ġfree": 1680,
      "ord": 1681,
      "Ġcontinued": 1682,
      "Ġbite": 1683,
      "Ġparents": 1684,
      "Ġear": 1685,
      "itting": 1686,
      "Ġcarefully": 1687,
      "stead": 1688,
      "Just": 1689,
      "Ġdrag": 1690,
      "Ġjar": 1691,
      "Ġcow": 1692,
      "Maybe": 1693,
      "Amy": 1694,
      "Ġblank": 1695,
      "Ġ-": 1696,
      "set": 1697,
      "Ġorange": 1698,
      "Ġmud": 1699,
      "ire": 1700,
      "ses": 1701,
      "Ġcrying": 1702,
      "Ġenough": 1703,
      "cket": 1704,
      "Ġju": 1705,
      "Ġblanket": 1706,
      "Ġrolled": 1707,
      "bble": 1708,
      "ale": 1709,
      "Ġsoup": 1710,
      "ich": 1711,
      "Ġpurp": 1712,
      "Ġsail": 1713,
      "imi": 1714,
      "Ġyes": 1715,
      "ons": 1716,
      "Ġthrow": 1717,
      "Ġdrink": 1718,
      "Ġsnake": 1719,
      "Ġboun": 1720,
      "Ġpet": 1721,
      "Ġfairy": 1722,
      "Ġcrab": 1723,
      "Ġlaughing": 1724,
      "Ġwithout": 1725,
      "Ġwords": 1726,
      "Ġamazing": 1727,
      "Ġbath": 1728,
      "ĠZ": 1729,
      "Ġpurple": 1730,
      "Ġatt": 1731,
      "used": 1732,
      "Ġbottle": 1733,
      "Ġgift": 1734,
      "ĠBilly": 1735,
      "Fin": 1736,
      "Ġgrandma": 1737,
      "Ġpast": 1738,
      "iver": 1739,
      "Ġmoney": 1740,
      "me": 1741,
      "fort": 1742,
      "Ġmail": 1743,
      "Ġbarked": 1744,
      "ĠGra": 1745,
      "Ġwagged": 1746,
      "Ġmonkey": 1747,
      "chool": 1748,
      "unch": 1749,
      "Ġmoved": 1750,
      "Ġbrown": 1751,
      "ises": 1752,
      "Ġdoctor": 1753,
      "Ġwhe": 1754,
      "Ġasks": 1755,
      "Ġgetting": 1756,
      "Ġclosed": 1757,
      "ol": 1758,
      "gg": 1759,
      "ĠCh": 1760,
      "vel": 1761,
      "Ġwelcome": 1762,
      "ass": 1763,
      "Ġcandy": 1764,
      "Ġowner": 1765,
      "Ġschool": 1766,
      "Ġmorning": 1767,
      "Ġlon": 1768,
      "Ġmother": 1769,
      "Ġhigher": 1770,
      "Ġsitting": 1771,
      ".âĢĿ": 1772,
      "ible": 1773,
      "Ġsmo": 1774,
      "Ġpre": 1775,
      "Ġtreasure": 1776,
      "!âĢĿ": 1777,
      "ased": 1778,
      "Ġdangerous": 1779,
      "Ġlonely": 1780,
      "ere": 1781,
      "ush": 1782,
      "Ġliving": 1783,
      "Ġapples": 1784,
      "ey": 1785,
      "Ġshop": 1786,
      "Ġstrange": 1787,
      "Ġcreat": 1788,
      "Ġshining": 1789,
      "Ġroad": 1790,
      "ĠTommy": 1791,
      "Ġpaw": 1792,
      "Ġra": 1793,
      "una": 1794,
      "Ġshoes": 1795,
      "Ġpass": 1796,
      "Ġstre": 1797,
      "est": 1798,
      "Ġtalking": 1799,
      "app": 1800,
      "althy": 1801,
      "Ġcaught": 1802,
      "Ġegg": 1803,
      "Ġruns": 1804,
      "Ġlake": 1805,
      "Ġletter": 1806,
      "Ġbuck": 1807,
      "board": 1808,
      "Ġwings": 1809,
      "Ġchee": 1810,
      "fish": 1811,
      "Ġfan": 1812,
      "Ġmad": 1813,
      "asket": 1814,
      "Ġbasket": 1815,
      "Ġdragon": 1816,
      "Ġsame": 1817,
      "cks": 1818,
      "Ġstand": 1819,
      "Mommy": 1820,
      "Ġstone": 1821,
      "Ġthinks": 1822,
      "Ġdelicious": 1823,
      "Ġtom": 1824,
      "Ġpuddle": 1825,
      "Ġnose": 1826,
      "ĠMimi": 1827,
      "ĠBl": 1828,
      "Ġbelie": 1829,
      "Ġfarmer": 1830,
      "Ġyears": 1831,
      "Ġbat": 1832,
      "Ġteddy": 1833,
      "Ġsear": 1834,
      "isk": 1835,
      "ches": 1836,
      "itch": 1837,
      "Ġstart": 1838,
      "Ġmine": 1839,
      "igh": 1840,
      "Ġcoat": 1841,
      "Ġdays": 1842,
      "Ġfit": 1843,
      "Ġbring": 1844,
      "Ġgentle": 1845,
      "Ġwhist": 1846,
      "Ġfinally": 1847,
      "ined": 1848,
      "Ġcray": 1849,
      "igg": 1850,
      "Ġkite": 1851,
      "Ġscream": 1852,
      "sw": 1853,
      "arm": 1854,
      "Ġpill": 1855,
      "phant": 1856,
      "Ġcho": 1857,
      "Ġsinging": 1858,
      "Ġph": 1859,
      "Ġvill": 1860,
      "ella": 1861,
      "Ġtasty": 1862,
      "Ġben": 1863,
      "Ġshell": 1864,
      "Ġtrou": 1865,
      "Ġherself": 1866,
      "Ġhoped": 1867,
      "sy": 1868,
      "Ġwore": 1869,
      "Ġswings": 1870,
      "Ġansw": 1871,
      "Ġhor": 1872,
      "sc": 1873,
      "lem": 1874,
      "Ġpush": 1875,
      "Please": 1876,
      "Ġbelong": 1877,
      "ier": 1878,
      "ract": 1879,
      "Ġbush": 1880,
      "iskers": 1881,
      "Ġcarrot": 1882,
      "Ġarri": 1883,
      "aughty": 1884,
      "Ġcoll": 1885,
      "Ġteach": 1886,
      "bow": 1887,
      "Ġdropped": 1888,
      "Ġnaughty": 1889,
      "Ġelephant": 1890,
      "Ġshap": 1891,
      "Ġteac": 1892,
      "Ġwoke": 1893,
      "emy": 1894,
      "Ġpile": 1895,
      "ude": 1896,
      "Ġmin": 1897,
      "ball": 1898,
      "Ġhiding": 1899,
      "Ġpers": 1900,
      "isa": 1901,
      "Ġcour": 1902,
      "Ġtouc": 1903,
      "erry": 1904,
      "llie": 1905,
      "'ll": 1906,
      "Ġpuppy": 1907,
      "Ġseem": 1908,
      "col": 1909,
      "ama": 1910,
      "Ġlunch": 1911,
      "Ġtwins": 1912,
      "Ġsack": 1913,
      "Ġbow": 1914,
      "Ġrob": 1915,
      "Ġrub": 1916,
      "Ġcourse": 1917,
      "irth": 1918,
      "ĠJen": 1919,
      "Ġshapes": 1920,
      "Ġcheered": 1921,
      "Ġgrew": 1922,
      "irthday": 1923,
      "Ġrope": 1924,
      "fused": 1925,
      "Ġvillage": 1926,
      "ipped": 1927,
      "Ġjuice": 1928,
      "Ġspin": 1929,
      "Ġrainbow": 1930,
      "OK": 1931,
      "Ġshook": 1932,
      "Jack": 1933,
      "idge": 1934,
      "Ġstreet": 1935,
      "Ġspoon": 1936,
      "Ġbench": 1937,
      "Ġfence": 1938,
      "ĠFred": 1939,
      "Ġprob": 1940,
      "Ġnut": 1941,
      "Ġcute": 1942,
      "Ġcheese": 1943,
      "Ġdes": 1944,
      "Ġtouched": 1945,
      "Ġinc": 1946,
      "Ġjoy": 1947,
      "Ġwar": 1948,
      "Ġseed": 1949,
      "ĠWhiskers": 1950,
      "Ġmost": 1951,
      "Ġcorn": 1952,
      "Ġteacher": 1953,
      "Ġarrived": 1954,
      "Ġnum": 1955,
      "eb": 1956,
      "Ġable": 1957,
      "Ġeas": 1958,
      "Ġfew": 1959,
      "br": 1960,
      "Ġforever": 1961,
      "Good": 1962,
      "Ġbell": 1963,
      "Ġcarry": 1964,
      "Ġplane": 1965,
      "ĠBlue": 1966,
      "eter": 1967,
      "lla": 1968,
      "Ġproblem": 1969,
      "Ġsounds": 1970,
      "Ġbirthday": 1971,
      "Ġspo": 1972,
      "Ġpower": 1973,
      "Ġbugs": 1974,
      "Ġwra": 1975,
      "ilk": 1976,
      "Ġwonderful": 1977,
      "Ġdolls": 1978,
      "Ġrec": 1979,
      "Ġbusy": 1980,
      "ato": 1981,
      "Ġpromise": 1982,
      "irp": 1983,
      "ĠThank": 1984,
      "Ġfeels": 1985,
      "ian": 1986,
      "ĠEmma": 1987,
      "Ġbread": 1988,
      "Finally": 1989,
      "Ġmilk": 1990,
      "Ġneck": 1991,
      "Ġrobot": 1992,
      "irt": 1993,
      "Ġshy": 1994,
      "Ġkiss": 1995,
      "ountain": 1996,
      "Ġheart": 1997,
      "Ġband": 1998,
      "Ġcave": 1999,
      "Ġpocket": 2000,
      "ator": 2001,
      "Ġpop": 2002,
      "Ġhelpful": 2003,
      "gly": 2004,
      "Ġslowly": 2005,
      "Ġbelieve": 2006,
      "Ġshake": 2007,
      "umpy": 2008,
      "eared": 2009,
      "Ġpatient": 2010,
      "read": 2011,
      "ĠĠĠĠĠĠĠ": 2012,
      "arp": 2013,
      "Ġlive": 2014,
      "ove": 2015,
      "Ġstorm": 2016,
      "ost": 2017,
      "Ġugly": 2018,
      "Ġholding": 2019,
      "Ġtowards": 2020,
      "adow": 2021,
      "Ġupset": 2022,
      "Ġshr": 2023,
      "Ġcover": 2024,
      "ider": 2025,
      "Ġturt": 2026,
      "Ġkitten": 2027,
      "Ġsuc": 2028,
      "Ġsharp": 2029,
      "Ġdisapp": 2030,
      "Ġstories": 2031,
      "ĠLe": 2032,
      "ĠRemy": 2033,
      "Ġhoney": 2034,
      "ĠBella": 2035,
      "Ġdist": 2036,
      "Ġballs": 2037,
      "Ġnoises": 2038,
      "Ġcir": 2039,
      "Ġlate": 2040,
      "Ġspark": 2041,
      "Ġgray": 2042,
      "Ġdirt": 2043,
      "oggy": 2044,
      "Ġdriver": 2045,
      "Ġseat": 2046,
      "epend": 2047,
      "Ġbucket": 2048,
      "Ġmeet": 2049,
      "Ġyoung": 2050,
      "unt": 2051,
      "ert": 2052,
      "Ġamazed": 2053,
      "alm": 2054,
      "Ġturtle": 2055,
      "Ġtreats": 2056,
      "Ġmagical": 2057,
      "ling": 2058,
      "Ġglow": 2059,
      "Ġzoom": 2060,
      "Ġlem": 2061,
      "Ġseek": 2062,
      "fortable": 2063,
      "Ġtrip": 2064,
      "Ġsandw": 2065,
      "Ġfold": 2066,
      "Ġmark": 2067,
      "Ġmist": 2068,
      "ont": 2069,
      "ourn": 2070,
      "not": 2071,
      "Ġsplas": 2072,
      "Ġpart": 2073,
      "Ġjourn": 2074,
      "ity": 2075,
      "Ġmach": 2076,
      "ens": 2077,
      "Ġpuzz": 2078,
      "Ġval": 2079,
      "pping": 2080,
      "Ġstring": 2081,
      "Ġwild": 2082,
      "Ġorgan": 2083,
      "oose": 2084,
      "Ġhorse": 2085,
      "Ġprincess": 2086,
      "ize": 2087,
      "Ġcookie": 2088,
      "Ġinstead": 2089,
      "Ġser": 2090,
      "ĠMark": 2091,
      "Sure": 2092,
      "Ġtaking": 2093,
      "Ġhugs": 2094,
      "ung": 2095,
      "Be": 2096,
      "Ġwheel": 2097,
      "ors": 2098,
      "Ġcloth": 2099,
      "Ġsug": 2100,
      "ĠLisa": 2101,
      "bled": 2102,
      "Ġnet": 2103,
      "Of": 2104,
      "Ġpath": 2105,
      "Ġdrove": 2106,
      "iling": 2107,
      "Ġrude": 2108,
      "Ġinv": 2109,
      "Ġhuge": 2110,
      "Ġcoin": 2111,
      "Ġstars": 2112,
      "Ġfighting": 2113,
      "ĠJim": 2114,
      "port": 2115,
      "Ġspicy": 2116,
      "Ġlucky": 2117,
      "pper": 2118,
      "Ġbone": 2119,
      "Ġcraw": 2120,
      "Hey": 2121,
      "St": 2122,
      "ĠGrandma": 2123,
      "Ġca": 2124,
      "Ġcard": 2125,
      "Ġforget": 2126,
      "Ġdi": 2127,
      "Ġsal": 2128,
      "Ġcannot": 2129,
      "aur": 2130,
      "ĠFinally": 2131,
      "Ġwhistle": 2132,
      "Ġsick": 2133,
      "Ġcou": 2134,
      "ular": 2135,
      "Ġwide": 2136,
      "Lila": 2137,
      "Ġfoot": 2138,
      "Ġbubble": 2139,
      "Ġspider": 2140,
      "Ġsongs": 2141,
      "Ġsnowman": 2142,
      "Ġlife": 2143,
      "Ġpillow": 2144,
      "ĠJust": 2145,
      "Later": 2146,
      "Ġfixed": 2147,
      "ĠAnn": 2148,
      "Ġlast": 2149,
      "oph": 2150,
      "Ġgiant": 2151,
      "ions": 2152,
      "rill": 2153,
      "ery": 2154,
      "Ġcomes": 2155,
      "Ġboss": 2156,
      "Ġcart": 2157,
      "Ġjoke": 2158,
      "den": 2159,
      "ĠN": 2160,
      "Ġmoon": 2161,
      "Ġgrumpy": 2162,
      "Ġtaste": 2163,
      "Ġmachine": 2164,
      "Ġwave": 2165,
      "Ġdrive": 2166,
      "Ġthin": 2167,
      "Ġchange": 2168,
      "To": 2169,
      "Ġash": 2170,
      "ĠOn": 2171,
      "Ġpeace": 2172,
      "ĠLeo": 2173,
      "Ġwrite": 2174,
      "lower": 2175,
      "Ġsel": 2176,
      "Ġsour": 2177,
      "Ġdaddy": 2178,
      "Ġru": 2179,
      "box": 2180,
      "Ġhidden": 2181,
      "Ġshelf": 2182,
      "erest": 2183,
      "Ġsuddenly": 2184,
      "Ġwasn": 2185,
      "Ġlanded": 2186,
      "Ġconfused": 2187,
      "Ġworm": 2188,
      "Ġring": 2189,
      "ope": 2190,
      "oop": 2191,
      "Ġinterest": 2192,
      "Ġchased": 2193,
      "Ġfle": 2194,
      "Ġrad": 2195,
      "Ġfruits": 2196,
      "Ġmyster": 2197,
      "Ġlay": 2198,
      "to": 2199,
      "Ġbark": 2200,
      "Ġsmooth": 2201,
      "Ġent": 2202,
      "Ġexp": 2203,
      "Ġtakes": 2204,
      "ĠCome": 2205,
      "Ġadventures": 2206,
      "Ġstepped": 2207,
      "Ġoven": 2208,
      "Ġmissed": 2209,
      "ever": 2210,
      "kin": 2211,
      "Ġselfish": 2212,
      "Ġacross": 2213,
      "Ġsheep": 2214,
      "ment": 2215,
      "Ġmessy": 2216,
      "Ġstep": 2217,
      "let": 2218,
      "ose": 2219,
      "Ġlater": 2220,
      "Ġret": 2221,
      "Ġce": 2222,
      "elly": 2223,
      "ife": 2224,
      "Ġfil": 2225,
      "Ġsticks": 2226,
      "pect": 2227,
      "Ġtie": 2228,
      "Ġbought": 2229,
      "ĠLuna": 2230,
      "Ġban": 2231,
      "Ġtea": 2232,
      "Ġdrew": 2233,
      "irpy": 2234,
      "pty": 2235,
      "?âĢĿ": 2236,
      "Ġreturn": 2237,
      "Ġwash": 2238,
      "Ġbeak": 2239,
      "Ġpour": 2240,
      "Ġjog": 2241,
      "Ġgrate": 2242,
      "Ġspe": 2243,
      "upp": 2244,
      "Ġducks": 2245,
      "Ġempty": 2246,
      "Ġlegs": 2247,
      "mer": 2248,
      "ugg": 2249,
      "Ġprot": 2250,
      "eth": 2251,
      "Ġhope": 2252,
      "ult": 2253,
      "Ġpan": 2254,
      "Ġslid": 2255,
      "Ġfeather": 2256,
      "amed": 2257,
      "ars": 2258,
      "Ġphone": 2259,
      "Ġact": 2260,
      "Ġsleepy": 2261,
      "Ġzoo": 2262,
      "Ġdrum": 2263,
      "Ġgrateful": 2264,
      "Ġsave": 2265,
      "Ġfing": 2266,
      "Ġlemon": 2267,
      "ĠCat": 2268,
      "Ġsmelly": 2269,
      "ĠMolly": 2270,
      "Ġclever": 2271,
      "Ġimag": 2272,
      "Ġmed": 2273,
      "Ġsplash": 2274,
      "Ġinteresting": 2275,
      "Ġsupp": 2276,
      "Ġchick": 2277,
      "Ġcalm": 2278,
      "Ġline": 2279,
      "ĠJill": 2280,
      "Ġwatching": 2281,
      "Soon": 2282,
      "Ġign": 2283,
      "izzy": 2284,
      "izz": 2285,
      "Ġbanan": 2286,
      "Ġplate": 2287,
      "Ġclouds": 2288,
      "yard": 2289,
      "sp": 2290,
      "Ġfaces": 2291,
      "Ġthough": 2292,
      "Ġba": 2293,
      "wel": 2294,
      "Ġwolf": 2295,
      "Ġdogs": 2296,
      "Ġseemed": 2297,
      "Ġbackyard": 2298,
      "Ġspray": 2299,
      "Ġwhole": 2300,
      "Come": 2301,
      "Ġfancy": 2302,
      "ward": 2303,
      "Ġmot": 2304,
      "ĠDaddy": 2305,
      "llo": 2306,
      "Ġquest": 2307,
      "erly": 2308,
      "bar": 2309,
      "oc": 2310,
      "Ġrocket": 2311,
      "Ġhealthy": 2312,
      "Ġarms": 2313,
      "Ġalong": 2314,
      "Ġexplain": 2315,
      "Ġfinish": 2316,
      "Ġpuzzle": 2317,
      "Ġeasy": 2318,
      "Ġsuch": 2319,
      "Ġpract": 2320,
      "Ġjewel": 2321,
      "Ġav": 2322,
      "Ġtrouble": 2323,
      "Ġjelly": 2324,
      "Ġpack": 2325,
      "Ġfront": 2326,
      "ually": 2327,
      "Ġtid": 2328,
      "ĠChirpy": 2329,
      "Ġfake": 2330,
      "Ġcrayons": 2331,
      "Ġmaybe": 2332,
      "Ġwondered": 2333,
      "ĠBe": 2334,
      "Ġlonger": 2335,
      "onest": 2336,
      "Ġship": 2337,
      "Ġnothing": 2338,
      "Ġscar": 2339,
      "iger": 2340,
      "Ġpool": 2341,
      "Ġworking": 2342,
      "Ġanyone": 2343,
      "Ġpri": 2344,
      "Ġrod": 2345,
      "Ġgives": 2346,
      "ĠJerry": 2347,
      "irr": 2348,
      "iting": 2349,
      "ocked": 2350,
      "Ġsaved": 2351,
      "ĠBunny": 2352,
      "Ġbossy": 2353,
      "ĠDoggy": 2354,
      "arge": 2355,
      "Ġsmelled": 2356,
      "Ġclass": 2357,
      "Ġpin": 2358,
      "ork": 2359,
      "Ġhonest": 2360,
      "Ġneigh": 2361,
      "rass": 2362,
      "barrass": 2363,
      "Ġlift": 2364,
      "Ġforgive": 2365,
      "Ġembarrass": 2366,
      "Ġvan": 2367,
      "Ġtidy": 2368,
      "Ġweak": 2369,
      "ĠWith": 2370,
      "Ġputs": 2371,
      "urse": 2372,
      "unk": 2373,
      "Ġ'": 2374,
      "Ġshirt": 2375,
      "Ġmind": 2376,
      "Ġkick": 2377,
      "ĠOllie": 2378,
      "we": 2379,
      "Ġsol": 2380,
      "ĠMomo": 2381,
      "Ġplants": 2382,
      "Ġneighb": 2383,
      "ming": 2384,
      "Ġcozy": 2385,
      "Ġgently": 2386,
      "orrow": 2387,
      "Ġexplor": 2388,
      "ĠSt": 2389,
      "Ġmistake": 2390,
      "erv": 2391,
      "Ġlock": 2392,
      "oomy": 2393,
      "Ġlad": 2394,
      "Ġyog": 2395,
      "Ġonto": 2396,
      "Ġcross": 2397,
      "Ġpointed": 2398,
      "Ġwaiting": 2399,
      "Ġaf": 2400,
      "Ġjumping": 2401,
      "Ġstood": 2402,
      "Ġprince": 2403,
      "Ġcheer": 2404,
      "Ġqueen": 2405,
      "ĠWhy": 2406,
      "And": 2407,
      "ĠMary": 2408,
      "Ġlarge": 2409,
      "ĠMy": 2410,
      "Ġwing": 2411,
      "ones": 2412,
      "Ġperson": 2413,
      "Ġsur": 2414,
      "Ġlovely": 2415,
      "Ġchew": 2416,
      "ener": 2417,
      "Ġstret": 2418,
      "Ġbal": 2419,
      "Ġcouch": 2420,
      "aughter": 2421,
      "ĠTheir": 2422,
      "Ġdeer": 2423,
      "era": 2424,
      "Ġplaces": 2425,
      "Ġladder": 2426,
      "ek": 2427,
      "com": 2428,
      "Ġdish": 2429,
      "Ġbuilding": 2430,
      "raid": 2431,
      "Ġants": 2432,
      "Ġcleaned": 2433,
      "Ġafraid": 2434,
      "Ġtomorrow": 2435,
      "Sally": 2436,
      "Ġmatch": 2437,
      "ned": 2438,
      "Ġsandwich": 2439,
      "Ġsearch": 2440,
      "Ġpretended": 2441,
      "uce": 2442,
      "Ġbounce": 2443,
      "Ġtrue": 2444,
      "Ġrich": 2445,
      "gest": 2446,
      "Ġwip": 2447,
      "My": 2448,
      "Ġhum": 2449,
      "Ġnumber": 2450,
      "aced": 2451,
      "Ġgather": 2452,
      "Ġpizz": 2453,
      "oman": 2454,
      "Ġboring": 2455,
      "ĠSomet": 2456,
      "Kitty": 2457,
      "Ġteeth": 2458,
      "Ġdaughter": 2459,
      "Ġwoman": 2460,
      "Ġgoes": 2461,
      "Ġscarf": 2462,
      "ĠTogether": 2463,
      "Ġstra": 2464,
      "Ġlaw": 2465,
      "Ġswimming": 2466,
      "Ġfurry": 2467,
      "Ġsplashed": 2468,
      "Ġscreamed": 2469,
      "Ġloves": 2470,
      "Ġlazy": 2471,
      "Ġeag": 2472,
      "Ġanswer": 2473,
      "ĠIf": 2474,
      "Ġashamed": 2475,
      "aw": 2476,
      "Ġtest": 2477,
      "Ġpizza": 2478,
      "Ġflag": 2479,
      "Ġappeared": 2480,
      "Ġnearby": 2481,
      "Ġfear": 2482,
      "Ġpowerful": 2483,
      "ĠSp": 2484,
      "Ġhang": 2485,
      "Ġclown": 2486,
      "Ġtool": 2487,
      "Ġsuccess": 2488,
      "Ġchase": 2489,
      "Ġwand": 2490,
      "ser": 2491,
      "ĠTV": 2492,
      "Ġmotor": 2493,
      "Ġchocol": 2494,
      "pa": 2495,
      "Ġtrust": 2496,
      "Ġcreative": 2497,
      "Ġwearing": 2498,
      "Ġmatter": 2499,
      "Ġnoisy": 2500,
      "Ġdig": 2501,
      "elp": 2502,
      "Ġgener": 2503,
      "Ġhello": 2504,
      "Ġsaf": 2505,
      "ervous": 2506,
      "ĠBird": 2507,
      "Ġnervous": 2508,
      "ado": 2509,
      "icked": 2510,
      "Ġsmiling": 2511,
      "Ġmap": 2512,
      "oppy": 2513,
      "Ġsold": 2514,
      "osaur": 2515,
      "Ġcircle": 2516,
      "Ġreg": 2517,
      "Ġdrank": 2518,
      "Ġtries": 2519,
      "Ġchocolate": 2520,
      "ĠPlease": 2521,
      "ute": 2522,
      "Ġimpress": 2523,
      "Ġdinosaur": 2524,
      "Ġpolite": 2525,
      "Ġmirr": 2526,
      "Ġknee": 2527,
      "Ġprotect": 2528,
      "ĠBobby": 2529,
      "Ġshadow": 2530,
      "ĠTiny": 2531,
      "Ġgold": 2532,
      "ĠGo": 2533,
      "Ġrare": 2534,
      "Ġcand": 2535,
      "Ġap": 2536,
      "Ġmod": 2537,
      "Stop": 2538,
      "Ġcarried": 2539,
      "ensive": 2540,
      "Ġballoons": 2541,
      "Ġmirror": 2542,
      "Ġthese": 2543,
      "ĠDon": 2544,
      "Ġgun": 2545,
      "Ġexpensive": 2546,
      "ina": 2547,
      "rag": 2548,
      "Ġbald": 2549,
      "iff": 2550,
      "Ġnote": 2551,
      "Ġmysterious": 2552,
      "Ġpump": 2553,
      "Ġhero": 2554,
      "Ġrespect": 2555,
      "Ġmarch": 2556,
      "Ġicy": 2557,
      "Ġhar": 2558,
      "Ġgate": 2559,
      "Ġweird": 2560,
      "arl": 2561,
      "Ġcri": 2562,
      "Ġsnee": 2563,
      "Ġsoap": 2564,
      "ote": 2565,
      "issors": 2566,
      "Help": 2567,
      "Ġpoor": 2568,
      "Ġtowel": 2569,
      "ual": 2570,
      "Ġlog": 2571,
      "Ġwhale": 2572,
      "Ġtape": 2573,
      "Ġpres": 2574,
      "itter": 2575,
      "Ġfeet": 2576,
      "Ġdizzy": 2577,
      "Ġdisco": 2578,
      "ndpa": 2579,
      "ĠBenny": 2580,
      "Ġgenerous": 2581,
      "nic": 2582,
      "ĠU": 2583,
      "Ġlead": 2584,
      "ventually": 2585,
      "Ġmic": 2586,
      "Ġboot": 2587,
      "Ġsque": 2588,
      "mb": 2589,
      "Ġjourney": 2590,
      "Ġpicnic": 2591,
      "isp": 2592,
      "Ġsugar": 2593,
      "Ġembarrassed": 2594,
      "scape": 2595,
      "ĠHow": 2596,
      "Ġtent": 2597,
      "Ġpeaceful": 2598,
      "Ġscissors": 2599,
      "Ġfat": 2600,
      "Ġ3": 2601,
      "ĠBear": 2602,
      "Ġyelled": 2603,
      "Ġtick": 2604,
      "Ġmel": 2605,
      "Ġbrush": 2606,
      "Tommy": 2607,
      "Ġbridge": 2608,
      "Ġtasted": 2609,
      "Ġglue": 2610,
      "ness": 2611,
      "Ġdancing": 2612,
      "Ġhur": 2613,
      "Ġcap": 2614,
      "imp": 2615,
      "Ġrough": 2616,
      "Ġclap": 2617,
      "Ġdecor": 2618,
      "Ġcloset": 2619,
      "Ġstir": 2620,
      "Ġcrown": 2621,
      "owed": 2622,
      "any": 2623,
      "Ġprint": 2624,
      "ĠSometimes": 2625,
      "airs": 2626,
      "ume": 2627,
      "Ġword": 2628,
      "Ġlamp": 2629,
      "lebr": 2630,
      "Ġeld": 2631,
      "lves": 2632,
      "aad": 2633,
      "Ġscare": 2634,
      "aadin": 2635,
      "Ġvase": 2636,
      "Ġrelie": 2637,
      "Ġbean": 2638,
      "Ġcelebr": 2639,
      "Ġtele": 2640,
      "Ġpay": 2641,
      "Ġgigg": 2642,
      "Ġwhisp": 2643,
      "ubb": 2644,
      "ĠDucky": 2645,
      "Ġblow": 2646,
      "Ġpainted": 2647,
      "Ġsco": 2648,
      "Ġadd": 2649,
      "Ġspread": 2650,
      "Ġwis": 2651,
      "Ġber": 2652,
      "Ġcage": 2653,
      "Ġmixed": 2654,
      ");": 2655,
      "Ġnorm": 2656,
      "Ġbake": 2657,
      "Ġwouldn": 2658,
      "Ġadm": 2659,
      "Ġberries": 2660,
      "rob": 2661,
      "Ġwhich": 2662,
      "getable": 2663,
      "Ġbecome": 2664,
      "ced": 2665,
      "Ġmountain": 2666,
      "Ġfamous": 2667,
      "asp": 2668,
      "Ġdrawing": 2669,
      "Ġknocked": 2670,
      "Ġob": 2671,
      "Ġwrap": 2672,
      "Ġvegetable": 2673,
      "Ġnormal": 2674,
      "Ġkicked": 2675,
      "ustr": 2676,
      "Ġgroup": 2677,
      "ĠBu": 2678,
      "Ġshark": 2679,
      "Ġincred": 2680,
      "Ġlose": 2681,
      "Ġignor": 2682,
      "Ġteam": 2683,
      "Ġclear": 2684,
      "Ġglass": 2685,
      "Ġthick": 2686,
      "Ġelderly": 2687,
      "Ġfine": 2688,
      "Ġclock": 2689,
      "Ġcorner": 2690,
      "Ġfrustr": 2691,
      "Ġspace": 2692,
      "ĠBr": 2693,
      "Ġmighty": 2694,
      "Ġincredible": 2695,
      "robe": 2696,
      "Ġcone": 2697,
      "ighed": 2698,
      "Ġ{": 2699,
      "Dad": 2700,
      "Ġmoms": 2701,
      "ray": 2702,
      "Ġsock": 2703,
      "Ġbalance": 2704,
      "Ġfright": 2705,
      "Ġjam": 2706,
      "Ġter": 2707,
      "Ġpresent": 2708,
      "Ġbranches": 2709,
      "ragile": 2710,
      "ony": 2711,
      "ĠMama": 2712,
      "Ġfeed": 2713,
      "Ġorganized": 2714,
      "Ġroar": 2715,
      "Ġfool": 2716,
      "alous": 2717,
      "ĠSome": 2718,
      "Ġguess": 2719,
      "Ġvalue": 2720,
      "Ġsell": 2721,
      "Ġhorn": 2722,
      "Ġjealous": 2723,
      "Ġburn": 2724,
      "Ġyarn": 2725,
      "Ġunderstood": 2726,
      "Ġmis": 2727,
      "Ġfragile": 2728,
      "Ġfrustrated": 2729,
      "Ġstubb": 2730,
      "Where": 2731,
      "cient": 2732,
      "Ġhose": 2733,
      "Ġspent": 2734,
      "Ġshoe": 2735,
      "Ġtaught": 2736,
      "Ġstubborn": 2737,
      "Ġtwist": 2738,
      "ique": 2739,
      "als": 2740,
      "Ġchest": 2741,
      "Ġrelieved": 2742,
      "Ġspoiled": 2743,
      "Ġancient": 2744,
      "Ġuseful": 2745,
      "Ġpray": 2746,
      "Ġcreature": 2747,
      "Ġwake": 2748,
      "ym": 2749,
      "Ġfier": 2750,
      "Ġunique": 2751,
      "Ġeggs": 2752,
      "Ġord": 2753,
      "udy": 2754,
      "Ġfierce": 2755,
      "Ġgoat": 2756,
      "Ġterri": 2757,
      "Ġbarn": 2758,
      "lace": 2759,
      "Ġfrightened": 2760,
      "Ġmeasure": 2761,
      "Ġcab": 2762,
      "Ġpumpkin": 2763,
      "dle": 2764,
      "Ġcomfortable": 2765,
      "orry": 2766,
      "Ġtoug": 2767,
      "Ġwagon": 2768,
      "Ġunus": 2769,
      "Ġbreath": 2770,
      "Ġfoolish": 2771,
      "Ġstraw": 2772,
      "Ġdiscover": 2773,
      "Ġclay": 2774,
      "Ġexploring": 2775,
      "Ġtomato": 2776,
      "Ġdug": 2777,
      "Ġunusual": 2778,
      "Ġdead": 2779,
      "ond": 2780,
      "Ġind": 2781,
      "anged": 2782,
      "Ġfinding": 2783,
      "Ġpolice": 2784,
      "Ġwrote": 2785,
      "Ġclum": 2786,
      "iant": 2787,
      "Ġexam": 2788,
      "Ġsquare": 2789,
      "Ġwaves": 2790,
      "Ġhears": 2791,
      "Ġtells": 2792,
      "Ġdull": 2793,
      "kn": 2794,
      "Ġnecklace": 2795,
      "Ġcabin": 2796,
      "Ġclumsy": 2797,
      "Ġtough": 2798,
      "Ġbubbles": 2799,
      "Together": 2800,
      "Ġsearched": 2801,
      "Ġnosy": 2802,
      "Ġwashed": 2803,
      "ĠPe": 2804,
      "Ġbathroom": 2805,
      "Ġpaws": 2806,
      "unn": 2807,
      "ory": 2808,
      "Ġlab": 2809,
      "known": 2810,
      "fic": 2811,
      "Ġboard": 2812,
      "iv": 2813,
      "Ġasking": 2814,
      "Ġthankful": 2815,
      "Ġcrazy": 2816,
      "cil": 2817,
      "Ġbitter": 2818,
      "Ġdiffic": 2819,
      "alk": 2820,
      "Ġsunf": 2821,
      "berry": 2822,
      "yal": 2823,
      "bers": 2824,
      "Ġdrop": 2825,
      "Ġswan": 2826,
      "Ġpir": 2827,
      "Ġunknown": 2828,
      "ground": 2829,
      "ĠElla": 2830,
      "Ġrose": 2831,
      "Ġcovered": 2832,
      "Ġbloom": 2833,
      "Ġpencil": 2834,
      "Ġdifficult": 2835,
      "light": 2836,
      "Ġfinger": 2837,
      "Ġsword": 2838,
      "ates": 2839,
      "Ġhoop": 2840,
      "Ġham": 2841,
      "Ġjet": 2842,
      "apped": 2843,
      "Ġwitch": 2844,
      "Me": 2845,
      "Here": 2846,
      "Ġchicken": 2847,
      "Ġgloomy": 2848,
      "Ġloyal": 2849,
      "Ġwealthy": 2850,
      "Ġunl": 2851,
      "Ġstat": 2852,
      "Ġending": 2853,
      "Ġcats": 2854,
      "Ġcher": 2855,
      "Ġguit": 2856,
      "Ġjoined": 2857,
      "shine": 2858,
      "Ġdove": 2859,
      "Ġterrible": 2860,
      "Ġmov": 2861,
      "anut": 2862,
      "ĠRex": 2863,
      "Ġyours": 2864,
      "Ġlif": 2865,
      "Ġsalad": 2866,
      "ĠAndy": 2867,
      "Ġrat": 2868,
      "Ġnuts": 2869,
      "reen": 2870,
      "Ġchanged": 2871,
      "Ġflex": 2872,
      "ĠTr": 2873,
      "Ġpotato": 2874,
      "Ġmask": 2875,
      "erp": 2876,
      "Ġtiger": 2877,
      "selves": 2878,
      "Ġbody": 2879,
      "Ġmoving": 2880,
      "ormous": 2881,
      "ĠMany": 2882,
      "Ġexciting": 2883,
      "land": 2884,
      "Ġdisg": 2885,
      "Ġzip": 2886,
      "Ġperform": 2887,
      "Ġcheap": 2888,
      "Ġtoast": 2889,
      "Ġyourself": 2890,
      "Ġguitar": 2891,
      "Ġenormous": 2892,
      "irsty": 2893,
      "Ġknowing": 2894,
      "Ġrecord": 2895,
      "Ġadventur": 2896,
      "Ġhairy": 2897,
      "Ġsmaller": 2898,
      "Every": 2899,
      "Ġshoot": 2900,
      "ĠBrown": 2901,
      "Ġbored": 2902,
      "Ġmarble": 2903,
      "Ġremind": 2904,
      "Ġacorn": 2905,
      "Ġpepper": 2906,
      "Ġadventurous": 2907,
      "Ġstuff": 2908,
      "Ġsunshine": 2909,
      "Ġhats": 2910,
      "Ġcost": 2911,
      "inal": 2912,
      "Ġflexible": 2913,
      "Ġknife": 2914,
      "Ġsnacks": 2915,
      "Ġsolve": 2916,
      "ident": 2917,
      "rilliant": 2918,
      "Ġcollect": 2919,
      "Ġpro": 2920,
      "ĠJimmy": 2921,
      "iness": 2922,
      "Ġshore": 2923,
      "Ġnods": 2924,
      "Ġthirsty": 2925,
      "Ġdepend": 2926,
      "Ġbrilliant": 2927,
      "Ġdisgust": 2928,
      "upid": 2929,
      "Ġdelicate": 2930,
      "Ġstri": 2931,
      "Ġfrown": 2932,
      "Ġseeds": 2933,
      "Ġasleep": 2934,
      "Ġbanana": 2935,
      "Ġcounted": 2936,
      "ilt": 2937,
      "Ġmailbox": 2938,
      "Ġtrick": 2939,
      "If": 2940,
      "ungle": 2941,
      "Ġdough": 2942,
      "Ġusing": 2943,
      "Ġheal": 2944,
      "und": 2945,
      "Ġneighbor": 2946,
      "Ġmarket": 2947,
      "live": 2948,
      "Who": 2949,
      "ĠĠĠĠĠĠĠĠ": 2950,
      "Ġstage": 2951,
      "Ġjungle": 2952,
      "Ġexplained": 2953,
      "pes": 2954,
      "Ġsquee": 2955,
      "Ġdisgusting": 2956,
      "ĠAl": 2957,
      "Ġcube": 2958,
      "mbre": 2959,
      "Ġumbre": 2960,
      "Ġsuit": 2961,
      "Jim": 2962,
      "iddle": 2963,
      "Are": 2964,
      "Ġjolly": 2965,
      "corn": 2966,
      "Ġflash": 2967,
      "Ġcaterp": 2968,
      "Ġcaterpill": 2969,
      "iginal": 2970,
      "ages": 2971,
      "Ġfridge": 2972,
      "Ġtimes": 2973,
      "ying": 2974,
      "Ġrh": 2975,
      "ĠInstead": 2976,
      "Ġsunflower": 2977,
      "Ġrelax": 2978,
      "Ġcrane": 2979,
      "Ġharm": 2980,
      "Ġfour": 2981,
      "Ġisland": 2982,
      "Ġshiver": 2983,
      "Ġstupid": 2984,
      "ĠWhile": 2985,
      "ict": 2986,
      "Ġmedic": 2987,
      "io": 2988,
      "Ġgoose": 2989,
      "How": 2990,
      "Ġcro": 2991,
      "ĠWill": 2992,
      "Ġspring": 2993,
      "oin": 2994,
      "Ġindepend": 2995,
      "Ġstove": 2996,
      "most": 2997,
      "Ġoriginal": 2998,
      "ĠYour": 2999,
      "Mum": 3000,
      "Ġbatter": 3001,
      "Ġobed": 3002,
      "Ġrug": 3003,
      "Ġgem": 3004,
      "Ġsighed": 3005,
      "Ġmedicine": 3006,
      "Ġvegetables": 3007,
      "Ġer": 3008,
      "Ġstamp": 3009,
      "Ġstones": 3010,
      "Ġcareless": 3011,
      "Ġshine": 3012,
      "Ġjeep": 3013,
      "Ġgar": 3014,
      "Inside": 3015,
      "gu": 3016,
      "Ġcarrots": 3017,
      "Ġscr": 3018,
      "Ġsuccessful": 3019,
      "ĠNo": 3020,
      "Ġcries": 3021,
      "Ġindependent": 3022,
      "Ġobedient": 3023,
      "Ġpopcorn": 3024,
      "Ġstudy": 3025,
      "Ġmiddle": 3026,
      "Ġalmost": 3027,
      "Ġmagn": 3028,
      "Ġsauce": 3029,
      "met": 3030,
      "Ġmeal": 3031,
      "pack": 3032,
      "Ġcaterpillar": 3033,
      "Ġjack": 3034,
      "ĠSammy": 3035,
      "Sorry": 3036,
      "Ġfearful": 3037,
      "inky": 3038,
      "Ġdesign": 3039,
      "Ġpebble": 3040,
      "Ġescape": 3041,
      "aken": 3042,
      "Ġdest": 3043,
      "Ġgets": 3044,
      "Ġeager": 3045,
      "Ġserious": 3046,
      "Ġparrot": 3047,
      "Ġbedroom": 3048,
      "Ġhelmet": 3049,
      "Ġstatue": 3050,
      "Ġpeanut": 3051,
      "Ġ}": 3052,
      "Ġpasta": 3053,
      "Ġraven": 3054,
      "There": 3055,
      "Ġang": 3056,
      "Ġcompet": 3057,
      "Ġfountain": 3058,
      "Ġumbrella": 3059,
      "Ġjacket": 3060,
      "Ġbelonged": 3061,
      "Ġfilthy": 3062,
      "erable": 3063,
      "Ġborrow": 3064,
      "Ġcam": 3065,
      "Ġprize": 3066,
      "Ġhay": 3067,
      "Ġhouses": 3068,
      "Ġstanding": 3069,
      "Ġbrace": 3070,
      "iable": 3071,
      "Ġchoose": 3072,
      "Ġbuilt": 3073,
      "Ġtaken": 3074,
      "Ġraced": 3075,
      "ours": 3076,
      "Ġmiserable": 3077,
      "Ġcomb": 3078,
      "Ġcrayon": 3079,
      "Ġpainting": 3080,
      "Ġtriang": 3081,
      "Ġfig": 3082,
      "Ġtied": 3083,
      "Ġimpressive": 3084,
      "Ġref": 3085,
      "Ġfork": 3086,
      "Ġtag": 3087,
      "Ġlifted": 3088,
      "Ġspotted": 3089,
      "vaadin": 3090,
      "Ġslipped": 3091,
      "Ġsteal": 3092,
      "Ġthoughtful": 3093,
      "Ġtank": 3094,
      "Ġshows": 3095,
      "Ġdependable": 3096,
      "enny": 3097,
      "Ġmush": 3098,
      "Ġgarage": 3099,
      "cod": 3100,
      "Ġscale": 3101,
      "Ġbottom": 3102,
      "Ġcrawled": 3103,
      "Ġmole": 3104,
      "ipe": 3105,
      "Ġpant": 3106,
      "Ġboats": 3107,
      "lph": 3108,
      "Ġpicks": 3109,
      "Ġcheerful": 3110,
      "Ġcreate": 3111,
      "Ġpian": 3112,
      "Ġsmoke": 3113,
      "Ġmoder": 3114,
      "Ġhammer": 3115,
      "Ġeng": 3116,
      "berries": 3117,
      "inary": 3118,
      "rn": 3119,
      "codile": 3120,
      "Ġmagnet": 3121,
      "Ġcrack": 3122,
      "Ġhurts": 3123,
      "Ġmelon": 3124,
      "Ġpiano": 3125,
      "Ġaunt": 3126,
      "cream": 3127,
      "unnel": 3128,
      "Ġmodern": 3129,
      "Ġneeds": 3130,
      "Ġdolph": 3131,
      "Ġwaff": 3132,
      "Ġarrow": 3133,
      "Ġtunnel": 3134,
      "Ġmushroom": 3135,
      "Ġreliable": 3136,
      "Timmy": 3137,
      "Ġsquash": 3138,
      "Ġhopping": 3139,
      "Ġjug": 3140,
      "Ġmovie": 3141,
      "Ġgum": 3142,
      "Ġtax": 3143,
      "Ġsink": 3144,
      "Their": 3145,
      "Ġlean": 3146,
      "Ġflute": 3147,
      "Ġpopular": 3148,
      "Ġones": 3149,
      "host": 3150,
      "atter": 3151,
      "Ġsil": 3152,
      "Ġbeet": 3153,
      "tt": 3154,
      "icop": 3155,
      "Ġpress": 3156,
      "icopter": 3157,
      "atch": 3158,
      "Ġcompetit": 3159,
      "Ġcryst": 3160,
      "llip": 3161,
      "Ġlow": 3162,
      "aser": 3163,
      "Molly": 3164,
      "Ġliz": 3165,
      "Ġcrocodile": 3166,
      "llipop": 3167,
      "Ġtroubled": 3168,
      "Ġhelicopter": 3169,
      "Ġpige": 3170,
      "Ġplayful": 3171,
      "Ġlocked": 3172,
      "Ġtricks": 3173,
      "Ġhumble": 3174,
      "Ġlollipop": 3175,
      "comfortable": 3176,
      "Ġkissed": 3177,
      "ject": 3178,
      "amond": 3179,
      "appy": 3180,
      "Ġuncomfortable": 3181,
      "Ġwander": 3182,
      "Ġtaxi": 3183,
      "cles": 3184,
      "Ġanx": 3185,
      "Ġenv": 3186,
      "Ġmuff": 3187,
      "Ġhelps": 3188,
      "ĠSn": 3189,
      "Ġacc": 3190,
      "edy": 3191,
      "Ġangel": 3192,
      "iew": 3193,
      "Ġwrapped": 3194,
      "Ġgrace": 3195,
      "oto": 3196,
      "bb": 3197,
      "Ġpants": 3198,
      "Ġtorn": 3199,
      "Ġdiamond": 3200,
      "Ġtwig": 3201,
      "Ġanxious": 3202,
      "Ġcamera": 3203,
      "Ġdisappoin": 3204,
      "cut": 3205,
      "Ġghost": 3206,
      "Ġruined": 3207,
      "aff": 3208,
      "Ġload": 3209,
      "ĠJenny": 3210,
      "Ġtears": 3211,
      "ĠEven": 3212,
      "Ġfis": 3213,
      "Ġpassed": 3214,
      "Ġbelt": 3215,
      "ilty": 3216,
      "Ġquar": 3217,
      "erop": 3218,
      "eropl": 3219,
      "Ġguilty": 3220,
      "Ġrep": 3221,
      "Ġcop": 3222,
      "Ġbull": 3223,
      "Ġhappiness": 3224,
      "Ġboys": 3225,
      "Ġlizard": 3226,
      "Ġhelpless": 3227,
      "Ġaeropl": 3228,
      "cean": 3229,
      "asses": 3230,
      "Ġwalks": 3231,
      "Ġmeant": 3232,
      "Ġcere": 3233,
      "Ġocean": 3234,
      "Ġstretch": 3235,
      "Ġfluffy": 3236,
      "Ġdeaf": 3237,
      "Ġwire": 3238,
      "Ġbracelet": 3239,
      "Ġrid": 3240,
      "Ġcandle": 3241,
      "zed": 3242,
      "Ġnail": 3243,
      "Ġcact": 3244,
      "Ġharmless": 3245,
      "Ġradio": 3246,
      "Ġpersist": 3247,
      "Ġmop": 3248,
      "Ġordinary": 3249,
      "umpet": 3250,
      "Ġbees": 3251,
      "Ġanswered": 3252,
      "uth": 3253,
      "Ġshape": 3254,
      "Ġbeetle": 3255,
      "Ġtire": 3256,
      "Ġengine": 3257,
      "Ġquarrel": 3258,
      "Ġcollar": 3259,
      "Ġflashlight": 3260,
      "Ġtrumpet": 3261,
      "Ġcomput": 3262,
      "Ġpoured": 3263,
      "Ġharder": 3264,
      "Mama": 3265,
      "Ġcrystal": 3266,
      "low": 3267,
      "Ġhunt": 3268,
      "Ġinvited": 3269,
      "Ġcereal": 3270,
      "Ġspill": 3271,
      "ither": 3272,
      "Ġoffice": 3273,
      "Ġtooth": 3274,
      "udge": 3275,
      "Ġlit": 3276,
      "Ġcharm": 3277,
      "coa": 3278,
      "Ġscoot": 3279,
      "Ġthread": 3280,
      "Ġmelt": 3281,
      "Ġtriangle": 3282,
      "Ġregular": 3283,
      "ief": 3284,
      "Ġaccident": 3285,
      "Ġspend": 3286,
      "Ġmug": 3287,
      "hip": 3288,
      "hett": 3289,
      "Ġcomet": 3290,
      "aghett": 3291,
      "aghetti": 3292,
      "Ġshade": 3293,
      "Ġyogurt": 3294,
      "Ġcompass": 3295,
      "ube": 3296,
      "Ġlibr": 3297,
      "Ġcush": 3298,
      "Ġfigure": 3299,
      "Ġdisappointed": 3300,
      "Ġlicked": 3301,
      "Ġgiving": 3302,
      "Ġavoc": 3303,
      "aze": 3304,
      "Ġcactus": 3305,
      "Ġpale": 3306,
      "Ġsheet": 3307,
      "Ġwhispered": 3308,
      "Ġbarber": 3309,
      "ellig": 3310,
      "Jane": 3311,
      "Ġroof": 3312,
      "Ġintellig": 3313,
      "Ġpracticed": 3314,
      "Ġnod": 3315,
      "ubby": 3316,
      "Ġrode": 3317,
      "Ġdelight": 3318,
      "Ġpow": 3319,
      "Ġvi": 3320,
      "Ġgifted": 3321,
      "Ġharsh": 3322,
      "Ġpipe": 3323,
      "Ġspaghetti": 3324,
      "Ġstream": 3325,
      "ĠTrue": 3326,
      "Ġforward": 3327,
      "urkey": 3328,
      "azz": 3329,
      "illa": 3330,
      "Ġsailed": 3331,
      "Ġdust": 3332,
      "Ġpersistent": 3333,
      "ccol": 3334,
      "Ġbicy": 3335,
      "Ġcompassion": 3336,
      "ccoli": 3337,
      "Ġenvel": 3338,
      "Ġspeed": 3339,
      "ging": 3340,
      "Ġcocoa": 3341,
      "Ġmitten": 3342,
      "Ġcoo": 3343,
      "Ġdesk": 3344,
      "Ġquestions": 3345,
      "Ġcomputer": 3346,
      "Ġfeathers": 3347,
      "omes": 3348,
      "Ġpigeon": 3349,
      "Ġshrimp": 3350,
      "Bobo": 3351,
      "Ġglove": 3352,
      "Ġturkey": 3353,
      "Ġenvious": 3354,
      "Ġcharming": 3355,
      "Ġrice": 3356,
      "Ġinse": 3357,
      "Ġcarp": 3358,
      "Ġstronger": 3359,
      "Ġears": 3360,
      "Ġknot": 3361,
      "Ġacce": 3362,
      "lcan": 3363,
      "Ġraft": 3364,
      "weet": 3365,
      "dom": 3366,
      "Ġcoins": 3367,
      "Ġtap": 3368,
      "Ġwheat": 3369,
      "Ġtrap": 3370,
      "Ġboxes": 3371,
      "lcano": 3372,
      "Ġtrunk": 3373,
      "Ġchubby": 3374,
      "Ġdeliver": 3375,
      "Ġcarpet": 3376,
      "Ġfriendship": 3377,
      "Ġscreen": 3378,
      "Ġaeroplane": 3379,
      "Ġrestless": 3380,
      "Ġdreams": 3381,
      "Ġintelligent": 3382,
      "Ġspun": 3383,
      "Ġhalf": 3384,
      "ulif": 3385,
      "Ġtube": 3386,
      "Ġcrawl": 3387,
      "Ġweek": 3388,
      "olin": 3389,
      "Ġloop": 3390,
      "anger": 3391,
      "tern": 3392,
      "Ġtrack": 3393,
      "ache": 3394,
      "Ġonion": 3395,
      "Ġvide": 3396,
      "Ġbri": 3397,
      "ĠJake": 3398,
      "ital": 3399,
      "Ġbroccoli": 3400,
      "Ġsle": 3401,
      "Ġvolcano": 3402,
      "Ġcaulif": 3403,
      "ye": 3404,
      "Ġvine": 3405,
      "Ġnumbers": 3406,
      "Ġticket": 3407,
      "Ġmill": 3408,
      "essie": 3409,
      "Ġlouder": 3410,
      "Ġthief": 3411,
      "asing": 3412,
      "Ġreturned": 3413,
      "cycle": 3414,
      "Ġsleeping": 3415,
      "Ġalert": 3416,
      "Ġdestro": 3417,
      "Ġinsect": 3418,
      "Ġyaw": 3419,
      "Ġhaircut": 3420,
      "isted": 3421,
      "Ġeventually": 3422,
      "Ġattract": 3423,
      "Ġexcite": 3424,
      "ulu": 3425,
      "Ġhosp": 3426,
      "ĠToday": 3427,
      "Ġeraser": 3428,
      "ĠEmily": 3429,
      "Ġhappening": 3430,
      "Ġdecide": 3431,
      "Ġtem": 3432,
      "Ġhospital": 3433,
      "ĠOK": 3434,
      "Ġplanet": 3435,
      "Ġgraceful": 3436,
      "Ġuniver": 3437,
      "Ġlearning": 3438,
      "Ġbase": 3439,
      "Ġleop": 3440,
      "Ġnicely": 3441,
      "Ġcelebrate": 3442,
      "rework": 3443,
      "Ġways": 3444,
      "Ġcauliflower": 3445,
      "Ġcompetitive": 3446,
      "Ġpoem": 3447,
      "Ġpeach": 3448,
      "ats": 3449,
      "Ġcurt": 3450,
      "Ġsaus": 3451,
      "Ġattractive": 3452,
      "Go": 3453,
      "Ġdeter": 3454,
      "atient": 3455,
      "Ġcurtain": 3456,
      "Ġcase": 3457,
      "Ġsoldier": 3458,
      "Ġdolphin": 3459,
      "Ġsort": 3460,
      "Ġparade": 3461,
      "ulb": 3462,
      "Ġscatter": 3463,
      "Ġtravel": 3464,
      "Ġignorant": 3465,
      "Ġorder": 3466,
      "Ġviolin": 3467,
      "Ġwheels": 3468,
      "Ġyach": 3469,
      "Ġenvelope": 3470,
      "Ġdeterm": 3471,
      "Ġaut": 3472,
      "Ġbarrel": 3473,
      "Ġcompassionate": 3474,
      "ating": 3475,
      "Ġed": 3476,
      "Ġlying": 3477,
      "ĠFr": 3478,
      "Ġquestion": 3479,
      "zzy": 3480,
      "Ġfirework": 3481,
      "Ġbulb": 3482,
      "igator": 3483,
      "Ġleopard": 3484,
      "Ġscooter": 3485,
      "ĠPipp": 3486,
      "Ġneedle": 3487,
      "elery": 3488,
      "Ġjudge": 3489,
      "Ġrag": 3490,
      "Ġbicycle": 3491,
      "ĠSh": 3492,
      "Ġhook": 3493,
      "Ġyacht": 3494,
      "Ġcricket": 3495,
      "Ġhomes": 3496,
      "Ġtruth": 3497,
      "Ġador": 3498,
      "Ġpony": 3499,
      "ete": 3500,
      "dge": 3501,
      "Ġrubbed": 3502,
      "Sarah": 3503,
      "Ġuncle": 3504,
      "Ġbushes": 3505,
      "Ġcushion": 3506,
      "ĠV": 3507,
      "Ġgrown": 3508,
      "Ġspell": 3509,
      "Ġthemselves": 3510,
      "Ġcooked": 3511,
      "Ġadorable": 3512,
      "Ġchalk": 3513,
      "Ġsoar": 3514,
      "Ġimpatient": 3515,
      "Ġskin": 3516,
      "Ġsend": 3517,
      "Ġshells": 3518,
      "Ġcelery": 3519,
      "Ġpurse": 3520,
      "Ġtray": 3521,
      "Ġprun": 3522,
      "Ġpengu": 3523,
      "Ġseal": 3524,
      "Re": 3525,
      "Ġsniff": 3526,
      "Ġlively": 3527,
      "Ġwalls": 3528,
      "Ġalligator": 3529,
      "Ġradish": 3530,
      "Ġsaying": 3531,
      "Ġspeak": 3532,
      "Ġdistant": 3533,
      "Ġchain": 3534,
      "Ġpattern": 3535,
      "Ġmotorcycle": 3536,
      "Ġsurf": 3537,
      "Ġcleaning": 3538,
      "Ġroot": 3539,
      "Ġforth": 3540,
      "Ġbounced": 3541,
      "Ġcounting": 3542,
      "Ġmeat": 3543,
      "Ġspinning": 3544,
      "Ġslept": 3545,
      "Ġenth": 3546,
      "ision": 3547,
      "Ġstum": 3548,
      "Ġbehave": 3549,
      "Ġpit": 3550,
      "Ġdestroy": 3551,
      "Ġbin": 3552,
      "Ġskip": 3553,
      "Ġsteak": 3554,
      "Ġmarry": 3555,
      "Ġfilm": 3556,
      "Ġpost": 3557,
      "Ġimpro": 3558,
      "ebra": 3559,
      "Ġfile": 3560,
      "Ġview": 3561,
      "usia": 3562,
      "Ġwallet": 3563,
      "Ġenthusia": 3564,
      "Ġmetal": 3565,
      "Ġbiggest": 3566,
      "Ġwiped": 3567,
      "Ġavocado": 3568,
      "ebook": 3569,
      "vator": 3570,
      "Ġnotebook": 3571,
      "00": 3572,
      "Ġlaughs": 3573,
      "chair": 3574,
      "aged": 3575,
      "Ġfolder": 3576,
      "Ġbandage": 3577,
      "Ġdive": 3578,
      "Ġelevator": 3579,
      "Ġskipped": 3580,
      "Ġshut": 3581,
      "ĠBuzz": 3582,
      "Ġunlock": 3583,
      "Ġshowing": 3584,
      "Ġdiary": 3585,
      "usie": 3586,
      "par": 3587,
      "under": 3588,
      "Ġdistur": 3589,
      "rage": 3590,
      "nam": 3591,
      "Ġtemp": 3592,
      "Ġbags": 3593,
      "Ġenc": 3594,
      "Ġpole": 3595,
      "Ġclub": 3596,
      "Ġoy": 3597,
      "Ġearth": 3598,
      "Ġzebra": 3599,
      "bul": 3600,
      "Ġarmchair": 3601,
      "Ġgathered": 3602,
      "Ġsupport": 3603,
      "Ġnurse": 3604,
      "ĠPoppy": 3605,
      "Ġbuttons": 3606,
      "Ġcompl": 3607,
      "Ġjellyfish": 3608,
      "Ġlibrary": 3609,
      "Ġsweater": 3610,
      "Ġstranger": 3611,
      "Ġscrew": 3612,
      "Give": 3613,
      "Ġfather": 3614,
      "bulance": 3615,
      "Ġbump": 3616,
      "Ġlime": 3617,
      "Ġambulance": 3618,
      "Ġskull": 3619,
      "Ġloudly": 3620,
      "Ġmixer": 3621,
      "Gra": 3622,
      "Ġcity": 3623,
      "ĠLulu": 3624,
      "Ġshield": 3625,
      "Ġjournal": 3626,
      "ito": 3627,
      "uring": 3628,
      "()": 3629,
      "ĠPeter": 3630,
      "ĠBet": 3631,
      "ĠFo": 3632,
      "Ġ=": 3633,
      "Ġplayground": 3634,
      "Ġpointing": 3635,
      "ention": 3636,
      "Ġink": 3637,
      "Ġautom": 3638,
      "Ġstation": 3639,
      "Ġtrucks": 3640,
      "Ġlights": 3641,
      "lies": 3642,
      "Ġtummy": 3643,
      "Ġdecorate": 3644,
      "irit": 3645,
      "Billy": 3646,
      "Ġfalls": 3647,
      "quito": 3648,
      "Ġfu": 3649,
      "Ġherb": 3650,
      "Ġguard": 3651,
      "nger": 3652,
      "ĠPolly": 3653,
      "ĠBirdy": 3654,
      "Ġwhenever": 3655,
      "Ġknows": 3656,
      "Ġornam": 3657,
      "Ġornament": 3658,
      "Ġmos": 3659,
      "Ġmodest": 3660,
      "Ġyet": 3661,
      "Ġprep": 3662,
      "oby": 3663,
      "ceed": 3664,
      "Ġattic": 3665,
      "Ġpolish": 3666,
      "utes": 3667,
      "Ġonce": 3668,
      "Ġmosquito": 3669,
      "work": 3670,
      "ctop": 3671,
      "Ġsalt": 3672,
      "Ġple": 3673,
      "Ġresc": 3674,
      "Ġsplit": 3675,
      "Ġdisappeared": 3676,
      "Ġvest": 3677,
      "Ġstrawberry": 3678,
      "umb": 3679,
      "Ġcalling": 3680,
      "ĠMum": 3681,
      "Ġpirate": 3682,
      "Ġbrothers": 3683,
      "Ġcomplet": 3684,
      "Ġitch": 3685,
      "leton": 3686,
      "Ġadded": 3687,
      "Ġkay": 3688,
      "Ġhipp": 3689,
      "ctopus": 3690,
      "keleton": 3691,
      "Ġfootball": 3692,
      "Ġled": 3693,
      "Ġdriving": 3694,
      "obile": 3695,
      "Ġcupboard": 3696,
      "Ġcable": 3697,
      "ature": 3698,
      "Ġ1": 3699,
      "old": 3700,
      "Ġwishes": 3701,
      "aky": 3702,
      "Ġtripped": 3703,
      "time": 3704,
      "ushed": 3705,
      "Ġcord": 3706,
      "Ġmeans": 3707,
      "Ġoctopus": 3708,
      "Ġdrawer": 3709,
      "Ġsucceed": 3710,
      "Ġedge": 3711,
      "Ġmild": 3712,
      "Ġreading": 3713,
      "Ġsung": 3714,
      "Ġstack": 3715,
      "Ġext": 3716,
      "Ġdetermined": 3717,
      "Ġkayak": 3718,
      "?\".": 3719,
      "lasses": 3720,
      "Ġcoal": 3721,
      "stic": 3722,
      "Ġsuggest": 3723,
      "Ġautomobile": 3724,
      "Ġcomplain": 3725,
      "Ġthunder": 3726,
      "Well": 3727,
      "Ġkindness": 3728,
      "Ġitself": 3729,
      "Ġhandle": 3730,
      "Ġenthusiastic": 3731,
      "Ġpackage": 3732,
      "Ġsneeze": 3733,
      "Ġflea": 3734,
      "ĠLittle": 3735,
      "iron": 3736,
      "ines": 3737,
      "Ġyoga": 3738,
      "la": 3739,
      "Ġcartoon": 3740,
      "Ġgrowl": 3741,
      "htub": 3742,
      "ait": 3743,
      "Ġmeadow": 3744,
      "Ġgor": 3745,
      "Ġbathtub": 3746,
      "Ġgolf": 3747,
      "Ġskeleton": 3748,
      "ophone": 3749,
      "Ġhall": 3750,
      "Ġchess": 3751,
      "Ġmath": 3752,
      "ric": 3753,
      "Ġveil": 3754,
      "Ġarg": 3755,
      "Ġswitch": 3756,
      "Ġhunter": 3757,
      "Ġflame": 3758,
      "Ġframe": 3759,
      "Ġpoke": 3760,
      "Ġvideo": 3761,
      "Ġpenny": 3762,
      "Ġcups": 3763,
      "Ġmatt": 3764,
      "Ġminutes": 3765,
      "Ġtroph": 3766,
      "Ġrepe": 3767,
      "Ġsunglasses": 3768,
      "Ġsepar": 3769,
      "Ġrepair": 3770,
      "Ġspear": 3771,
      "head": 3772,
      "Ġhippo": 3773,
      "Ġglowing": 3774,
      "phone": 3775,
      "Ġoyster": 3776,
      "Ġdrawings": 3777,
      "import": 3778,
      "Ġmuffin": 3779,
      "Ġcostume": 3780,
      "Ġzipp": 3781,
      ",âĢĿ": 3782,
      "Ġdess": 3783,
      "Ġmaze": 3784,
      "case": 3785,
      "Ġpun": 3786,
      "Ġrolling": 3787,
      "Ġpastry": 3788,
      "Ġpacked": 3789,
      "Ġmakeup": 3790,
      "Ġtelephone": 3791,
      "ĠPeople": 3792,
      "aving": 3793,
      "web": 3794,
      "ĠMiss": 3795,
      "Ġpine": 3796,
      "Ġtask": 3797,
      "Ġwaffle": 3798,
      "See": 3799,
      "Ġgear": 3800,
      "Ġpear": 3801,
      "Ġknight": 3802,
      "Ġmattress": 3803,
      "Ġshocked": 3804,
      "Ġpowder": 3805,
      "Ġhedge": 3806,
      "Ġmanaged": 3807,
      "Ġtrophy": 3808,
      "Ġcob": 3809,
      "Ġmissile": 3810,
      "Ġwife": 3811,
      "Ġencou": 3812,
      "Ġok": 3813,
      "play": 3814,
      "Ġrot": 3815,
      "ctory": 3816,
      "urch": 3817,
      "Ġstairs": 3818,
      "Ġcamp": 3819,
      "rophone": 3820,
      "Ġgrapes": 3821,
      "Ġmagaz": 3822,
      "Ġcolour": 3823,
      "Ġvalu": 3824,
      "Ġmessage": 3825,
      "Ġstrugg": 3826,
      "Ġperm": 3827,
      "Ġbasketball": 3828,
      "Bye": 3829,
      "Ġcobweb": 3830,
      "ĠTina": 3831,
      "Ġwool": 3832,
      "ĠTweet": 3833,
      "esday": 3834,
      "Jimmy": 3835,
      "ailable": 3836,
      "keep": 3837,
      "Ġsteps": 3838,
      "Ġgasp": 3839,
      "Ġeye": 3840,
      "Ġmicrophone": 3841,
      "Ġleash": 3842,
      "Ġmay": 3843,
      "ĠDan": 3844,
      "Ġsub": 3845,
      "Ġribb": 3846,
      "Ġsafely": 3847,
      "Ġweep": 3848,
      "Em": 3849,
      "Al": 3850,
      "Ġthose": 3851,
      "Ġtear": 3852,
      "Ġeither": 3853,
      "offe": 3854,
      "Ġbarking": 3855,
      "chor": 3856,
      "offee": 3857,
      "Ġslides": 3858,
      "Ġstaff": 3859,
      "Ġbananas": 3860,
      "cing": 3861,
      "Ġgorilla": 3862,
      "istol": 3863,
      "Ġspirit": 3864,
      "Ġgiggled": 3865,
      "ilot": 3866,
      "Ġappl": 3867,
      "Ġvend": 3868,
      "often": 3869,
      "Ġremain": 3870,
      "Ġoften": 3871,
      "Ġhoc": 3872,
      "ĠRose": 3873,
      "Ġhockey": 3874,
      "was": 3875,
      "Ġprov": 3876,
      "Ġcooler": 3877,
      "scope": 3878,
      "Jill": 3879,
      "Ġearly": 3880,
      "Ġsailor": 3881,
      "washer": 3882,
      "Ġmarched": 3883,
      "Ġtools": 3884,
      "ense": 3885,
      "ĠLook": 3886,
      "umber": 3887,
      "Ġhotel": 3888,
      "Ġphoto": 3889,
      "Ġflour": 3890,
      "Ġmint": 3891,
      "Ġavailable": 3892,
      "Ġcheck": 3893,
      "Ġdessert": 3894,
      "Ġot": 3895,
      "ĠPete": 3896,
      "hic": 3897,
      "Ġchurch": 3898,
      "Ġotter": 3899,
      "Ġcooking": 3900,
      "Ġgrandpa": 3901,
      "Ġvehic": 3902,
      "Ġsausage": 3903,
      "Ġfive": 3904,
      "Ġrever": 3905,
      "roscope": 3906,
      "Ġdisplay": 3907,
      "Ġmedal": 3908,
      "Ġtemple": 3909,
      "ron": 3910,
      "Ġdishwasher": 3911,
      "Ġbaseball": 3912,
      "Ġpretending": 3913,
      "Ġorganize": 3914,
      "Ġten": 3915,
      "Ġmen": 3916,
      "Ġshort": 3917,
      "Ġpistol": 3918,
      "Ġpee": 3919,
      "Ġopens": 3920,
      "Ġsight": 3921,
      "Ġvendor": 3922,
      "Ġhours": 3923,
      "Ġthinking": 3924,
      "Ġknock": 3925,
      "Ġbattery": 3926,
      "Ġfireman": 3927,
      "Ġgrill": 3928,
      "Ġiron": 3929,
      "Ġpatch": 3930,
      "Ġow": 3931,
      "Ġoil": 3932,
      "Ġrealised": 3933,
      "Ġanchor": 3934,
      "uper": 3935,
      "ately": 3936,
      "Ġsne": 3937,
      "ations": 3938,
      "Ġcell": 3939,
      "Ġlaser": 3940,
      "Ġsandbox": 3941,
      "ready": 3942,
      "Ġrise": 3943,
      "'d": 3944,
      "Ġsize": 3945,
      "vice": 3946,
      "ĠGive": 3947,
      "Ġmem": 3948,
      "seum": 3949,
      "Ġtrash": 3950,
      "Ġobject": 3951,
      "Ġwhip": 3952,
      "Ġfactory": 3953,
      "ney": 3954,
      "Ġrhin": 3955,
      "ĠBetty": 3956,
      "ĠSunny": 3957,
      "Ġlotion": 3958,
      "Ġur": 3959,
      "Ġmuseum": 3960,
      "Ġcardboard": 3961,
      "Ġward": 3962,
      "ugged": 3963,
      "Ġhive": 3964,
      "Ġalready": 3965,
      "apers": 3966,
      "place": 3967,
      "Ġsett": 3968,
      "Ġwardrobe": 3969,
      "Ġcoffee": 3970,
      "ucet": 3971,
      "Ġnapkin": 3972,
      "Ġtowers": 3973,
      "Ġhanging": 3974,
      "Ġ<": 3975,
      "keeper": 3976,
      "Fluffy": 3977,
      "eer": 3978,
      "Ġblackboard": 3979,
      "loo": 3980,
      "ĠZoom": 3981,
      "Ġpilot": 3982,
      "Ġquit": 3983,
      "Ġexcitement": 3984,
      "Ġpenguin": 3985,
      "ĠRob": 3986,
      "Ġreward": 3987,
      "Ġpicking": 3988,
      "Ġallowed": 3989,
      "Ġfaucet": 3990,
      "ĠSnow": 3991,
      "Ġig": 3992,
      "ĠPippin": 3993,
      "Ġdreamed": 3994,
      "azor": 3995,
      "Ġpassport": 3996,
      "Ġcane": 3997,
      "Ġigloo": 3998,
      "Ġholds": 3999,
      "Ġstumbled": 4000,
      "ĠBessie": 4001,
      "Ġjuicy": 4002,
      "aroo": 4003,
      "angaroo": 4004,
      "Ġfreez": 4005,
      "ured": 4006,
      "Ġbathe": 4007,
      "Ġnewsp": 4008,
      "Ġfingers": 4009,
      "imney": 4010,
      "Ġhanger": 4011,
      "htray": 4012,
      "body": 4013,
      "Ġtornado": 4014,
      "Ġfisher": 4015,
      "Ġoak": 4016,
      "onent": 4017,
      "Ġlend": 4018,
      "Ġlaund": 4019,
      "Ġpractice": 4020,
      "Ġcomplete": 4021,
      "Ġlaundry": 4022,
      "Ġchimney": 4023,
      "ef": 4024,
      "Ġkangaroo": 4025,
      "ĠEverywhere": 4026,
      "Ġmule": 4027,
      "Ġtelling": 4028,
      "Ġnotice": 4029,
      "Ġcherries": 4030,
      "Ġnovel": 4031,
      "Is": 4032,
      "Ġpal": 4033,
      "Ġmummy": 4034,
      "Ġspilled": 4035,
      "Ġgain": 4036,
      "Ġenjoying": 4037,
      "ampoo": 4038,
      "Ġshrink": 4039,
      "arian": 4040,
      "Ġreind": 4041,
      "ocer": 4042,
      "Ġmicroscope": 4043,
      "Ġfireplace": 4044,
      "aches": 4045,
      "Ġimagine": 4046,
      "Ġhurry": 4047,
      "ĠZip": 4048,
      "Ġfastest": 4049,
      "Ġmagazine": 4050,
      "anda": 4051,
      "gen": 4052,
      "Ġlabel": 4053,
      "Wait": 4054,
      "Ġcabinet": 4055,
      "ĠSpike": 4056,
      "Ġax": 4057,
      "Ġnames": 4058,
      "Ġashtray": 4059,
      "Ġimprove": 4060,
      "Ġpalace": 4061,
      "Ġcows": 4062,
      "ination": 4063,
      "Joe": 4064,
      "Ġrake": 4065,
      "Ġfalling": 4066,
      "oceros": 4067,
      "Ġdiscovered": 4068,
      "Ġskirt": 4069,
      "Ġstared": 4070,
      "Ġtrail": 4071,
      "Ġreindeer": 4072,
      "Ġsilver": 4073,
      "Ġbill": 4074,
      "aid": 4075,
      "Ġroared": 4076,
      "come": 4077,
      "Ġminer": 4078,
      "Ġsuper": 4079,
      "Ġtub": 4080,
      "Ġfog": 4081,
      "iction": 4082,
      "stairs": 4083,
      "Ġtaller": 4084,
      "Ġincl": 4085,
      "Ġfisherman": 4086,
      "Ġhut": 4087,
      "Ġvaluable": 4088,
      "Ġhappier": 4089,
      "Ġpor": 4090,
      "Ġtoile": 4091,
      "ictionary": 4092,
      "Ġoats": 4093,
      "Ġshampoo": 4094,
      "Ġoffered": 4095,
      "Ġrhinoceros": 4096,
      "Ġholes": 4097,
      "Ġboots": 4098,
      "Ow": 4099,
      "ected": 4100,
      "Ġrece": 4101,
      "iest": 4102,
      "Ġclimbing": 4103,
      "Ġblin": 4104,
      "Ch": 4105,
      "Ġstretched": 4106,
      "alend": 4107,
      "Ġzipper": 4108,
      "Ġtoilet": 4109,
      "vision": 4110,
      "ĠHere": 4111,
      "Ġjewelry": 4112,
      "Ġsym": 4113,
      "Ġlistening": 4114,
      "Ġtelevision": 4115,
      "Ġstops": 4116,
      "Ġjokes": 4117,
      "Ġbathrobe": 4118,
      "Ġhelper": 4119,
      "Ġaxe": 4120,
      "Ġcalend": 4121,
      "Ġfuel": 4122,
      "bol": 4123,
      "Ġsparkly": 4124,
      "cu": 4125,
      "Ġjumps": 4126,
      "Ġattach": 4127,
      "Mummy": 4128,
      "Ġpage": 4129,
      "res": 4130,
      "utor": 4131,
      "Ġbury": 4132,
      "Ġpressed": 4133,
      "Ġperfume": 4134,
      "ĠKim": 4135,
      "Ġsnap": 4136,
      "xy": 4137,
      "ĠSusie": 4138,
      "rod": 4139,
      "ĠToby": 4140,
      "ĠMar": 4141,
      "Ġsymbol": 4142,
      "Ġneat": 4143,
      "Ġcalendar": 4144,
      "te": 4145,
      "Ġpopped": 4146,
      "Ġgasped": 4147,
      "reek": 4148,
      "Mr": 4149,
      "Ġunpack": 4150,
      "Ġpapers": 4151,
      "Ġopera": 4152,
      "Ġcreek": 4153,
      "Ġresist": 4154,
      "Ġdoesn": 4155,
      "Ġdictionary": 4156,
      "Ġletters": 4157,
      "Ġtuna": 4158,
      "Ġchose": 4159,
      "Ġsubway": 4160,
      "Ġfreezer": 4161,
      "Ġpinch": 4162,
      "zag": 4163,
      "Ġporch": 4164,
      "Ġbikes": 4165,
      "Ġagainst": 4166,
      "affe": 4167,
      "Ġspoke": 4168,
      "Ġanyway": 4169,
      "Ġmodel": 4170,
      "Ġlie": 4171,
      "arry": 4172,
      "ĠAre": 4173,
      "Ġweigh": 4174,
      "iches": 4175,
      "Ġshaking": 4176,
      "Ġcomfort": 4177,
      "Ġtightly": 4178,
      "Ġson": 4179,
      "Ġbookcase": 4180,
      "Ġnewspaper": 4181,
      "igzag": 4182,
      "Ġrazor": 4183,
      "Ġsandwiches": 4184,
      "aurant": 4185,
      "Ġstickers": 4186,
      "Ġblouse": 4187,
      "ival": 4188,
      "Ġswinging": 4189,
      "Ġrestaurant": 4190,
      "Ġgym": 4191,
      "Ġdisag": 4192,
      "Ġnature": 4193,
      "Ġsquirrels": 4194,
      "Ġvehicle": 4195,
      "Ġbelongs": 4196,
      "Ġped": 4197,
      "Ġgrowing": 4198,
      "Ġswamp": 4199,
      "Ġbutterflies": 4200,
      "omed": 4201,
      "Ġbuckle": 4202,
      "Ġmustache": 4203,
      "Ġalarm": 4204,
      "Ġstirred": 4205,
      "Ġbillboard": 4206,
      "Ġlip": 4207,
      "Ġbeep": 4208,
      "Ġseparate": 4209,
      "Ġfest": 4210,
      "Ġlightning": 4211,
      "Ġdistance": 4212,
      "Ġcards": 4213,
      "ogn": 4214,
      "Ġhung": 4215,
      "Ġagree": 4216,
      "Little": 4217,
      "Ġrubber": 4218,
      "ik": 4219,
      "Ġdisturb": 4220,
      "Ġhate": 4221,
      "Ġsof": 4222,
      "Ġrecogn": 4223,
      "Ġserve": 4224,
      "Ġtease": 4225,
      "fast": 4226,
      "Ġtutor": 4227,
      "Ouch": 4228,
      "Ġobser": 4229,
      "Ġbeef": 4230,
      "Ġmusician": 4231,
      "Ġadvice": 4232,
      "aspoon": 4233,
      "Ġcrib": 4234,
      "Ġsweetie": 4235,
      "stri": 4236,
      "lter": 4237,
      "Ġsofa": 4238,
      "Ġbookshe": 4239,
      "Ġcircles": 4240,
      "asis": 4241,
      "Ġbreakfast": 4242,
      "Ġblueberries": 4243,
      "Ġgas": 4244,
      "Ġfestival": 4245,
      "Ġgiraffe": 4246,
      "Ġshelter": 4247,
      "Ġairport": 4248,
      "Ġolive": 4249,
      "Ġbookshelf": 4250,
      "act": 4251,
      "Ġrail": 4252,
      "Ġreverse": 4253,
      "Ġfrogs": 4254,
      "Ġteaspoon": 4255,
      "Ġjunk": 4256,
      "Ġriding": 4257,
      "Ġdrain": 4258,
      "Ġpleased": 4259,
      "Ġbet": 4260,
      "ĠMrs": 4261,
      "Ġwipe": 4262,
      "Ġahead": 4263,
      "Ġpoint": 4264,
      "Ġsoil": 4265,
      "Ġknob": 4266,
      "Ġpainter": 4267,
      "Ġleaving": 4268,
      "ummer": 4269,
      "Ġoasis": 4270,
      "ĠTeddy": 4271,
      "Ġrescue": 4272,
      "Ġrules": 4273,
      "Ġextra": 4274,
      "Ġins": 4275,
      "Ġpeeked": 4276,
      "Ġlumber": 4277,
      "Ġpoked": 4278,
      "Ġchance": 4279,
      "Ġsqueeze": 4280,
      "Ġtrains": 4281,
      "Ġslipp": 4282,
      "Ġlic": 4283,
      "Ġhappens": 4284,
      "Ġaccept": 4285,
      "Ġrefused": 4286,
      "rmomet": 4287,
      "Ġquiz": 4288,
      "angu": 4289,
      "Ġbirdc": 4290,
      "ĠDolly": 4291,
      "Ġwinter": 4292,
      "ience": 4293,
      "Ġdisappear": 4294,
      "Ġgoal": 4295,
      "Ġsounded": 4296,
      "rmometer": 4297,
      "ĠCl": 4298,
      "Ġdancer": 4299,
      "Ġbirdcage": 4300,
      "ĠGrandpa": 4301,
      "ĠCo": 4302,
      "Ġwaste": 4303,
      "Ġtheater": 4304,
      "Ġweather": 4305,
      "Ġostri": 4306,
      "Ġcarrying": 4307,
      "Ġswung": 4308,
      "Ġinvite": 4309,
      "Daisy": 4310,
      "Ġlangu": 4311,
      "Ġreef": 4312,
      "Ġtrade": 4313,
      "Ġremove": 4314,
      "render": 4315,
      "iform": 4316,
      "ĠPandy": 4317,
      "Ġcliff": 4318,
      "Ġuniform": 4319,
      "Ġlawn": 4320,
      "Ġinf": 4321,
      "ola": 4322,
      "Ġleaned": 4323,
      "ium": 4324,
      "Ġcur": 4325,
      "Ġadmire": 4326,
      "ring": 4327,
      "Ġstarts": 4328,
      "Ġaccidentally": 4329,
      "Ġabove": 4330,
      "Ġsuff": 4331,
      "Ġfort": 4332,
      "Ġstom": 4333,
      "riger": 4334,
      "rigerator": 4335,
      "Ġpastel": 4336,
      "Ġpeek": 4337,
      "Ġtwir": 4338,
      "Ġlicense": 4339,
      "!\".": 4340,
      "Ġrefrigerator": 4341,
      "med": 4342,
      "Ġblinked": 4343,
      "Ġanywhere": 4344,
      "Ġpanda": 4345,
      "Ġdreaming": 4346,
      "..": 4347,
      "na": 4348,
      "ĠLee": 4349,
      "Ġimagined": 4350,
      "night": 4351,
      "Ġmissing": 4352,
      "Ġclassroom": 4353,
      "Ġceiling": 4354,
      "Ġcaring": 4355,
      "Ġshower": 4356,
      "bles": 4357,
      "aked": 4358,
      "Ġstable": 4359,
      "Ġgrand": 4360,
      "Ġsent": 4361,
      "Ġprevent": 4362,
      "astic": 4363,
      "Ġthermometer": 4364,
      "Ġmonkeys": 4365,
      "Ġsummer": 4366,
      "ĠWhere": 4367,
      "Ġwarned": 4368,
      "Ġbrick": 4369,
      "Ġproblems": 4370,
      "Ġcudd": 4371,
      "Ġapron": 4372,
      "Ġpages": 4373,
      "ucture": 4374,
      "Ġchasing": 4375,
      "amber": 4376,
      "Ġlawy": 4377,
      "Ġlid": 4378,
      "Ġrespectful": 4379,
      "Ġstructure": 4380,
      "iture": 4381,
      "urniture": 4382,
      "Ġzoomed": 4383,
      "uggage": 4384,
      "Ġbent": 4385,
      "Ġfrowned": 4386,
      "Ġfurniture": 4387,
      "ison": 4388,
      "Ġolder": 4389,
      "Ġsunset": 4390,
      "Ġostrich": 4391,
      "Ġwindows": 4392,
      "Ġmistakes": 4393,
      "lex": 4394,
      "Ġluggage": 4395,
      "Ġsuggested": 4396,
      "omm": 4397,
      "Ġgrape": 4398,
      "Ġribbon": 4399,
      "Ġwine": 4400,
      "Ġevent": 4401,
      "Ġart": 4402,
      "Ġjail": 4403,
      "Ġshouts": 4404,
      "Ġdelay": 4405,
      "ĠBub": 4406,
      "Ġwigg": 4407,
      "eor": 4408,
      "Ġspoil": 4409,
      "ĠUn": 4410,
      "Ġfinds": 4411,
      "Ġlions": 4412,
      "Ġchamber": 4413,
      "Ġfixing": 4414,
      "Ġpair": 4415,
      "Ġfought": 4416,
      "Ġchoice": 4417,
      "Ġsearching": 4418,
      "Ġhanded": 4419,
      "Did": 4420,
      "Ġunite": 4421,
      "Ġlawyer": 4422,
      "Ġmeeting": 4423,
      "Ġbrightly": 4424,
      "Ġsurprises": 4425,
      "ommend": 4426,
      "Ġincre": 4427,
      "uct": 4428,
      "ĠEllie": 4429,
      "Ġfavour": 4430,
      "adium": 4431,
      "eterin": 4432,
      "eterinarian": 4433,
      "Ġstadium": 4434,
      "Ġproudly": 4435,
      "Ġintrod": 4436,
      "Ġveterinarian": 4437,
      "Ġslip": 4438,
      "iki": 4439,
      "vet": 4440,
      "Ġchairs": 4441,
      "Ġrecommend": 4442,
      "Ġaw": 4443,
      "bor": 4444,
      "ĠBoun": 4445,
      "Ġsadly": 4446,
      "ĠSpe": 4447,
      "aul": 4448,
      "Ġberry": 4449,
      "ĠBow": 4450,
      "veal": 4451,
      "Ġpuddles": 4452,
      "ĠCarl": 4453,
      "Your": 4454,
      "Ġranch": 4455,
      "Ġfavourite": 4456,
      "Ġargue": 4457,
      "ĠHel": 4458,
      "Ġhuman": 4459,
      "olog": 4460,
      "Ġadmired": 4461,
      "ĠâĢ": 4462,
      "Ġgrabs": 4463,
      "Ġsaving": 4464,
      "Ġrac": 4465,
      "Ġexcitedly": 4466,
      "ĠBig": 4467,
      "Ġsteam": 4468,
      "Ġmatches": 4469,
      "eorge": 4470,
      "thank": 4471,
      "Ġreveal": 4472,
      "Ġpushing": 4473,
      "sity": 4474,
      "Ġleak": 4475,
      "Ġyield": 4476,
      "ĠRed": 4477,
      "alley": 4478,
      "Ġreminded": 4479,
      "Ġsty": 4480,
      "Ġmall": 4481,
      "cuss": 4482,
      "Ġsurrender": 4483,
      "ecause": 4484,
      "Ġweap": 4485,
      "Ġcountry": 4486,
      "Ġregret": 4487,
      "Ġmineral": 4488,
      "Ġvalley": 4489,
      "elcome": 4490,
      "Ġreplace": 4491,
      "Ġputting": 4492,
      "Ġforgave": 4493,
      "Ġlanguage": 4494,
      "Ġevening": 4495,
      "Ġignore": 4496,
      "Ġsneezed": 4497,
      "Ġrushed": 4498,
      "Ġdiscuss": 4499,
      "Ġapolog": 4500,
      "Ġspade": 4501,
      "Ġpup": 4502,
      "Ġprepare": 4503,
      "ĠBuzzy": 4504,
      "ĠBill": 4505,
      "Ġplates": 4506,
      "Ġconf": 4507,
      "Ġpulls": 4508,
      "Ġplastic": 4509,
      "Ġsniffed": 4510,
      "ari": 4511,
      "Ġsupply": 4512,
      "ĠJazz": 4513,
      "Ġharbor": 4514,
      "Ġfre": 4515,
      "Ġshovel": 4516,
      "Ġmeas": 4517,
      "Ġfloat": 4518,
      "quest": 4519,
      "Ġrestore": 4520,
      "ĠNext": 4521,
      "Ġraise": 4522,
      "Ġstrip": 4523,
      "Ġdoors": 4524,
      "Ġcared": 4525,
      "Ġlives": 4526,
      "Ġsocks": 4527,
      "Ġmystery": 4528,
      "Ġsticker": 4529,
      "Ġsudden": 4530,
      "ero": 4531,
      "Ġmenu": 4532,
      "iday": 4533,
      "Ġkinds": 4534,
      "ricane": 4535,
      "Ġslippery": 4536,
      "Ġplayer": 4537,
      "ĠOw": 4538,
      "hero": 4539,
      "chan": 4540,
      "Ġpanic": 4541,
      "add": 4542,
      "Ġbeg": 4543,
      "Ġhoping": 4544,
      "Ġcontent": 4545,
      "Ġshone": 4546,
      "Ġsuperhero": 4547,
      "aud": 4548,
      "Ġrow": 4549,
      "ĠBinky": 4550,
      "ĠMike": 4551,
      "Ġprovide": 4552,
      "Ġdelighted": 4553,
      "Ġgro": 4554,
      "Yay": 4555,
      "cond": 4556,
      "Ġport": 4557,
      "Ġchickens": 4558,
      "Ġbreat": 4559,
      "Ġcolourful": 4560,
      "Ġrained": 4561,
      "Ġshoulder": 4562,
      "ĠAlice": 4563,
      "Yuck": 4564,
      "Ġsoftly": 4565,
      "Ġclaw": 4566,
      "ason": 4567,
      "rise": 4568,
      "ince": 4569,
      "Ġhol": 4570,
      "ĠBubbles": 4571,
      "Ġholiday": 4572,
      "Grandma": 4573,
      "icer": 4574,
      "oof": 4575,
      "Ġenter": 4576,
      "Ġbarks": 4577,
      "Ġplanes": 4578,
      "cast": 4579,
      "Ġthrowing": 4580,
      "Ġpoints": 4581,
      "Mary": 4582,
      "Next": 4583,
      "Ġbend": 4584,
      "Ġsecond": 4585,
      "ĠFreddy": 4586,
      "Ġended": 4587,
      "Ġshakes": 4588,
      "Ġkneel": 4589,
      "Ġpushes": 4590,
      "ĠEnd": 4591,
      "Ġshivering": 4592,
      "Ġtrem": 4593,
      "Ġfresh": 4594,
      "Ġx": 4595,
      "wards": 4596,
      "Ġinfant": 4597,
      "Ġsunrise": 4598,
      "Ġthanks": 4599,
      "ĠOlive": 4600,
      "Ġtip": 4601,
      "imed": 4602,
      "Ġkeeping": 4603,
      "Ġfreeze": 4604,
      "Ġsuffer": 4605,
      "Ġmechan": 4606,
      "Ġcopper": 4607,
      "ĠSpeedy": 4608,
      "ĠWould": 4609,
      "ĠPat": 4610,
      "Ġgiggle": 4611,
      "Ġsmells": 4612,
      "Ġdear": 4613,
      "ĠOr": 4614,
      "Ġrequest": 4615,
      "Ġcherry": 4616,
      "Ġdishes": 4617,
      "Ġdem": 4618,
      "Ġhurricane": 4619,
      "Ġunh": 4620,
      "Ġmeowed": 4621,
      "All": 4622,
      "Ġthumb": 4623,
      "Ġheads": 4624,
      "apping": 4625,
      "Ġmass": 4626,
      "Ġmechanic": 4627,
      "Ġsandcast": 4628,
      "Ġbrighter": 4629,
      "Ġletting": 4630,
      "Ġapplaud": 4631,
      "Ġlaught": 4632,
      "Ġweapon": 4633,
      "Ġwre": 4634,
      "ĠFl": 4635,
      "Ġsprayed": 4636,
      "Ġlaughter": 4637,
      "cer": 4638,
      "Qu": 4639,
      "Ġfeelings": 4640,
      "Will": 4641,
      "Ġclapping": 4642,
      "acked": 4643,
      "Ġcastles": 4644,
      "ement": 4645,
      "ophie": 4646,
      "icky": 4647,
      "Ġsplashing": 4648,
      "Ġsticky": 4649,
      "Ġnavy": 4650,
      "(\"": 4651,
      "Ġscore": 4652,
      "ib": 4653,
      "Ġrooms": 4654,
      "Ġflies": 4655,
      "Ġuniverse": 4656,
      "Sh": 4657,
      "igi": 4658,
      "Ġunhappy": 4659,
      "ĠDave": 4660,
      "Ġgreedy": 4661,
      "Ġparts": 4662,
      "\",": 4663,
      "Ġalive": 4664,
      "Ġdare": 4665,
      "Ġbreaks": 4666,
      "Ġener": 4667,
      "ĠHelp": 4668,
      "Ġrepeat": 4669,
      "Ready": 4670,
      "Ġcourage": 4671,
      "ĠY": 4672,
      "Ġinvit": 4673,
      "Ġfollowing": 4674,
      "ĠĠĠĠĠĠĠĠĠĠĠĠĠĠĠ": 4675,
      "Ġdemand": 4676,
      "erc": 4677,
      "Ġthrows": 4678,
      "year": 4679,
      "ponent": 4680,
      "Ġsomewhere": 4681,
      "Ġtrusted": 4682,
      "Ġgiven": 4683,
      "Lisa": 4684,
      "arlie": 4685,
      "Ġmention": 4686,
      "oe": 4687,
      "Ġskill": 4688,
      "Ġprune": 4689,
      "Ġwreck": 4690,
      "Ġstarting": 4691,
      "Ġeaten": 4692,
      "Ġexamine": 4693,
      "men": 4694,
      "enry": 4695,
      "Ġ/": 4696,
      "Ġraining": 4697,
      "Buddy": 4698,
      "ĠĠĠĠĠĠĠĠĠĠĠ": 4699,
      "Ġequ": 4700,
      "ween": 4701,
      "Ġjogged": 4702,
      "heart": 4703,
      "Ġrush": 4704,
      "Ġpoison": 4705,
      "Ġvac": 4706,
      "Mark": 4707,
      "ĠZoomy": 4708,
      "Ġsport": 4709,
      "Ġsigh": 4710,
      "Ann": 4711,
      "Ġdrops": 4712,
      "Emma": 4713,
      "Ġpirates": 4714,
      "ĠKiki": 4715,
      "Ġstud": 4716,
      "ngth": 4717,
      "Ġflapped": 4718,
      "Ġchirp": 4719,
      "Ġsparkled": 4720,
      "anges": 4721,
      "Ġsteel": 4722,
      "Ġbumped": 4723,
      "Ġyawned": 4724,
      "Ġscold": 4725,
      "Ġbetween": 4726,
      "Ġstrength": 4727,
      "Ġtoe": 4728,
      "Ġmyself": 4729,
      "ĠJohnny": 4730,
      "Ġexerc": 4731,
      "Ġshrugged": 4732,
      "Ġcoats": 4733,
      "Ġpunish": 4734,
      "Ġtracks": 4735,
      "Ġsnugg": 4736,
      "Ġpaid": 4737,
      "Ġscratch": 4738,
      "ges": 4739,
      "Ġuniversity": 4740,
      "Ġpigs": 4741,
      "Ġflood": 4742,
      "Ġprayed": 4743,
      "Ġcrossed": 4744,
      "Ġupstairs": 4745,
      "Ġimpressed": 4746,
      "Ġwarn": 4747,
      "ĠSee": 4748,
      "Ġbouncing": 4749,
      "spec": 4750,
      "Ġsqueezed": 4751,
      "Ġexpect": 4752,
      "Alice": 4753,
      "Ġbadly": 4754,
      "Ġrabbits": 4755,
      "Ġminute": 4756,
      "Ġleather": 4757,
      "Ġnation": 4758,
      "Ġnews": 4759,
      "ĠSm": 4760,
      "Ġtide": 4761,
      "ĠĠĠĠĠ": 4762,
      "Ġinst": 4763,
      "ially": 4764,
      "ĠTed": 4765,
      "Ġsweetheart": 4766,
      "Ġclaws": 4767,
      "Ġbears": 4768,
      "yth": 4769,
      "Ġbuzz": 4770,
      "Ġnetwork": 4771,
      "Ġheat": 4772,
      "Ġhist": 4773,
      "Ġstrawberries": 4774,
      "Ġchecked": 4775,
      "Ġobserve": 4776,
      "Ġvacation": 4777,
      "inking": 4778,
      "ĠMummy": 4779,
      "Ġsandcastle": 4780,
      "Ġhistory": 4781,
      "Ġsettle": 4782,
      "Ġexplored": 4783,
      "ythm": 4784,
      "ĠLilly": 4785,
      "izes": 4786,
      "Ġyawn": 4787,
      "Ġbelieved": 4788,
      "ĠLola": 4789,
      "Ġplaced": 4790,
      "ĠSque": 4791,
      "Daddy": 4792,
      "ĠHoppy": 4793,
      "Ġhorses": 4794,
      "ĠUnder": 4795,
      "mare": 4796,
      "Ġoffer": 4797,
      "Ġtour": 4798,
      "Before": 4799,
      "Ġcheek": 4800,
      "ĠMandy": 4801,
      "Ġeasily": 4802,
      "Ġspots": 4803,
      "Ġstyle": 4804,
      "Ġblueberry": 4805,
      "Ġenergy": 4806,
      "Ġsnowball": 4807,
      "specially": 4808,
      "otten": 4809,
      "ĠBee": 4810,
      "ĠGigi": 4811,
      "Ġwriting": 4812,
      "ĠAb": 4813,
      "Ġentered": 4814,
      "hest": 4815,
      "Ġdaisy": 4816,
      "Ġstomach": 4817,
      "Ġcalls": 4818,
      "Ġwaving": 4819,
      "reat": 4820,
      "reeze": 4821,
      "Ġvroom": 4822,
      "Ġsoak": 4823,
      "Ġmassage": 4824,
      "Ġbaking": 4825,
      "Ġsafari": 4826,
      "Ġrhythm": 4827,
      "Ġblowing": 4828,
      "Ġprunes": 4829,
      "Ġstair": 4830,
      "Ġinsisted": 4831,
      "Ġitem": 4832,
      "quake": 4833,
      "Ġbeauty": 4834,
      "Ġnightmare": 4835,
      "Ġbother": 4836,
      "Ġpalm": 4837,
      "Ġpoppy": 4838,
      "Ġtwisted": 4839,
      "Ġscoop": 4840,
      "Ġing": 4841,
      "ipment": 4842,
      "Ġbrain": 4843,
      "Ġhills": 4844,
      "Ġespecially": 4845,
      "ction": 4846,
      "ffic": 4847,
      "noon": 4848,
      "=\"": 4849,
      "Ġignored": 4850,
      "Ġafternoon": 4851,
      "Ġequipment": 4852,
      "eration": 4853,
      "Ġsir": 4854,
      "redient": 4855,
      "Ġingredient": 4856,
      "apa": 4857,
      "Ġnobody": 4858,
      "Ġburned": 4859,
      "Ġearthquake": 4860,
      "ĠSnowy": 4861,
      "xygen": 4862,
      "ĠFox": 4863,
      "Ġsew": 4864,
      "Ġtug": 4865,
      "Le": 4866,
      "Ġincrease": 4867,
      "Ġlear": 4868,
      "Ġhearts": 4869,
      "Ġlearnt": 4870,
      "Ġinclude": 4871,
      "Ġlemonade": 4872,
      "Ġbeans": 4873,
      "isty": 4874,
      "Ġbelow": 4875,
      "illie": 4876,
      "Jenny": 4877,
      "Ġmailman": 4878,
      "Ġgaz": 4879,
      "Ġpermit": 4880,
      "ĠSk": 4881,
      "Ġwhistled": 4882,
      "Ġshopkeeper": 4883,
      "Ġbackpack": 4884,
      "Fred": 4885,
      "Ġintroduce": 4886,
      "Ġtremble": 4887,
      "Ġpedal": 4888,
      "Ġmoves": 4889,
      "Ġlemons": 4890,
      "Ġyucky": 4891,
      "od": 4892,
      "edn": 4893,
      "ednesday": 4894,
      "Ġcrash": 4895,
      "Ġtraffic": 4896,
      "ecting": 4897,
      "With": 4898,
      "Ġprice": 4899,
      "Ġfloated": 4900,
      "Welcome": 4901,
      "Ġfollows": 4902,
      "ittens": 4903,
      "tain": 4904,
      "Ġslap": 4905,
      "Ġplanned": 4906,
      "resses": 4907,
      "Ġstrike": 4908,
      "Ġracing": 4909,
      "Ġwags": 4910,
      "laimed": 4911,
      "Ġwisdom": 4912,
      "Ġpur": 4913,
      "ĠLucky": 4914,
      "Ġluck": 4915,
      "ĠFinny": 4916,
      "ĠGeorge": 4917,
      "Ġfurt": 4918,
      "Ġpitch": 4919,
      "ĠElly": 4920,
      "Ġmama": 4921,
      "ĠHave": 4922,
      "flow": 4923,
      "Ġweight": 4924,
      "Ġimagination": 4925,
      "Ġimage": 4926,
      "Ġexclaimed": 4927,
      "Ġburied": 4928,
      "emember": 4929,
      "house": 4930,
      "Ġingredients": 4931,
      "Ġcomf": 4932,
      "Ġrecognize": 4933,
      "Ġcandles": 4934,
      "ayout": 4935,
      "Mimi": 4936,
      "riage": 4937,
      "rec": 4938,
      "ĠWednesday": 4939,
      "ores": 4940,
      "Not": 4941,
      "Ġapart": 4942,
      "unday": 4943,
      "ĠAlex": 4944,
      "Ġfurther": 4945,
      "ication": 4946,
      "Ġmarbles": 4947,
      "Ġteaching": 4948,
      "Ġgrowled": 4949,
      "Ġhopes": 4950,
      "ĠWho": 4951,
      "ĠFinn": 4952,
      "Ġfolded": 4953,
      "ĠPaul": 4954,
      "Ġclosely": 4955,
      "Ġheel": 4956,
      "Ġencourage": 4957,
      "ĠSunday": 4958,
      "ĠOwl": 4959,
      "Ġzigzag": 4960,
      "Ġpulling": 4961,
      "Ġchewed": 4962,
      "Ġbouncy": 4963,
      "Ġdigg": 4964,
      "Ġdigging": 4965,
      "Woof": 4966,
      "Ġwinning": 4967,
      "ĠSu": 4968,
      "Ġexper": 4969,
      "Ġoperation": 4970,
      "Ġdresses": 4971,
      "Ġpuzzles": 4972,
      "Ġsimp": 4973,
      "Ġshouting": 4974,
      "cery": 4975,
      "Ġgrocery": 4976,
      "Ġpeanuts": 4977,
      "look": 4978,
      "nce": 4979,
      "ĠDog": 4980,
      "ĠIs": 4981,
      "Ġchores": 4982,
      "Ġallow": 4983,
      "Ġtwisty": 4984,
      "Ġwhisper": 4985,
      "Ġweb": 4986,
      "Ġscrat": 4987,
      "ĠFroggy": 4988,
      "Ġspike": 4989,
      "Ġcape": 4990,
      "Ġsnail": 4991,
      "ecture": 4992,
      "Ġworms": 4993,
      "Ġdeeper": 4994,
      "hood": 4995,
      "ifi": 4996,
      "Ġacorns": 4997,
      "Ġurge": 4998,
      "Ġexercise": 4999,
      "ĠWhenever": 5000,
      "';": 5001,
      "uby": 5002,
      "ĠSqueaky": 5003,
      "ĠTilly": 5004,
      "Ġcub": 5005,
      "ĠGrace": 5006,
      "Ġattention": 5007,
      "Ġplanted": 5008,
      "ories": 5009,
      "ava": 5010,
      "Ġquite": 5011,
      "ips": 5012,
      "ĠGr": 5013,
      "Ġhon": 5014,
      "Ġagre": 5015,
      "ĠDanny": 5016,
      "oral": 5017,
      "Ġresp": 5018,
      "Ġunderground": 5019,
      "Everyone": 5020,
      "ĠMittens": 5021,
      "Ġcreatures": 5022,
      "Ġwarning": 5023,
      "ipping": 5024,
      "Ġlecture": 5025,
      "Ġblood": 5026,
      "ddy": 5027,
      "Ġhurting": 5028,
      "Ġvanished": 5029,
      "Ġstruggle": 5030,
      "Ġwashing": 5031,
      "Ġinvitation": 5032,
      "Ġsizes": 5033,
      "Ġgifts": 5034,
      "Ġdressed": 5035,
      "Ġsolved": 5036,
      "gie": 5037,
      "ĠSharing": 5038,
      "ĠâĢĵ": 5039,
      "Ġlicks": 5040,
      "ippy": 5041,
      "Ġsnuggled": 5042,
      "Ġmarriage": 5043,
      "Ġble": 5044,
      "Ġquietly": 5045,
      "Ġcounter": 5046,
      "Ġbreathe": 5047,
      "orted": 5048,
      "Ġelephants": 5049,
      "Ġjazz": 5050,
      "ĠSophie": 5051,
      "Ġfallen": 5052,
      "reci": 5053,
      "Ġdried": 5054,
      "Ġrelease": 5055,
      "Ġlandscape": 5056,
      "right": 5057,
      "uesday": 5058,
      "Ġneighbour": 5059,
      "pted": 5060,
      "sed": 5061,
      "Ġmice": 5062,
      "Ġsprink": 5063,
      "Ġeagerly": 5064,
      "ĠBounce": 5065,
      "Ġtext": 5066,
      "do": 5067,
      "Ġappreci": 5068,
      "Ġsailing": 5069,
      "ĠCoco": 5070,
      "Ġpaused": 5071,
      "ĠJoey": 5072,
      "ĠPenny": 5073,
      "Ġworth": 5074,
      "Ġoxygen": 5075,
      "ĠGood": 5076,
      "looking": 5077,
      "Because": 5078,
      "Ġduring": 5079,
      "ĠRock": 5080,
      "Ġreaches": 5081,
      "Ġshined": 5082,
      "Ġbalan": 5083,
      "etch": 5084,
      "isses": 5085,
      "ĠZara": 5086,
      "Ġoh": 5087,
      "Ġmemory": 5088,
      "Ġbricks": 5089,
      "oves": 5090,
      "These": 5091,
      "Ġkisses": 5092,
      "Ġplays": 5093,
      "ĠTuesday": 5094,
      "Ġideas": 5095,
      "iggly": 5096,
      "Ġreceive": 5097,
      "ops": 5098,
      "Bella": 5099,
      "Ġwob": 5100,
      "Ġappear": 5101,
      "Ġfireworks": 5102,
      "ucked": 5103,
      "Ġaccepted": 5104,
      "ux": 5105,
      "Ġmanage": 5106,
      "Ġseeing": 5107,
      "mm": 5108,
      "Ġflap": 5109,
      "Ġtomatoes": 5110,
      "Ġ(": 5111,
      "ĠPip": 5112,
      "Today": 5113,
      "ived": 5114,
      "ĠRos": 5115,
      "Ġblink": 5116,
      "Ġmarried": 5117,
      "component": 5118,
      "Ġmuddy": 5119,
      "Ġexit": 5120,
      "ĠCharlie": 5121,
      "Ġwagging": 5122,
      "Ġwandered": 5123,
      "Remy": 5124,
      "Ġcaptain": 5125,
      "unately": 5126,
      "Ġfash": 5127,
      "ĠAnnie": 5128,
      "rr": 5129,
      "Ġgloves": 5130,
      "raged": 5131,
      "ĠEverything": 5132,
      "Ġpetals": 5133,
      "ĠEventually": 5134,
      "Ġwatered": 5135,
      "Ġpillows": 5136,
      "ĠPinky": 5137,
      "Ġbrings": 5138,
      "ata": 5139,
      "ssible": 5140,
      "Ġcakes": 5141,
      "ups": 5142,
      "Ġdestroyed": 5143,
      "Ġpinched": 5144,
      "Ġprinter": 5145,
      "Ġvanish": 5146,
      "Ġfashion": 5147,
      "Bl": 5148,
      "Surpr": 5149,
      "lic": 5150,
      "Ġhadn": 5151,
      "Ġtreasures": 5152,
      "Ġworse": 5153,
      "ents": 5154,
      "ne": 5155,
      "ĠPapa": 5156,
      "ĠBluey": 5157,
      "Ġscattered": 5158,
      "Ġhits": 5159,
      "Ġvel": 5160,
      "Ġisn": 5161,
      "Ġsorts": 5162,
      "Ġcatching": 5163,
      "Ġvelvet": 5164,
      "ĠFifi": 5165,
      "Ġbur": 5166,
      "Ġdisagree": 5167,
      "ury": 5168,
      "Ġmemories": 5169,
      "Ġoranges": 5170,
      "Ġscolded": 5171,
      "Ġbones": 5172,
      "Ġseats": 5173,
      "Ġhers": 5174,
      "Ġeasier": 5175,
      "Ġsits": 5176,
      "Ġsigns": 5177,
      "Ġsnapped": 5178,
      "Ġrang": 5179,
      "Ġraised": 5180,
      "Ġprints": 5181,
      "Ġpears": 5182,
      "Ġgazed": 5183,
      "ustom": 5184,
      "ĠGod": 5185,
      "ester": 5186,
      "Ġfro": 5187,
      "Ġzipped": 5188,
      "ĠMaria": 5189,
      "Ġsliding": 5190,
      "Ġshot": 5191,
      "Ġdifference": 5192,
      "Ġpies": 5193,
      "Ġskills": 5194,
      "Ġclimbs": 5195,
      "Ġsoc": 5196,
      "ĠRo": 5197,
      "ĠPr": 5198,
      "Ġforgotten": 5199,
      "Ġtwirled": 5200,
      "sit": 5201,
      "Ġblankets": 5202,
      "esterday": 5203,
      "ĠTw": 5204,
      "Ġbaked": 5205,
      "Ġsorting": 5206,
      "alue": 5207,
      "Yum": 5208,
      "aggie": 5209,
      "ising": 5210,
      "Ġprop": 5211,
      "Ġcutting": 5212,
      "chie": 5213,
      "Ġlux": 5214,
      "Ġgolden": 5215,
      "Ġkitty": 5216,
      "Ġseason": 5217,
      "medi": 5218,
      "Ġsince": 5219,
      "Ġsoccer": 5220,
      "ah": 5221,
      "Ġnowhere": 5222,
      "Ġdared": 5223,
      "Ġcrow": 5224,
      "ĠHenry": 5225,
      "Ġbites": 5226,
      "Ġstraight": 5227,
      "Ġcelebrated": 5228,
      "Ġlung": 5229,
      "ĠHarry": 5230,
      "anny": 5231,
      "::": 5232,
      "Ġsimple": 5233,
      "mediately": 5234,
      "Ġ//": 5235,
      "sters": 5236,
      "choo": 5237,
      "Ġunlocked": 5238,
      "aped": 5239,
      "Ġcreated": 5240,
      "Ġcollected": 5241,
      "Ġbleed": 5242,
      "Ġwelcomed": 5243,
      "Ġattached": 5244,
      "Ġvisited": 5245,
      "Cl": 5246,
      "Ġours": 5247,
      "ĠEach": 5248,
      "Ġspoons": 5249,
      "Ġjogging": 5250,
      "Ġstitch": 5251,
      "ĠSpark": 5252,
      "Surprise": 5253,
      "Ġemer": 5254,
      "ublic": 5255,
      "Ġtong": 5256,
      "Ġtrave": 5257,
      "Ġshouldn": 5258,
      "oot": 5259,
      "Ok": 5260,
      "Ġprett": 5261,
      "Ġwinner": 5262,
      "bing": 5263,
      "Ġruin": 5264,
      "Ġzero": 5265,
      "ĠTony": 5266,
      "Moral": 5267,
      "Ġweeping": 5268,
      "Ġfamil": 5269,
      "Ġmarching": 5270,
      "Ġluxury": 5271,
      "Ġguessed": 5272,
      "Ġpets": 5273,
      "Ġstuffed": 5274,
      "ample": 5275,
      "Ġselling": 5276,
      "Ġfloating": 5277,
      "Ġwaist": 5278,
      "Ġurged": 5279,
      "Item": 5280,
      "Ġbowed": 5281,
      "ĠKing": 5282,
      "ĠSmith": 5283,
      "ĠWiggly": 5284,
      "Ġkingdom": 5285,
      "Ġ|": 5286,
      "Ġbye": 5287,
      "Ġgrant": 5288,
      "Ġvict": 5289,
      "Ġolives": 5290,
      "Ġkicking": 5291,
      "Ġcollection": 5292,
      "Ġpunished": 5293,
      "aded": 5294,
      "ĠBaby": 5295,
      "Ġtoes": 5296,
      "ĠLiz": 5297,
      "Ġmuscles": 5298,
      "ĠRosie": 5299,
      "ĠBefore": 5300,
      "ther": 5301,
      "Ġmelted": 5302,
      "Ġbeds": 5303,
      "Ġunderstanding": 5304,
      "Ġjewels": 5305,
      "Ġmeasured": 5306,
      "Ġgrin": 5307,
      "Ġslice": 5308,
      "ĠSandy": 5309,
      "Ġcras": 5310,
      "Goodbye": 5311,
      "Ġtore": 5312,
      "aker": 5313,
      "omeday": 5314,
      "va": 5315,
      "'ve": 5316,
      "Ġpatterns": 5317,
      "osed": 5318,
      "Ġacted": 5319,
      "iers": 5320,
      "Ġreceived": 5321,
      "Ġtrapped": 5322,
      "Ġlined": 5323,
      "fortunately": 5324,
      "Ġencouraged": 5325,
      "cus": 5326,
      "ĠWally": 5327,
      "Ġwest": 5328,
      "Ġwaffles": 5329,
      "sing": 5330,
      "Ġmeow": 5331,
      "ino": 5332,
      "Ġbrus": 5333,
      "Ġmouths": 5334,
      "Ġexperience": 5335,
      "Ġappro": 5336,
      "ĠKate": 5337,
      "kins": 5338,
      "Ġbang": 5339,
      "Ġprinted": 5340,
      "une": 5341,
      "ĠChe": 5342,
      "Ġpeaches": 5343,
      "Ġfields": 5344,
      "eep": 5345,
      "Ġbreeze": 5346,
      "umes": 5347,
      "Meow": 5348,
      "Ġsomeday": 5349,
      "ĠQu": 5350,
      "Ġfetch": 5351,
      "();": 5352,
      "Ġnone": 5353,
      "Ġpotatoes": 5354,
      "Ġsoldiers": 5355,
      "Ġdire": 5356,
      "eve": 5357,
      "Ex": 5358,
      "ĠMillie": 5359,
      "ĠThese": 5360,
      "Ġpresents": 5361,
      "Ġpupil": 5362,
      "Ġdrinks": 5363,
      "Ġshed": 5364,
      "ission": 5365,
      "Ġsurround": 5366,
      "ĠRuby": 5367,
      "Ġfiref": 5368,
      "ĠTuna": 5369,
      "ishing": 5370,
      "Ġbreaking": 5371,
      "Ġvoices": 5372,
      "Ġdrinking": 5373,
      "Ġflat": 5374,
      "Ġmentioned": 5375,
      "Ġrelaxed": 5376,
      "oved": 5377,
      "Ġtongue": 5378,
      "ĠUncle": 5379,
      "Ġhurried": 5380,
      "Ġtwink": 5381,
      "Ġpaints": 5382,
      "Ġvictory": 5383,
      "Ġpermission": 5384,
      "Ġcostumes": 5385,
      "Ġwhistling": 5386,
      "ides": 5387,
      "akes": 5388,
      "Ġdisagreed": 5389,
      "Ġbegged": 5390,
      "Ġteasing": 5391,
      "Ġpearl": 5392,
      "Ġsip": 5393,
      "Ġimmediately": 5394,
      "Ġsix": 5395,
      "Ġesc": 5396,
      "Ġhighest": 5397,
      "vest": 5398,
      "Ġstro": 5399,
      "Leo": 5400,
      "Ġsorted": 5401,
      "Ġlets": 5402,
      "Ġskipping": 5403,
      "ĠMay": 5404,
      "Ġfishing": 5405,
      "ship": 5406,
      "Ġwatches": 5407,
      "Ġopin": 5408,
      "Ġworks": 5409,
      "Ġringing": 5410,
      "Ġtonight": 5411,
      "icing": 5412,
      "Ġpra": 5413,
      "List": 5414,
      "Ġshadows": 5415,
      "Ġperfectly": 5416,
      "Ġsetting": 5417,
      "Ġinstr": 5418,
      "Ġspit": 5419,
      "Ġ},": 5420,
      "ĠIts": 5421,
      "Ġremained": 5422,
      "Ġwarmth": 5423,
      "Ġherbs": 5424,
      "ĠBoo": 5425,
      "walk": 5426,
      "irring": 5427,
      "Bobby": 5428,
      "Jen": 5429,
      "Ġsneak": 5430,
      "Ġlips": 5431,
      "ĠBo": 5432,
      "Ġkneeled": 5433,
      "Blue": 5434,
      "igate": 5435,
      "utter": 5436,
      "Ġinclud": 5437,
      "Ġcolours": 5438,
      "Ġsidewalk": 5439,
      "ĠFollow": 5440,
      "</": 5441,
      "Ġcontest": 5442,
      "Ġcartoons": 5443,
      "Ha": 5444,
      "Ġknown": 5445,
      "ĠToto": 5446,
      "Ġago": 5447,
      "Ġstamps": 5448,
      "Ġlines": 5449,
      "Ġeast": 5450,
      "Ġstrang": 5451,
      "Ġheaded": 5452,
      "Ġsupposed": 5453,
      "Ġladyb": 5454,
      "Ġfed": 5455,
      "Ġroots": 5456,
      "Ġlick": 5457,
      "Ġcrunch": 5458,
      "Ġmixing": 5459,
      "boo": 5460,
      "Ġdecorations": 5461,
      "Ġemergen": 5462,
      "Ġmelting": 5463,
      "ĠSuzy": 5464,
      "ĠDr": 5465,
      "Ġlily": 5466,
      "ety": 5467,
      "Ġlaid": 5468,
      "Ġrested": 5469,
      "Mandy": 5470,
      "Ġprotected": 5471,
      "[]": 5472,
      "ĠJul": 5473,
      "Ġsucceeded": 5474,
      "ĠSlow": 5475,
      "Ġstudied": 5476,
      "Ġwiggle": 5477,
      "Ġcones": 5478,
      "Ġshock": 5479,
      "izing": 5480,
      "ĠBoth": 5481,
      "Ġstrangers": 5482,
      "ĠRocky": 5483,
      "Ġlands": 5484,
      "Ġordered": 5485,
      "Ġtwigs": 5486,
      "Really": 5487,
      "Ġgirls": 5488,
      "!\",": 5489,
      "Ġtheirs": 5490,
      "Ġstealing": 5491,
      "Ġbrid": 5492,
      "Ġstirring": 5493,
      "Ġscreams": 5494,
      "--": 5495,
      "Ġrul": 5496,
      "Ġalright": 5497,
      "Ġmoments": 5498,
      "Ġmister": 5499,
      "avid": 5500,
      "Andy": 5501,
      "Ġbravely": 5502,
      "!'": 5503,
      "ĠNot": 5504,
      "Ġachie": 5505,
      "Or": 5506,
      "Ġinvest": 5507,
      "Ġplaytime": 5508,
      "Ġtucked": 5509,
      "ishes": 5510,
      "Ġscratched": 5511,
      "Ġarea": 5512,
      "Ġripped": 5513,
      "Ġresting": 5514,
      "Cat": 5515,
      "cl": 5516,
      "ĠClara": 5517,
      "Ġburning": 5518,
      "ored": 5519,
      "Ġbridges": 5520,
      "Ġcontain": 5521,
      "Bird": 5522,
      "Ġmatched": 5523,
      "ĠChicky": 5524,
      "please": 5525,
      "ĠAn": 5526,
      "Sammy": 5527,
      "Ġsettled": 5528,
      "Boo": 5529,
      "ids": 5530,
      "abies": 5531,
      "Ġofficer": 5532,
      "Ġwaits": 5533,
      "Fr": 5534,
      "Ġtexture": 5535,
      "mbling": 5536,
      "Peter": 5537,
      "Ġturning": 5538,
      "Happy": 5539,
      "ĠSky": 5540,
      "Un": 5541,
      "Ġtrembling": 5542,
      "Ġkeys": 5543,
      "Ġnails": 5544,
      "Ġescaped": 5545,
      "ĠJames": 5546,
      "ĠSomeone": 5547,
      "Ġmuffins": 5548,
      "Ġpiles": 5549,
      "atie": 5550,
      "Ġinvestigate": 5551,
      "Ġsore": 5552,
      "Ġbroom": 5553,
      "Ġladybug": 5554,
      "erson": 5555,
      "osity": 5556,
      "Ġadmir": 5557,
      "Ġbabies": 5558,
      "Ġsilence": 5559,
      "Ġresult": 5560,
      "Ġsisters": 5561,
      "Ġthreat": 5562,
      "ĠPepper": 5563,
      "Ġserved": 5564,
      "Ġappreciate": 5565,
      "Ġemergency": 5566,
      "Ġdads": 5567,
      "Ġslapped": 5568,
      "Ġanswers": 5569,
      "Ġsafety": 5570,
      "Ġchewing": 5571,
      "Ġimportance": 5572,
      "Would": 5573,
      "Layout": 5574,
      "ĠHop": 5575,
      "Ġwiz": 5576,
      "Ġhen": 5577,
      "lement": 5578,
      "Sp": 5579,
      "Ġpupp": 5580,
      "gr": 5581,
      "Ġkeeps": 5582,
      "ĠLater": 5583,
      "allen": 5584,
      "ype": 5585,
      "Ġsparkle": 5586,
      "Ella": 5587,
      "Ġsoared": 5588,
      "Ġtouching": 5589,
      "antly": 5590,
      "uture": 5591,
      "Ġsings": 5592,
      "igail": 5593,
      "Momo": 5594,
      "Ġchallen": 5595,
      "abel": 5596,
      "Ġwrit": 5597,
      "sn": 5598,
      "Ġamazement": 5599,
      "ĠDino": 5600,
      "Ġhesit": 5601,
      "Ġtwin": 5602,
      "Ġsoaked": 5603,
      "Ġrevealed": 5604,
      "embers": 5605,
      "zing": 5606,
      "anna": 5607,
      "Ġitems": 5608,
      "ues": 5609,
      "ĠMe": 5610,
      "\");": 5611,
      "achel": 5612,
      "Ġfoods": 5613,
      "Ġrecorded": 5614,
      "ĠZigzag": 5615,
      "Ġdinosaurs": 5616,
      "Ġrides": 5617,
      "Ġtickle": 5618,
      "Ġinch": 5619,
      "Ġvet": 5620,
      "Ġwizard": 5621,
      "Ġtrips": 5622,
      "Ġcurled": 5623,
      "Ġglowed": 5624,
      "Ġquack": 5625,
      "Mmm": 5626,
      "ĠFrog": 5627,
      "Ġshopping": 5628,
      "Ġcomponent": 5629,
      "Ġbeamed": 5630,
      "ĠSpring": 5631,
      "Ġwink": 5632,
      "Ġhated": 5633,
      "Ġhi": 5634,
      "Ġwooden": 5635,
      "Ġeats": 5636,
      "aved": 5637,
      "hello": 5638,
      "ĠBug": 5639,
      "Ġstudying": 5640,
      "Eventually": 5641,
      "Ġfuture": 5642,
      "Ġpraised": 5643,
      "ales": 5644,
      "Ġguy": 5645,
      "Ġcrawling": 5646,
      "Ġruler": 5647,
      "Ġgust": 5648,
      "Ġpossible": 5649,
      "Ġbringing": 5650,
      "Ġbrushes": 5651,
      "Ġdownstairs": 5652,
      "ĠSomething": 5653,
      "Ġmittens": 5654,
      "ĠOut": 5655,
      "Ġspaceship": 5656,
      "Ġmarks": 5657,
      "Ġtastes": 5658,
      "ĠFirst": 5659,
      "Ġflav": 5660,
      "Ġnapping": 5661,
      "Ġdot": 5662,
      "First": 5663,
      "Ġshooting": 5664,
      "Ġcollecting": 5665,
      "plash": 5666,
      "Ġcuddled": 5667,
      "Ġeff": 5668,
      "'.": 5669,
      "Ġsprinkles": 5670,
      "Ġpad": 5671,
      "Ġfamilies": 5672,
      "Ġdef": 5673,
      "ĠHappy": 5674,
      "Ġmonsters": 5675,
      "Ġmeasuring": 5676,
      "Ġthrill": 5677,
      "irts": 5678,
      "ĠStar": 5679,
      "Ġoat": 5680,
      "Ġapproached": 5681,
      "Jake": 5682,
      "Ġcrunchy": 5683,
      "Field": 5684,
      "ĠRabbit": 5685,
      "Ġproject": 5686,
      "ided": 5687,
      "Ġremembers": 5688,
      "Ġbleeding": 5689,
      "Ġnicer": 5690,
      "Ġbeat": 5691,
      "ls": 5692,
      "ding": 5693,
      "Ġdisturbed": 5694,
      "Ġsneaky": 5695,
      "uzz": 5696,
      "Ġleader": 5697,
      "Somet": 5698,
      "ĠHope": 5699,
      "Ġscaring": 5700,
      "hind": 5701,
      "Ġpeel": 5702,
      "lier": 5703,
      "Ġneighborhood": 5704,
      "Ġstrings": 5705,
      "Ġgrey": 5706,
      "Ġfiremen": 5707,
      "Ġnoon": 5708,
      "Ġrespons": 5709,
      "Emily": 5710,
      "Ġweighed": 5711,
      "ĠMo": 5712,
      "Ġmotion": 5713,
      "Ġapologized": 5714,
      "Tr": 5715,
      "ĠDid": 5716,
      "ped": 5717,
      "ern": 5718,
      "ities": 5719,
      "Ġloose": 5720,
      ".'": 5721,
      "Ġtickets": 5722,
      "Ġnaps": 5723,
      "Ġpride": 5724,
      "Ġyouth": 5725,
      "Ġswims": 5726,
      "Ġrecognized": 5727,
      "Ġworker": 5728,
      "iren": 5729,
      "Ġscrub": 5730,
      "Ġgained": 5731,
      "ha": 5732,
      "Ġsiren": 5733,
      "Ġboo": 5734,
      "Ġcrashed": 5735,
      "Ġpoking": 5736,
      "Ġwonders": 5737,
      "elvet": 5738,
      "oming": 5739,
      "Ġtricked": 5740,
      "cious": 5741,
      "fied": 5742,
      "Ġwanting": 5743,
      "Ġdraws": 5744,
      "oad": 5745,
      "Ġobe": 5746,
      "Ġopinion": 5747,
      "Ġprepared": 5748,
      "Ġseesaw": 5749,
      "Ġzooming": 5750,
      "Ġ@": 5751,
      "Ġscooped": 5752,
      "Ġgrinned": 5753,
      "Ġyelling": 5754,
      "unnies": 5755,
      "ĠAlways": 5756,
      "Ġpoems": 5757,
      "Ġhappiest": 5758,
      "Ġawe": 5759,
      "Ġdoggy": 5760,
      "ĠLizzy": 5761,
      "Ġacting": 5762,
      "ĠSlowly": 5763,
      "ĠBeep": 5764,
      "Ġsneaked": 5765,
      "Ġchef": 5766,
      "ena": 5767,
      "Ġowned": 5768,
      "oys": 5769,
      "ogo": 5770,
      "Ġknelt": 5771,
      "Ġanytime": 5772,
      "Ġpedals": 5773,
      "ays": 5774,
      "Ollie": 5775,
      "Ġsecrets": 5776,
      "Ġdecorated": 5777,
      "Ġbunnies": 5778,
      "Ġstruck": 5779,
      "umn": 5780,
      "Ġagreement": 5781,
      "Ġpause": 5782,
      "Ġtallest": 5783,
      "ĠOnce": 5784,
      "Ġhorns": 5785,
      "Remember": 5786,
      "ĠSqu": 5787,
      "Ġfrost": 5788,
      "Ġdecides": 5789,
      "ĠStop": 5790,
      "Ġobey": 5791,
      "riends": 5792,
      "Have": 5793,
      "zen": 5794,
      "Ġbehaved": 5795,
      "Time": 5796,
      "Ġloaded": 5797,
      "ien": 5798,
      "Ġtugged": 5799,
      "Ġsides": 5800,
      "Ġcustom": 5801,
      "rs": 5802,
      "Ġslim": 5803,
      "Ġrepeated": 5804,
      "Ġsparkling": 5805,
      "Ġwoof": 5806,
      "Ġkeeper": 5807,
      "...": 5808,
      "Ġchirped": 5809,
      "Ġgoodnight": 5810,
      "Ġcontro": 5811,
      "allow": 5812,
      "vers": 5813,
      "indy": 5814,
      "mother": 5815,
      "Ġprecious": 5816,
      "Ġremoved": 5817,
      "0000": 5818,
      "ĠRay": 5819,
      "Ġclaps": 5820,
      "affes": 5821,
      "Ġourselves": 5822,
      "Ġwrites": 5823,
      "Ġsnowballs": 5824,
      "Ġrele": 5825,
      "Ġgiraffes": 5826,
      "Ġbalancing": 5827,
      "Ġkindly": 5828,
      "Ġcomple": 5829,
      "ĠVaadin": 5830,
      "Ġspending": 5831,
      "ppers": 5832,
      "Ġfrozen": 5833,
      "ĠLike": 5834,
      "omas": 5835,
      "ippet": 5836,
      "Ġeffort": 5837,
      "ignal": 5838,
      "Ġhissed": 5839,
      "but": 5840,
      "Ġearlier": 5841,
      "ĠSteve": 5842,
      "ĠAm": 5843,
      "Ġfrosting": 5844,
      "anted": 5845,
      "Ġpriv": 5846,
      "ler": 5847,
      "Ġstruggled": 5848,
      "Ġbuzzing": 5849,
      "Ġpublic": 5850,
      "Ġadmiring": 5851,
      "Ġsweeties": 5852,
      "Ġpadd": 5853,
      "ĠVelvet": 5854,
      "iggy": 5855,
      "Ġslimy": 5856,
      "Ġbrushed": 5857,
      "arth": 5858,
      "Ġbloomed": 5859,
      "Ġpolished": 5860,
      "ĠZoe": 5861,
      "ĠMaggie": 5862,
      "Susie": 5863,
      "Ġcomfy": 5864,
      "Ġstaying": 5865,
      "Ġopening": 5866,
      "Ducky": 5867,
      "Ġthrilled": 5868,
      "isdom": 5869,
      "Ġexpected": 5870,
      "ĠKeep": 5871,
      "Ġbeside": 5872,
      "Ġpockets": 5873,
      "Ġmatching": 5874,
      "Ġrocking": 5875,
      "snippet": 5876,
      "Ġyesterday": 5877,
      "urry": 5878,
      "Ġrubbing": 5879,
      "oh": 5880,
      "Ġeight": 5881,
      "Ġseems": 5882,
      "Ah": 5883,
      "ĠAunt": 5884,
      "Ġmachines": 5885,
      "Ġrust": 5886,
      "ĠX": 5887,
      "Name": 5888,
      "Ġtraveled": 5889,
      "Ġboom": 5890,
      "use": 5891,
      "ĠStitch": 5892,
      "iders": 5893,
      "Ġfolding": 5894,
      "Ġradishes": 5895,
      "Ġzookeeper": 5896,
      "Ġhugging": 5897,
      "Ġcracked": 5898,
      "Ġloving": 5899,
      "Ġdeser": 5900,
      "Ġ2": 5901,
      "Ġpebbles": 5902,
      "Ġsurrounded": 5903,
      "Sometimes": 5904,
      "Ġgaze": 5905,
      "Ġspraying": 5906,
      "Ġdemanded": 5907,
      "Ġpaintings": 5908,
      "amie": 5909,
      "ĠGreen": 5910,
      "Ġcuriosity": 5911,
      "wh": 5912,
      "Ġcatches": 5913,
      "umm": 5914,
      "Ġhardly": 5915,
      "Ġsting": 5916,
      "Ġpetted": 5917,
      "Ġhonk": 5918,
      "edding": 5919,
      "Ġcircus": 5920,
      "\")": 5921,
      "Ġstripes": 5922,
      "Thanks": 5923,
      "ĠRachel": 5924,
      "Ġpots": 5925,
      "Ġpowers": 5926,
      "ĠPippa": 5927,
      "Ġuses": 5928,
      "Ġwhatever": 5929,
      "Ġsplashes": 5930,
      "int": 5931,
      "ĠDavid": 5932,
      "Ġdecision": 5933,
      "Ġtoss": 5934,
      "Ġstare": 5935,
      "ĠBree": 5936,
      "Ġbelly": 5937,
      "ana": 5938,
      "Ġapologize": 5939,
      "Yummy": 5940,
      "Ġribbons": 5941,
      "Ġcomforted": 5942,
      "Ġrocked": 5943,
      "ĠJoy": 5944,
      "ĠRe": 5945,
      "Ġstruggling": 5946,
      "ĠBirdie": 5947,
      "During": 5948,
      "Ro": 5949,
      "Ġgranted": 5950,
      "Ġsteep": 5951,
      "Ġ.": 5952,
      "ĠMat": 5953,
      "Ġneighbors": 5954,
      "pr": 5955,
      "Ġsmiley": 5956,
      "Ġchases": 5957,
      "ĠMilly": 5958,
      "Ġgoals": 5959,
      "Ġdiving": 5960,
      "Ġpurred": 5961,
      "Ġeagle": 5962,
      "Ġsadness": 5963,
      "Whiskers": 5964,
      "Ġroads": 5965,
      "Ġorganizing": 5966,
      "ĠFrank": 5967,
      "Ġdiscovery": 5968,
      "Ġlied": 5969,
      "Ġann": 5970,
      "Ġcrumb": 5971,
      "Ġheroes": 5972,
      "ĠĠĠĠĠĠĠĠĠ": 5973,
      "Ġsafer": 5974,
      "Ġtim": 5975,
      "Ġdipped": 5976,
      "ĠFor": 5977,
      "Ġargued": 5978,
      "ĠWater": 5979,
      "Ġsunlight": 5980,
      "Ġpastels": 5981,
      "oute": 5982,
      "Ġdragged": 5983,
      "ĠBouncy": 5984,
      "lay": 5985,
      "loe": 5986,
      "Ġvillag": 5987,
      "Ġdragons": 5988,
      "Ġsitu": 5989,
      "ĠChr": 5990,
      "Ġpeered": 5991,
      "Ġbuildings": 5992,
      "Ġbeard": 5993,
      "ĠAbigail": 5994,
      "Ġparties": 5995,
      "Ġbuckets": 5996,
      "ĠRobby": 5997,
      "Rex": 5998,
      "Ġwedding": 5999,
      "Ġflutter": 6000,
      "Ġreleased": 6001,
      "ĠWatch": 6002,
      "Ġpolishing": 6003,
      "Ġplanets": 6004,
      "Ġfasc": 6005,
      "Ġcrabs": 6006,
      "Ġsausages": 6007,
      "Ġprivate": 6008,
      "ĠCar": 6009,
      "Ġtails": 6010,
      "ĠGogo": 6011,
      "ira": 6012,
      "Ġargu": 6013,
      "Ġactually": 6014,
      "uke": 6015,
      "Ġclearing": 6016,
      "ĠRemember": 6017,
      "Ġwiggled": 6018,
      "Ġsled": 6019,
      "Ġcontinue": 6020,
      "Ġteased": 6021,
      "Ġarguing": 6022,
      "Ġroaring": 6023,
      "Ġbottles": 6024,
      "etail": 6025,
      "Ġcontrol": 6026,
      "Ġgathering": 6027,
      "Ġairpl": 6028,
      "Ġshirts": 6029,
      "Ġteaches": 6030,
      "Ġmovies": 6031,
      "Ġrefres": 6032,
      "Ġlimes": 6033,
      "Ġactions": 6034,
      "ĠDare": 6035,
      "Id": 6036,
      "ĠJess": 6037,
      "Ġspiders": 6038,
      "joyed": 6039,
      "ten": 6040,
      "Ġsighs": 6041,
      "ords": 6042,
      "ĠEx": 6043,
      "Ġoverjoyed": 6044,
      "Ġdrives": 6045,
      "Ġchallenge": 6046,
      "Ġcompleted": 6047,
      "Ġsmallest": 6048,
      "ĠEn": 6049,
      "Ġcuddle": 6050,
      "Ġcubes": 6051,
      "Ġsoaring": 6052,
      "Ġtalent": 6053,
      "Ġsparkles": 6054,
      "ĠSplash": 6055,
      "Ġrip": 6056,
      "ĠOlly": 6057,
      "sses": 6058,
      "Ġgrandmother": 6059,
      "Ġcuts": 6060,
      "Ġfascin": 6061,
      "Ġmane": 6062,
      "Ġbank": 6063,
      "Ġ'@": 6064,
      "Ġpeppers": 6065,
      "Ġpouring": 6066,
      "Ġpretends": 6067,
      "Ġwondering": 6068,
      "Ġcompany": 6069,
      "Ġshivered": 6070,
      "Ġquarreling": 6071,
      "Ġdusty": 6072,
      "Ġstretching": 6073,
      "Ġweeks": 6074,
      "Ġwherever": 6075,
      "Ġdarker": 6076,
      "Ġvillagers": 6077,
      "ley": 6078,
      "ĠKatie": 6079,
      "bie": 6080,
      "jam": 6081,
      "Ġonwards": 6082,
      "Tiny": 6083,
      "irm": 6084,
      "Ġrings": 6085,
      "Johnny": 6086,
      "Signal": 6087,
      "Ġcomm": 6088,
      "Ġunited": 6089,
      "ĠBeing": 6090,
      "Achoo": 6091,
      "aster": 6092,
      "Ġflags": 6093,
      "Ġcaut": 6094,
      "ĠBecause": 6095,
      "Ġbead": 6096,
      "Ġprettiest": 6097,
      "Element": 6098,
      "ĠEveryday": 6099,
      "Ġinstruct": 6100,
      "Ġrealize": 6101,
      "go": 6102,
      "ĠWisdom": 6103,
      "Ġpenguins": 6104,
      "umble": 6105,
      "Ġknights": 6106,
      "Luna": 6107,
      "âĢĿ.": 6108,
      "Ġbedtime": 6109,
      "ĠLeave": 6110,
      "annah": 6111,
      "Ġma": 6112,
      "ĠList": 6113,
      "ĠJe": 6114,
      "Ġdestination": 6115,
      "Gr": 6116,
      "Ġkites": 6117,
      "Ġthird": 6118,
      "Ġlearns": 6119,
      "Ġplayroom": 6120,
      "Ġgotten": 6121,
      "Ġpatience": 6122,
      "Ġshrug": 6123,
      "ĠZero": 6124,
      "dam": 6125,
      "Ġresponsible": 6126,
      "Mar": 6127,
      "Ġfears": 6128,
      "Ġ</": 6129,
      "aws": 6130,
      "inda": 6131,
      "ĠAva": 6132,
      "Ġreply": 6133,
      "Ġwires": 6134,
      "Ġmountains": 6135,
      "Ġdam": 6136,
      "Ġscrubbed": 6137,
      "ining": 6138,
      "ĠEarth": 6139,
      "Ġpacking": 6140,
      "Ġapplauded": 6141,
      "Ġfault": 6142,
      "Ġwrist": 6143,
      "Ġcrept": 6144,
      "Ġphot": 6145,
      "Uh": 6146,
      "Ġsatis": 6147,
      "Ġpencils": 6148,
      "Ġsticking": 6149,
      "Bad": 6150,
      "Ġwins": 6151,
      "Ġbegin": 6152,
      "Ab": 6153,
      "Ġbaker": 6154,
      "Ġvisiting": 6155,
      "Ġwound": 6156,
      "incess": 6157,
      "Ġreminder": 6158,
      "ashed": 6159,
      "Ġpeas": 6160,
      "Ġjoking": 6161,
      "Ġinstructions": 6162,
      "Ġhealed": 6163,
      "Grandpa": 6164,
      "Ġawake": 6165,
      "ĠFish": 6166,
      "Ġhitting": 6167,
      "Ġlogs": 6168,
      "Ġexample": 6169,
      "Ġwhose": 6170,
      "Ġstaring": 6171,
      "ĠPut": 6172,
      "Ġscreaming": 6173,
      "icorn": 6174,
      "An": 6175,
      "Rob": 6176,
      "Ġapplication": 6177,
      "âĢĶ": 6178,
      "().": 6179,
      "enty": 6180,
      "Ġunicorn": 6181,
      "uckily": 6182,
      "Ġcreation": 6183,
      "con": 6184,
      "Ġoutdo": 6185,
      "ĠFriends": 6186,
      "uzzy": 6187,
      "ĠMoo": 6188,
      "ica": 6189,
      "Ġhelmets": 6190,
      "Ġtasks": 6191,
      "ĠLou": 6192,
      "ĠHowever": 6193,
      "Ġexact": 6194,
      "Ġchips": 6195,
      "son": 6196,
      "',": 6197,
      "seek": 6198,
      "Ġwasted": 6199,
      "Silly": 6200,
      "Ġforgi": 6201,
      "ml": 6202,
      "Ġtowels": 6203,
      "ĠBehind": 6204,
      "Watch": 6205,
      "ility": 6206,
      "Ġmasks": 6207,
      "Ġachieve": 6208,
      "Ġactiv": 6209,
      "Ġaccom": 6210,
      "laire": 6211,
      "Ġfirefight": 6212,
      "the": 6213,
      "Ġwid": 6214,
      "emo": 6215,
      "Ġdied": 6216,
      "uddles": 6217,
      "Ġheav": 6218,
      "Ġguns": 6219,
      "Ġglitter": 6220,
      "Ġlollipops": 6221,
      "ĠHippy": 6222,
      "Ġseas": 6223,
      "ĠBy": 6224,
      "Ġcopy": 6225,
      "Ġscales": 6226,
      "Ġarrive": 6227,
      "Ġstole": 6228,
      "Ġweren": 6229,
      "Ġperched": 6230,
      "Stay": 6231,
      "Ġcandies": 6232,
      "Ġsnakes": 6233,
      "Ġpracticing": 6234,
      "Benny": 6235,
      "Ġswoop": 6236,
      "Ġpumpkins": 6237,
      "Ġbatteries": 6238,
      "Ġagrees": 6239,
      "uest": 6240,
      "Ġchirping": 6241,
      "Ġprotecting": 6242,
      "Ġparked": 6243,
      "Pe": 6244,
      "Run": 6245,
      "ĠCra": 6246,
      "ans": 6247,
      "Ġshoulders": 6248,
      "Ġpatiently": 6249,
      "Ġshelves": 6250,
      "hee": 6251,
      "Fo": 6252,
      "Ġblows": 6253,
      "Ġcrowd": 6254,
      "ners": 6255,
      "Ġaccompl": 6256,
      "For": 6257,
      "ĠBop": 6258,
      "Ġvideos": 6259,
      "Ġpromises": 6260,
      "Ġdent": 6261,
      "put": 6262,
      "Ġairplane": 6263,
      "Ġexamined": 6264,
      "jamas": 6265,
      "avi": 6266,
      "Doggy": 6267,
      "usan": 6268,
      "Ġroses": 6269,
      "Poppy": 6270,
      "Ġrequested": 6271,
      "Ġremote": 6272,
      "Dave": 6273,
      "ĠHoot": 6274,
      "Ġguest": 6275,
      "Ġbeads": 6276,
      "Ġbowls": 6277,
      "ĠCatty": 6278,
      "Ġbrand": 6279,
      "Bunny": 6280,
      "Ġlistens": 6281,
      "zes": 6282,
      "Ġcough": 6283,
      "ĠSun": 6284,
      "Pete": 6285,
      "ĠLove": 6286,
      "Ġcrumbs": 6287,
      "ĠBrownie": 6288,
      "Ġimproved": 6289,
      "Ġreplaced": 6290,
      "anta": 6291,
      "ĠOl": 6292,
      "Ġcause": 6293,
      "Ġalien": 6294,
      "ĠJan": 6295,
      "Ġdolphins": 6296,
      "Ġbunch": 6297,
      "Ġphotos": 6298,
      "Ġreaching": 6299,
      "ĠBye": 6300,
      "cakes": 6301,
      "Ġcheering": 6302,
      "Ġbene": 6303,
      "esome": 6304,
      "Ġpassing": 6305,
      "ĠCuddles": 6306,
      "Ġrule": 6307,
      "ĠChew": 6308,
      "Ġconst": 6309,
      "ayla": 6310,
      "ĠBlink": 6311,
      "ĠJulie": 6312,
      "Ġtimer": 6313,
      "value": 6314,
      "Ġneither": 6315,
      "\">": 6316,
      "Ġcans": 6317,
      "Ġadding": 6318,
      "Ġ12": 6319,
      "uly": 6320,
      "Ġstern": 6321,
      "Ġworkers": 6322,
      "Ġform": 6323,
      "ĠEnjoy": 6324,
      "Ġmisses": 6325,
      "Mike": 6326,
      "George": 6327,
      "athy": 6328,
      "Miss": 6329,
      "Ġcurtains": 6330,
      "Ġcloses": 6331,
      "Ġbeneath": 6332,
      "Ġrainbows": 6333,
      "uctantly": 6334,
      "Ġsob": 6335,
      "Ġcomplaining": 6336,
      "Chirpy": 6337,
      "Ġincluded": 6338,
      "lowers": 6339,
      "Ġpajamas": 6340,
      "Ġrolls": 6341,
      "Ġpatted": 6342,
      "Ġrubs": 6343,
      "ĠSquirrel": 6344,
      "Ġtune": 6345,
      "Ġoutdoors": 6346,
      "ĠMouse": 6347,
      "ĠPrincess": 6348,
      "ilo": 6349,
      "ĠAbby": 6350,
      "Lola": 6351,
      "Ġlap": 6352,
      "Ġrefuse": 6353,
      "Ġdrums": 6354,
      "Ġfaced": 6355,
      "Ġsweat": 6356,
      "Ġfilling": 6357,
      "ĠBeth": 6358,
      "Ġexactly": 6359,
      "lict": 6360,
      "Ġseven": 6361,
      "Ġbalanced": 6362,
      "angled": 6363,
      "ĠSorry": 6364,
      "Ġconflict": 6365,
      "Ġpuppet": 6366,
      "Ġintroduc": 6367,
      "neath": 6368,
      "Ġtype": 6369,
      "Ġquacked": 6370,
      "Ġrescued": 6371,
      "Paul": 6372,
      "Ġawesome": 6373,
      "icker": 6374,
      "Ġmission": 6375,
      "item": 6376,
      "Ġobserved": 6377,
      "ical": 6378,
      "Ġguys": 6379,
      "ĠYes": 6380,
      "Ġvent": 6381,
      "Ġuser": 6382,
      "Ġhelpers": 6383,
      "istle": 6384,
      "ĠThomas": 6385,
      "nie": 6386,
      "Ġcautious": 6387,
      "ody": 6388,
      "ĠOur": 6389,
      "Ġmes": 6390,
      "Ġbecoming": 6391,
      "Ġpastries": 6392,
      "you": 6393,
      "Ġpoliceman": 6394,
      "Ġdoctors": 6395,
      "Ġrockets": 6396,
      "Ġloading": 6397,
      "Ġblooming": 6398,
      "arter": 6399,
      "Ġpout": 6400,
      "Ġinsist": 6401,
      "ĠGet": 6402,
      "Ġfairies": 6403,
      "ĠSad": 6404,
      "Ġtractor": 6405,
      "ĠDot": 6406,
      "Ġfarther": 6407,
      "Ġrecording": 6408,
      "Zoom": 6409,
      "Oops": 6410,
      "dies": 6411,
      "Some": 6412,
      "Ġteamwork": 6413,
      "Ġclick": 6414,
      "ument": 6415,
      "Great": 6416,
      "zie": 6417,
      "Ġcaused": 6418,
      "Fine": 6419,
      "Ġremembering": 6420,
      "ĠCom": 6421,
      "Ġcurly": 6422,
      "Ġtruly": 6423,
      "acob": 6424,
      "Ġfascinated": 6425,
      "form": 6426,
      "Ġsights": 6427,
      "Ġsituation": 6428,
      "sm": 6429,
      "Ġslam": 6430,
      "Ġstays": 6431,
      "erty": 6432,
      "Ġfirm": 6433,
      "field": 6434,
      "Ġwobbled": 6435,
      "ĠJilly": 6436,
      "Ġpaddle": 6437,
      "Henry": 6438,
      "demo": 6439,
      "Ġstumble": 6440,
      "sty": 6441,
      "Ġspong": 6442,
      "Ġusually": 6443,
      "Ġprayer": 6444,
      "Ġtraded": 6445,
      "Ġstarfish": 6446,
      "Ġtables": 6447,
      "Ġneighbourhood": 6448,
      "uration": 6449,
      "Ġsupplies": 6450,
      "eah": 6451,
      "Ġthro": 6452,
      "kelly": 6453,
      "Ġinviting": 6454,
      "Ġpointy": 6455,
      "gers": 6456,
      "ĠSc": 6457,
      "ĠAlly": 6458,
      "Ġvalued": 6459,
      "Ġeveryday": 6460,
      "Ġbare": 6461,
      "ais": 6462,
      "inkle": 6463,
      "Ġreluctantly": 6464,
      "Ġ->": 6465,
      "Ġornaments": 6466,
      "ĠTwo": 6467,
      "Ġprettier": 6468,
      "Ġdots": 6469,
      "araway": 6470,
      "Ġsolut": 6471,
      "ho": 6472,
      "Ġdesert": 6473,
      "Ġsnowmen": 6474,
      "Ġsteady": 6475,
      "Ġfaraway": 6476,
      "Ġglasses": 6477,
      "Ġminerals": 6478,
      "Ġextend": 6479,
      "Ġast": 6480,
      "Days": 6481,
      "Ġthorn": 6482,
      "Ġcreating": 6483,
      "Con": 6484,
      "Ġunf": 6485,
      "Ġusual": 6486,
      "Ġsurface": 6487,
      "ults": 6488,
      "ĠQuick": 6489,
      "ĠFoxy": 6490,
      "ĠSure": 6491,
      "Ġswooped": 6492,
      "ĠWelcome": 6493,
      "Ġforks": 6494,
      "Ġdar": 6495,
      "Ġprovided": 6496,
      "00000": 6497,
      "Ġreads": 6498,
      "ĠJamie": 6499,
      "Ġwinked": 6500,
      "Ġpans": 6501,
      "Ġsneezing": 6502,
      "Ġsponge": 6503,
      "Dog": 6504,
      "ĠSanta": 6505,
      "ĠJosh": 6506,
      "James": 6507,
      "...\"": 6508,
      "Polly": 6509,
      "Value": 6510,
      "Ġavo": 6511,
      "Ġinsects": 6512,
      "ĠChloe": 6513,
      "Ġsobbed": 6514,
      "Ġgrowling": 6515,
      "Ġcent": 6516,
      "agull": 6517,
      "Ġthroat": 6518,
      "Ġnoses": 6519,
      "ĠWant": 6520,
      "Ġhomework": 6521,
      "Ġbadge": 6522,
      "Ġscarves": 6523,
      "Ġconfident": 6524,
      "Ġwindy": 6525,
      "ĠStay": 6526,
      "ĠDizzy": 6527,
      "lect": 6528,
      "Ġsuperheroes": 6529,
      "ĠKids": 6530,
      "Ġsmarter": 6531,
      "Ġdirect": 6532,
      "Ġyourselves": 6533,
      "Hold": 6534,
      "iar": 6535,
      "ora": 6536,
      "Ġunderneath": 6537,
      "Joey": 6538,
      "though": 6539,
      "ĠMon": 6540,
      "Tina": 6541,
      "Ġkicks": 6542,
      "de": 6543,
      "Ġlibrarian": 6544,
      "ption": 6545,
      "coon": 6546,
      "Ġknowled": 6547,
      "Ġitchy": 6548,
      "Ġconn": 6549,
      "Ġdirection": 6550,
      "Ġgems": 6551,
      "Ġwarnings": 6552,
      "Ġknowledge": 6553,
      "True": 6554,
      "ĠDuck": 6555,
      "Ġuntie": 6556,
      "Ġjackets": 6557,
      "ĠHenny": 6558,
      "Ġchoo": 6559,
      "Ġdelivered": 6560,
      "Ġprincesses": 6561,
      "Ġdesp": 6562,
      "ĠSkelly": 6563,
      "ido": 6564,
      "Yeah": 6565,
      "lection": 6566,
      "Those": 6567,
      "Our": 6568,
      "eed": 6569,
      "ĠMix": 6570,
      "Ġropes": 6571,
      "Ġsquares": 6572,
      "Ġgiggling": 6573,
      "oke": 6574,
      "âĢī": 6575,
      "vin": 6576,
      "Ġyounger": 6577,
      "Ġclowns": 6578,
      "Ġseagull": 6579,
      "Ġbiting": 6580,
      "Ġcovers": 6581,
      "Ġwears": 6582,
      "ĠUnfortunately": 6583,
      "Toby": 6584,
      "ouch": 6585,
      "Danny": 6586,
      "Ew": 6587,
      "date": 6588,
      "Ġcomplained": 6589,
      "Ġtwirl": 6590,
      "Ġbuzzed": 6591,
      "Ġrisk": 6592,
      "Ġdeal": 6593,
      "Mrs": 6594,
      "Ġpaddled": 6595,
      "ition": 6596,
      "anging": 6597,
      "Ġstem": 6598,
      "Ġonions": 6599,
      "Ġbumpy": 6600,
      "Ġpiggy": 6601,
      "Ġdived": 6602,
      "Ġstartled": 6603,
      "ĠAnne": 6604,
      "Ġleaning": 6605,
      "Roar": 6606,
      "Ġtangled": 6607,
      "Pr": 6608,
      "ĠAnt": 6609,
      "lled": 6610,
      "Ġunp": 6611,
      "ments": 6612,
      "ĠJones": 6613,
      "Ġwritten": 6614,
      "ĠĠĊ": 6615,
      "ces": 6616,
      "Grace": 6617,
      "anes": 6618,
      "Ġvowed": 6619,
      "Shh": 6620,
      "Annie": 6621,
      "Ġnapkins": 6622,
      "Ġimages": 6623,
      "Ġrefreshed": 6624,
      "Ġtickled": 6625,
      "Ġpec": 6626,
      "Ġyells": 6627,
      "Ġentire": 6628,
      "lings": 6629,
      "ault": 6630,
      "Ġchoices": 6631,
      "Ġknocks": 6632,
      "Ġsatisfied": 6633,
      "Ġcous": 6634,
      "Com": 6635,
      "tuce": 6636,
      "Ġhides": 6637,
      "ĠDodo": 6638,
      "Maggie": 6639,
      "Ġarrows": 6640,
      "ĠTree": 6641,
      "ĠRover": 6642,
      "Ġspeaking": 6643,
      "Unfortunately": 6644,
      "Ġintroduced": 6645,
      "Ġlettuce": 6646,
      "Ġwipes": 6647,
      "ĠWhistle": 6648,
      "Ġsigned": 6649,
      "amb": 6650,
      "Ġripe": 6651,
      "Buzz": 6652,
      "Ġslower": 6653,
      "Ġguessing": 6654,
      "cuse": 6655,
      "Ġseeker": 6656,
      "ĠQuack": 6657,
      "Sophie": 6658,
      "Ġfroze": 6659,
      "Person": 6660,
      "Ġmarked": 6661,
      "Ġsinger": 6662,
      "Sc": 6663,
      "ĠSusan": 6664,
      "Ġchat": 6665,
      "Ġextends": 6666,
      "Ġjoked": 6667,
      "Ġexplorers": 6668,
      "Ġpraying": 6669,
      "Ġleast": 6670,
      "len": 6671,
      "Ġdiscovering": 6672,
      "Ġgreet": 6673,
      "uggles": 6674,
      "Ġtoaster": 6675,
      "Ġ5": 6676,
      "ĠDara": 6677,
      "Ġsqueal": 6678,
      "Ġpaying": 6679,
      "ences": 6680,
      "umo": 6681,
      "Excuse": 6682,
      "Ġleading": 6683,
      "Ġrestored": 6684,
      "ĠJeff": 6685,
      "ĠSw": 6686,
      "fig": 6687,
      "Ġmushrooms": 6688,
      "cc": 6689,
      "cher": 6690,
      "ĠLion": 6691,
      "sequ": 6692,
      "ĠPaws": 6693,
      "Ġmagnets": 6694,
      "fit": 6695,
      "Ġdata": 6696,
      "?\",": 6697,
      "Ġknees": 6698,
      "Ġhider": 6699,
      "Ġwandering": 6700,
      "Ġbarely": 6701,
      "Charlie": 6702,
      "aa": 6703,
      "ĠWink": 6704,
      "Ġbehaving": 6705,
      "Ġstung": 6706,
      "Ġproperly": 6707,
      "ados": 6708,
      "line": 6709,
      "Ġhowever": 6710,
      "Ġpartic": 6711,
      "brush": 6712,
      "Ġtipto": 6713,
      "ĠAsh": 6714,
      "ervice": 6715,
      "ky": 6716,
      "Big": 6717,
      "Sn": 6718,
      "Teddy": 6719,
      "Ġnine": 6720,
      "Ġchuck": 6721,
      "oline": 6722,
      "rink": 6723,
      "Ġbravery": 6724,
      "ĠDee": 6725,
      "usted": 6726,
      "Ġmuscle": 6727,
      "Ġcompetition": 6728,
      "Ġblocking": 6729,
      "Ġwishing": 6730,
      "ĠBetsy": 6731,
      "ĠSnuggles": 6732,
      "Ġventured": 6733,
      "layout": 6734,
      "Ġoutfit": 6735,
      "Ġbak": 6736,
      "Ġconsequ": 6737,
      "Ġmatters": 6738,
      "Ġranger": 6739,
      "Ġdeserve": 6740,
      "iles": 6741,
      "Ġsalty": 6742,
      "Ġgears": 6743,
      "ĠZiggy": 6744,
      "Ġperformed": 6745,
      "tle": 6746,
      "js": 6747,
      "Ġdances": 6748,
      "rrr": 6749,
      "Ġburst": 6750,
      "Ġpens": 6751,
      "itely": 6752,
      "Ġdarkness": 6753,
      "Ġchefs": 6754,
      "Ġvines": 6755,
      "Ġcobwebs": 6756,
      "Ġfab": 6757,
      "Ġrainy": 6758,
      "Ġruining": 6759,
      "Ġscur": 6760,
      "However": 6761,
      "Ġfabric": 6762,
      "pen": 6763,
      "Ġ--": 6764,
      "Ġavocados": 6765,
      "ĠBuggy": 6766,
      "Ġbasement": 6767,
      "etails": 6768,
      "Ġconfig": 6769,
      "Ġscratches": 6770,
      ").": 6771,
      "Col": 6772,
      "Ġsingle": 6773,
      "Ġheavier": 6774,
      "${": 6775,
      "Ġjobs": 6776,
      "Listen": 6777,
      "Route": 6778,
      "Data": 6779,
      "Ġlosing": 6780,
      "fl": 6781,
      "Ġtwirling": 6782,
      "ĠClaire": 6783,
      "ĠJenna": 6784,
      "ophia": 6785,
      "oor": 6786,
      "Ġmints": 6787,
      "Ġscurried": 6788,
      "izont": 6789,
      "Ġwraps": 6790,
      "Ġsilent": 6791,
      "Ġsolution": 6792,
      "Tweet": 6793,
      "no": 6794,
      "ĠLuke": 6795,
      "ĠLinda": 6796,
      "Ġswords": 6797,
      "react": 6798,
      "Follow": 6799,
      "Ġflames": 6800,
      "Ġsnat": 6801,
      "Ġnecklaces": 6802,
      "Ġsunflowers": 6803,
      "ĠLaser": 6804,
      "enie": 6805,
      "bly": 6806,
      "Jerry": 6807,
      "Ġrainco": 6808,
      "Ġtricky": 6809,
      "Ġrelief": 6810,
      "Ġrotting": 6811,
      "grid": 6812,
      "ĠCrab": 6813,
      "Ġsewed": 6814,
      "Ġlighter": 6815,
      "Ġexha": 6816,
      "Ġgrid": 6817,
      "eal": 6818,
      "Ġconsequences": 6819,
      "ĠLena": 6820,
      "ĠGrumpy": 6821,
      "Ġstain": 6822,
      "Alex": 6823,
      "Ġbows": 6824,
      "Java": 6825,
      "umbled": 6826,
      "ĠSkip": 6827,
      "Ġpins": 6828,
      "Ġunpacked": 6829,
      "Ġbehavi": 6830,
      "Beep": 6831,
      "Ġsib": 6832,
      "rance": 6833,
      "Ġtires": 6834,
      "Ġparticular": 6835,
      "Ġbacked": 6836,
      "public": 6837,
      "bbie": 6838,
      "Ġbumps": 6839,
      "izontal": 6840,
      "Ġdecorating": 6841,
      "Ġwow": 6842,
      "Ġraces": 6843,
      "Ġmonth": 6844,
      "aterial": 6845,
      "Ġaccomplish": 6846,
      "step": 6847,
      "Ġdentist": 6848,
      "ĠThose": 6849,
      "ept": 6850,
      "Ġannoy": 6851,
      "Ġgroups": 6852,
      "cted": 6853,
      "Ġpurr": 6854,
      "Ġreason": 6855,
      "aisies": 6856,
      "Ġlifting": 6857,
      "Ġneedles": 6858,
      "Ġcautiously": 6859,
      "Ġgrowls": 6860,
      "Ġhesitated": 6861,
      "aura": 6862,
      "Ġgrows": 6863,
      "izzie": 6864,
      "sure": 6865,
      "Ġbodies": 6866,
      "Ġdaisies": 6867,
      "Ġtriangles": 6868,
      "Ġcrackers": 6869,
      "Tw": 6870,
      "Ġmaterial": 6871,
      "Ġgri": 6872,
      "Ġcott": 6873,
      "Ġfact": 6874,
      "Ġavoid": 6875,
      "ĠFido": 6876,
      "Ġgrabbing": 6877,
      "ĠAdam": 6878,
      "Ġbuying": 6879,
      "Ġfigured": 6880,
      "Ġchanges": 6881,
      "ĠEl": 6882,
      "urity": 6883,
      "ĠJessie": 6884,
      "Ġstomped": 6885,
      "Ġties": 6886,
      "Ġsweets": 6887,
      "Ġinterested": 6888,
      "agic": 6889,
      "ĠUp": 6890,
      "ĠGoodbye": 6891,
      "Ġcheeks": 6892,
      "Ġflavor": 6893,
      "Ġbakery": 6894,
      "ĠRolly": 6895,
      "rent": 6896,
      "itches": 6897,
      "Ġswans": 6898,
      "Ġforehead": 6899,
      "elle": 6900,
      "vroom": 6901,
      "Ġowners": 6902,
      "ride": 6903,
      "Ġden": 6904,
      "Ġrepa": 6905,
      "Ġsuffering": 6906,
      "etty": 6907,
      "Harry": 6908,
      "Button": 6909,
      "Lilly": 6910,
      "ĠCathy": 6911,
      "ĠNana": 6912,
      "ĠNothing": 6913,
      "Ġvaadin": 6914,
      "Ġthud": 6915,
      "Ġlungs": 6916,
      "ĠListen": 6917,
      "Ġfreed": 6918,
      "Ġchuckled": 6919,
      "ĠTry": 6920,
      "lets": 6921,
      "Ġcompletely": 6922,
      "oll": 6923,
      "Ġsense": 6924,
      "ĠMilo": 6925,
      "Ġtwinkling": 6926,
      "Ġexhausted": 6927,
      "Ġswept": 6928,
      "rosty": 6929,
      "Ġobjects": 6930,
      "ĠQ": 6931,
      "Ġworries": 6932,
      "Ġtunnels": 6933,
      "Ġdarling": 6934,
      "Ġfeast": 6935,
      "Ġactivities": 6936,
      "ror": 6937,
      "Ġtapped": 6938,
      "Ġnect": 6939,
      "Ġrepaired": 6940,
      "Ġnectar": 6941,
      "Event": 6942,
      "indr": 6943,
      "arget": 6944,
      "itted": 6945,
      "ĠTrust": 6946,
      "Ġplenty": 6947,
      "ĠBall": 6948,
      "Ġvar": 6949,
      "band": 6950,
      "Ġentrance": 6951,
      "ĠCopper": 6952,
      "Ġmailed": 6953,
      "Ġpecked": 6954,
      "Ġcuddly": 6955,
      "Ġnests": 6956,
      "ĠSnap": 6957,
      "Ġfuzzy": 6958,
      "Ġraindr": 6959,
      "Ġwaiter": 6960,
      "Ġcolored": 6961,
      "Ġmeals": 6962,
      "Ġmer": 6963,
      "Ġdesigned": 6964,
      "ĠHannah": 6965,
      "Ġpeeking": 6966,
      "Ġage": 6967,
      "Ġleap": 6968,
      "Ġlamb": 6969,
      "Ġslammed": 6970,
      "ossible": 6971,
      "Ġplayers": 6972,
      "Ġplain": 6973,
      "={": 6974,
      "ĠBirthday": 6975,
      "Ġhandful": 6976,
      "Ġsource": 6977,
      "arky": 6978,
      "Ġscra": 6979,
      "Ġchanging": 6980,
      "May": 6981,
      "ĠCara": 6982,
      "Ġforgets": 6983,
      "Ġfeeding": 6984,
      "Ġbudge": 6985,
      "Ġpassports": 6986,
      "aven": 6987,
      "Ġopp": 6988,
      "?'": 6989,
      "ĠOliver": 6990,
      "iggie": 6991,
      "Ġstool": 6992,
      "ĠPup": 6993,
      "Ġimpossible": 6994,
      "Ġcounts": 6995,
      "ĠSuzie": 6996,
      "lephant": 6997,
      "Ġtalks": 6998,
      "Ġgenie": 6999,
      "Ġfires": 7000,
      "Ġbaths": 7001,
      "Ġbars": 7002,
      "retch": 7003,
      "Ġprinting": 7004,
      "ters": 7005,
      "ives": 7006,
      "Ġdetermination": 7007,
      "Ġseparated": 7008,
      "ĠChrist": 7009,
      "By": 7010,
      "Cont": 7011,
      "Ġfilms": 7012,
      "Ġspikes": 7013,
      "Ġlower": 7014,
      "));": 7015,
      "ĠOther": 7016,
      "Ġbuses": 7017,
      "Ġspreading": 7018,
      "boat": 7019,
      "Ġhonked": 7020,
      "Ġsteer": 7021,
      "Ġsupported": 7022,
      "ueen": 7023,
      "Ġstolen": 7024,
      "Whee": 7025,
      "orizontal": 7026,
      "Ġwiping": 7027,
      "Ġsuitcase": 7028,
      "ĠRain": 7029,
      "ĠMatt": 7030,
      "Ġsiblings": 7031,
      "Ġchop": 7032,
      "nies": 7033,
      "Ġcowb": 7034,
      "ĠTwinkle": 7035,
      "Ġbackward": 7036,
      "over": 7037,
      "river": 7038,
      "Ġsewing": 7039,
      "Ġliqu": 7040,
      "Ġfever": 7041,
      "Ġpaths": 7042,
      "Ġcelebration": 7043,
      "Ġhops": 7044,
      "ĠPeanut": 7045,
      "Ġaff": 7046,
      "Ġcamping": 7047,
      "Ġtwinkle": 7048,
      "Sunny": 7049,
      "lee": 7050,
      "Ġshrinking": 7051,
      "Ġlabels": 7052,
      "Ġtwice": 7053,
      "Ġsnatched": 7054,
      "yes": 7055,
      "icon": 7056,
      "Ġdollhouse": 7057,
      "ĠBloom": 7058,
      "ĠMira": 7059,
      "itched": 7060,
      "Ġcor": 7061,
      "Ġfinal": 7062,
      "Ġrecommended": 7063,
      "mas": 7064,
      "Ġsy": 7065,
      "ĠJacob": 7066,
      "Ġsquealed": 7067,
      "Ġcash": 7068,
      "Ġcelebrating": 7069,
      "Ġsway": 7070,
      "ĠMel": 7071,
      "ĠJessica": 7072,
      "Ġdropping": 7073,
      "ĠString": 7074,
      "rious": 7075,
      "Ġache": 7076,
      "Ġ10": 7077,
      "ĠGina": 7078,
      "Ġkittens": 7079,
      "Ġhus": 7080,
      "ĠOnly": 7081,
      "Rose": 7082,
      "igning": 7083,
      "Ġkings": 7084,
      "ĠKit": 7085,
      "Ġtouches": 7086,
      "Sandy": 7087,
      "Ġwrapping": 7088,
      "using": 7089,
      "Ġshops": 7090,
      "weed": 7091,
      "cope": 7092,
      "Ġspat": 7093,
      "ager": 7094,
      "ode": 7095,
      "rig": 7096,
      "//": 7097,
      "Ġpancakes": 7098,
      "ĠFrosty": 7099,
      "Ġthrown": 7100,
      "Ġstudents": 7101,
      "View": 7102,
      "Ġcalmed": 7103,
      "airy": 7104,
      "ĠHold": 7105,
      "roduct": 7106,
      "Ġstroked": 7107,
      "Millie": 7108,
      "Pipp": 7109,
      "Ġuntied": 7110,
      "Service": 7111,
      "hog": 7112,
      "ĠJon": 7113,
      "ontend": 7114,
      "cky": 7115,
      "Ġtwisting": 7116,
      "Ġliquid": 7117,
      "hi": 7118,
      "Ġrotten": 7119,
      "Ġsomebody": 7120,
      "Ġseaweed": 7121,
      "ĠNina": 7122,
      "Ġincluding": 7123,
      "Ġplayhouse": 7124,
      "Ġsquish": 7125,
      "Out": 7126,
      "Text": 7127,
      "Ġastron": 7128,
      "java": 7129,
      "Ġbracelets": 7130,
      "aren": 7131,
      "Ġwakes": 7132,
      "Ġloops": 7133,
      "Ġscrews": 7134,
      "Ġinter": 7135,
      "Ġplanning": 7136,
      "ĠJava": 7137,
      "Ġpuppies": 7138,
      "Ġastronaut": 7139,
      "Ġreflection": 7140,
      "Luckily": 7141,
      "ĠWoof": 7142,
      "iding": 7143,
      "Ġaimed": 7144,
      "immer": 7145,
      "ammy": 7146,
      "Ġblocked": 7147,
      "Ġskunk": 7148,
      "Ġfirefly": 7149,
      "Ġtramp": 7150,
      "Ġdancers": 7151,
      "ĠWithout": 7152,
      "Ġshoo": 7153,
      "ically": 7154,
      "Ġdirections": 7155,
      "Ġpennies": 7156,
      "Ġsparks": 7157,
      "Ġposter": 7158,
      "Ġrewarded": 7159,
      "Ġincreased": 7160,
      "Ġlifts": 7161,
      "Ġ*": 7162,
      "Ġmarker": 7163,
      "Take": 7164,
      "Ġhusband": 7165,
      "Dan": 7166,
      "endy": 7167,
      "arac": 7168,
      "ĠMic": 7169,
      "Ġleads": 7170,
      "ession": 7171,
      "Ġbeginning": 7172,
      "yan": 7173,
      "jo": 7174,
      "ĠYesterday": 7175,
      "uppy": 7176,
      "Ġclues": 7177,
      "ĠâĢĺ": 7178,
      "ĠChristmas": 7179,
      "esp": 7180,
      "ura": 7181,
      "this": 7182,
      "Ġrising": 7183,
      "ingo": 7184,
      "Ġcousin": 7185,
      "iam": 7186,
      "Ġty": 7187,
      "Under": 7188,
      "yond": 7189,
      "Ġbeyond": 7190,
      "Ġdod": 7191,
      "ĠRollie": 7192,
      "ertain": 7193,
      "Ġtrampoline": 7194,
      "Kate": 7195,
      "Ġforgetting": 7196,
      "Ġloc": 7197,
      "rigued": 7198,
      "ivity": 7199,
      "Ġ4": 7200,
      "Ġpouted": 7201,
      "Bo": 7202,
      "Jump": 7203,
      "Ġsan": 7204,
      "Ġstorekeeper": 7205,
      "Ġborrowed": 7206,
      "Ġhedgehog": 7207,
      "Ġcountryside": 7208,
      "Ġmesmer": 7209,
      "erties": 7210,
      "ĠFire": 7211,
      "ĠRich": 7212,
      "ĠTara": 7213,
      "ĠJay": 7214,
      "Ġfrowning": 7215,
      "Ġzebras": 7216,
      "Ġsnowfl": 7217,
      "Ġpresses": 7218,
      "Ġvehicles": 7219,
      "ĠKayla": 7220,
      "Pat": 7221,
      "iti": 7222,
      "ades": 7223,
      "ĠBiggie": 7224,
      "Ġhealth": 7225,
      "Zip": 7226,
      "ivery": 7227,
      "Ġfiles": 7228,
      "Ġfart": 7229,
      "Ġwhispers": 7230,
      "Ġcharac": 7231,
      "Ġlaying": 7232,
      "Ġdamage": 7233,
      "ĠQueen": 7234,
      "Ġcomponents": 7235,
      "new": 7236,
      "ĠRobo": 7237,
      "Ġflapping": 7238,
      "Ġperformance": 7239,
      "Rend": 7240,
      "Ġswimsuit": 7241,
      "Ġwarmer": 7242,
      "illed": 7243,
      "Ġregretted": 7244,
      "Ġrains": 7245,
      "Ġslips": 7246,
      "armer": 7247,
      "ĠElephant": 7248,
      "Ġglued": 7249,
      "Ġtiptoed": 7250,
      "lling": 7251,
      "Ġeverybody": 7252,
      "ification": 7253,
      "Ġ15": 7254,
      "Ġyelp": 7255,
      "ael": 7256,
      "div": 7257,
      "Ġcushions": 7258,
      "Ġdefault": 7259,
      "ĠMoon": 7260,
      "ĠJulia": 7261,
      "iversity": 7262,
      "Ġcolder": 7263,
      "Ġcreations": 7264,
      "ĠSparky": 7265,
      "angle": 7266,
      "Ġfits": 7267,
      "Always": 7268,
      "Ġswir": 7269,
      "Ġshown": 7270,
      "Ġhearing": 7271,
      "Ġfins": 7272,
      "Ġrusty": 7273,
      "Ġshaped": 7274,
      "Ġstreets": 7275,
      "Ġfarthest": 7276,
      "Ġsale": 7277,
      "Ġbells": 7278,
      "essage": 7279,
      "Ġends": 7280,
      "Ġstrongest": 7281,
      "Ġcreativity": 7282,
      "itle": 7283,
      "lean": 7284,
      "Milly": 7285,
      "Column": 7286,
      "ĠMikey": 7287,
      "ibbit": 7288,
      "Ġsank": 7289,
      "Ġlending": 7290,
      "Ġearn": 7291,
      "eese": 7292,
      "Ġstopping": 7293,
      "Ġdollars": 7294,
      "ĠChirp": 7295,
      "Ġcashier": 7296,
      "Ġwobbly": 7297,
      "Ġguests": 7298,
      "Ġspells": 7299,
      "Ġsniffs": 7300,
      "ĠLarry": 7301,
      "Ġtrembled": 7302,
      "Ġindeed": 7303,
      "Ġraincoat": 7304,
      "stick": 7305,
      "Ġseconds": 7306,
      "ĠTake": 7307,
      "cho": 7308,
      "ĠSnowman": 7309,
      "Ġtarget": 7310,
      "Ġrather": 7311,
      "imon": 7312,
      "inder": 7313,
      "Ġsurprising": 7314,
      "Ġhopeful": 7315,
      "ĠMissy": 7316,
      "Bear": 7317,
      "Ġbelts": 7318,
      "ichael": 7319,
      "uing": 7320,
      "Ġproperty": 7321,
      "Ġsuffered": 7322,
      "button": 7323,
      "Ġseasons": 7324,
      "Ġgross": 7325,
      "Ġspins": 7326,
      "ĠEls": 7327,
      "Ġencourag": 7328,
      "Bill": 7329,
      "eet": 7330,
      "erm": 7331,
      "Ġslowed": 7332,
      "Ġplans": 7333,
      "Quack": 7334,
      "Ġforgiving": 7335,
      "ĠWoo": 7336,
      "Ġvanilla": 7337,
      "Ġstands": 7338,
      "Ġartist": 7339,
      "Ġraindrops": 7340,
      "Nina": 7341,
      "bbled": 7342,
      "itude": 7343,
      "Ġflavors": 7344,
      "iece": 7345,
      "Ġdelivery": 7346,
      "Ġcenter": 7347,
      "Ġturtles": 7348,
      "obody": 7349,
      "Ġraccoon": 7350,
      "ific": 7351,
      "atur": 7352,
      "Ġbeam": 7353,
      "Ġpours": 7354,
      "Ser": 7355,
      "uess": 7356,
      "ĠPlay": 7357,
      "Ġsending": 7358,
      "Ġdie": 7359,
      "Ġcorners": 7360,
      "Ġpops": 7361,
      "Ġgeese": 7362,
      "Theme": 7363,
      "Ġvoid": 7364,
      "Ġrecipe": 7365,
      "Ġtying": 7366,
      "Ġdrivers": 7367,
      "Ġdrawn": 7368,
      "Ġrobber": 7369,
      "Vroom": 7370,
      "String": 7371,
      "Ġgrip": 7372,
      "Ġhallway": 7373,
      "Ġmoo": 7374,
      "Ġwilling": 7375,
      "ĠIzzy": 7376,
      "elia": 7377,
      "Grid": 7378,
      "Ġcorre": 7379,
      "Ġwept": 7380,
      "Ġwidened": 7381,
      "Ġqueens": 7382,
      "Mine": 7383,
      "ĠBones": 7384,
      "Ġimagining": 7385,
      "ĠSophia": 7386,
      "ĠLumo": 7387,
      "Ġsailboat": 7388,
      "Ġnotes": 7389,
      "Ġaside": 7390,
      "Ġadult": 7391,
      "tml": 7392,
      "ĠPam": 7393,
      "ĠSpirit": 7394,
      "Ġpreparing": 7395,
      "Ġunsure": 7396,
      "reate": 7397,
      "Ġexce": 7398,
      "Ġsofter": 7399,
      "Ġgrocer": 7400,
      "Ġachieved": 7401,
      "Ġtalented": 7402,
      "Ġwatering": 7403,
      "Lulu": 7404,
      "ĠApp": 7405,
      "ĠFuzzy": 7406,
      "Ġcoop": 7407,
      "Ġamong": 7408,
      "Ġprod": 7409,
      "ummies": 7410,
      "Ġtipped": 7411,
      "Ġdelivering": 7412,
      "load": 7413,
      "Ġtreehouse": 7414,
      "Ġsailors": 7415,
      "Ġexpress": 7416,
      "ĠCindy": 7417,
      "Ġknots": 7418,
      "Che": 7419,
      "Ġserver": 7420,
      "alph": 7421,
      "Ġhoriz": 7422,
      "Ġfigures": 7423,
      "ĠBeaky": 7424,
      "igers": 7425,
      "ĠAura": 7426,
      "Ġecho": 7427,
      "ĠStella": 7428,
      "ĠLizzie": 7429,
      "child": 7430,
      "Ġsymbols": 7431,
      "Ġhorizon": 7432,
      "Ellie": 7433,
      "Ġsqueak": 7434,
      "Ġangels": 7435,
      "Ġpleasure": 7436,
      "Clara": 7437,
      "ĠRobert": 7438,
      "Ġblinking": 7439,
      "Ġbackwards": 7440,
      "Ġcuriously": 7441,
      "Ġyum": 7442,
      "Ġhour": 7443,
      "abled": 7444,
      "Ġhotter": 7445,
      "Ġtiss": 7446,
      "Ġtweet": 7447,
      "ĠRudy": 7448,
      "Ġpupils": 7449,
      "Get": 7450,
      "Ġcoup": 7451,
      "ative": 7452,
      "ĠJune": 7453,
      "ĠStretch": 7454,
      "Ġburrow": 7455,
      "Ġheading": 7456,
      "Ġpigeons": 7457,
      "Ġtummies": 7458,
      "Ġbandages": 7459,
      "Ġpassen": 7460,
      "oint": 7461,
      "Ġrobots": 7462,
      "Ġtossed": 7463,
      "Ġaccomplishment": 7464,
      "wk": 7465,
      "ĠĠĠĠĠĠĠĠĠĠĠĠĠĠĠĠĠĠĠ": 7466,
      "Baby": 7467,
      "oey": 7468,
      "cited": 7469,
      "ĠTiti": 7470,
      "ipper": 7471,
      "Ġroars": 7472,
      "Ġunw": 7473,
      "Dolly": 7474,
      "ĠDoctor": 7475,
      "Very": 7476,
      "text": 7477,
      "ushing": 7478,
      "Ġmerma": 7479,
      "Maria": 7480,
      "Ġgroceries": 7481,
      "Co": 7482,
      "Put": 7483,
      "ĠSl": 7484,
      "Jul": 7485,
      "Ġsecure": 7486,
      "Ġafterwards": 7487,
      "Ġguide": 7488,
      "Ġicing": 7489,
      "Ġblown": 7490,
      "uments": 7491,
      "Quick": 7492,
      "Ġrumble": 7493,
      "ighting": 7494,
      "Ġzipping": 7495,
      "Moo": 7496,
      "!âĢĿ.": 7497,
      "Ruby": 7498,
      "Ġovercome": 7499,
      "Ġapply": 7500,
      "Ġstyles": 7501,
      "ĠUI": 7502,
      "ĠTia": 7503,
      "ĠTurt": 7504,
      "Ġshovels": 7505,
      "driver": 7506,
      "hod": 7507,
      "Ġmerry": 7508,
      "fly": 7509,
      "ĠToot": 7510,
      "Ġdip": 7511,
      "allowed": 7512,
      "Ġprove": 7513,
      "Ġsurfboard": 7514,
      "Ġglee": 7515,
      "Ġsped": 7516,
      "parent": 7517,
      "Ġchip": 7518,
      "Ġfirefighters": 7519,
      "isc": 7520,
      "Ġmethod": 7521,
      "Ġreversed": 7522,
      "Ġstored": 7523,
      "Like": 7524,
      "ĠButton": 7525,
      "Ġwobble": 7526,
      "ĠAbbie": 7527,
      "Ġswallowed": 7528,
      "Ġslices": 7529,
      "eds": 7530,
      "Ġmate": 7531,
      "Ġflipped": 7532,
      "ashboard": 7533,
      "Ġdesigns": 7534,
      "Ġscored": 7535,
      "Ġsqueezing": 7536,
      "Ġdisturbing": 7537,
      "Ġrespond": 7538,
      "usty": 7539,
      "Ġaud": 7540,
      "ĠJump": 7541,
      "Frank": 7542,
      "osen": 7543,
      "awn": 7544,
      "die": 7545,
      "Ġchosen": 7546,
      "Ġmarkers": 7547,
      "Ġwaking": 7548,
      "Ġcons": 7549,
      "Sad": 7550,
      "Ġmaker": 7551,
      "aty": 7552,
      "iley": 7553,
      "Ġ=>": 7554,
      "Betty": 7555,
      "Ġintrigued": 7556,
      "ĠGrid": 7557,
      "Ġpuff": 7558,
      "ĠBarky": 7559,
      "Ġencouraging": 7560,
      "fall": 7561,
      "Items": 7562,
      "Ġsquishy": 7563,
      "ĠAng": 7564,
      "Ġcouple": 7565,
      "Ġhawk": 7566,
      "Back": 7567,
      "ints": 7568,
      "Ġslipping": 7569,
      "ĠFarmer": 7570,
      "pecting": 7571,
      "Ġignoring": 7572,
      "Ġfamiliar": 7573,
      "Label": 7574,
      "Ġgardener": 7575,
      "Ġhtml": 7576,
      "onies": 7577,
      "Ġscrewdriver": 7578,
      "Ġtigers": 7579,
      "Ġfrowns": 7580,
      "ĠSadly": 7581,
      "Ġev": 7582,
      "ashes": 7583,
      "ĠRon": 7584,
      "Ġrivers": 7585,
      "Ġfluttered": 7586,
      "ĠâĢĶ": 7587,
      "Car": 7588,
      "Ribbit": 7589,
      "Ġbru": 7590,
      "Ġsuits": 7591,
      "ĠEmmy": 7592,
      "ae": 7593,
      "bird": 7594,
      "Ġjars": 7595,
      "ĠRyan": 7596,
      "Ġtighter": 7597,
      "Ġsharks": 7598,
      "Ġsprinkled": 7599,
      "Ġfirefighter": 7600,
      "Ġtissue": 7601,
      "Ġtesting": 7602,
      "Ġgiggles": 7603,
      "Ġcreamy": 7604,
      "Ġfirmly": 7605,
      "Ġund": 7606,
      "Spike": 7607,
      "ening": 7608,
      "Ġperforming": 7609,
      "Ġtheme": 7610,
      "ĠLaura": 7611,
      "ĠWo": 7612,
      "Ġamount": 7613,
      "Ġthorns": 7614,
      "ounce": 7615,
      "ĠZee": 7616,
      "Ġfocus": 7617,
      "ably": 7618,
      "People": 7619,
      "ĠNick": 7620,
      "pload": 7621,
      "Ġaudience": 7622,
      "ĠPl": 7623,
      "Ġdrawers": 7624,
      "Ġgracefully": 7625,
      "Su": 7626,
      "Ġcrossing": 7627,
      "Ġcoloured": 7628,
      "Ġdaring": 7629,
      "Ġtodd": 7630,
      "ĠSe": 7631,
      "lle": 7632,
      "Ġcloudy": 7633,
      "Ġais": 7634,
      "addie": 7635,
      "Zoomy": 7636,
      "Ġaren": 7637,
      "ĠPatch": 7638,
      "Ġtested": 7639,
      "Ġyielded": 7640,
      "Ġpedaled": 7641,
      "Ġmixture": 7642,
      "Ġdisob": 7643,
      "Ġbits": 7644,
      "Ġhaircuts": 7645,
      "Ġstroke": 7646,
      "Ġtil": 7647,
      "Ġponies": 7648,
      "ĠLit": 7649,
      "ading": 7650,
      "ggy": 7651,
      "Ġwithin": 7652,
      "acing": 7653,
      "vered": 7654,
      "Ġcrowns": 7655,
      "ertical": 7656,
      "Ġplug": 7657,
      "Ġminded": 7658,
      "Ġnervously": 7659,
      "Ġpays": 7660,
      "Ġfoc": 7661,
      "Bang": 7662,
      "Ġfocused": 7663,
      "ĠSleep": 7664,
      "Ġrespected": 7665,
      "Ġhangers": 7666,
      "Frontend": 7667,
      "Ġnapped": 7668,
      "oring": 7669,
      "Ġopt": 7670,
      "ĠTurtle": 7671,
      "outer": 7672,
      "ddie": 7673,
      "Bessie": 7674,
      "Boys": 7675,
      "Ġheight": 7676,
      "Ġpeck": 7677,
      "addy": 7678,
      "dding": 7679,
      "ĠDiv": 7680,
      "Kim": 7681,
      "Ġsurfing": 7682,
      "alid": 7683,
      "romise": 7684,
      "ĠNear": 7685,
      "Am": 7686,
      "Open": 7687,
      "Ġsails": 7688,
      "Ġbeeh": 7689,
      "ĠUniversity": 7690,
      "Ġaddress": 7691,
      "());": 7692,
      "Ġcorrect": 7693,
      "idget": 7694,
      "ĠChris": 7695,
      "Ġshady": 7696,
      "Config": 7697,
      "Ġenthusiasm": 7698,
      "ĠTweetie": 7699,
      "ently": 7700,
      "rat": 7701,
      "Ġmagician": 7702,
      "Ġneighbours": 7703,
      "Ġwisely": 7704,
      "Ġteams": 7705,
      "Ġstitches": 7706,
      "ĠShow": 7707,
      "Ġdarl": 7708,
      "Ġthoughts": 7709,
      "Ġweekend": 7710,
      "Ġdarlings": 7711,
      "Dear": 7712,
      "Ġreminds": 7713,
      "fted": 7714,
      "Ġsurroundings": 7715,
      "Ġtemper": 7716,
      "lected": 7717,
      "iona": 7718,
      "Ġfleas": 7719,
      "Freddy": 7720,
      "ĠAlong": 7721,
      "Ġspits": 7722,
      "Ġfills": 7723,
      "Ġsports": 7724,
      "ĠCr": 7725,
      "Ġscooters": 7726,
      "Ġpaintbrush": 7727,
      "Katie": 7728,
      "antha": 7729,
      "Ġflip": 7730,
      "Ġelbow": 7731,
      "tha": 7732,
      "Ġlies": 7733,
      "Ġarr": 7734,
      "Ġlessons": 7735,
      "orter": 7736,
      "Ġposit": 7737,
      "Ġsignal": 7738,
      "version": 7739,
      "Guess": 7740,
      "Keep": 7741,
      "Se": 7742,
      "Ġstate": 7743,
      "Ġcleaner": 7744,
      "back": 7745,
      "uel": 7746,
      "Ġ0": 7747,
      "urious": 7748,
      "Ġoverride": 7749,
      "Ġmelons": 7750,
      "Ġpanicked": 7751,
      "Ġmermaid": 7752,
      "lit": 7753,
      "Ġ/>": 7754,
      "Ġsill": 7755,
      "oni": 7756,
      "Ġlongest": 7757,
      "Ġgrandchild": 7758,
      "Pippin": 7759,
      "ita": 7760,
      "Ġlent": 7761,
      "ĠFighting": 7762,
      "Ġforgiven": 7763,
      "Alright": 7764,
      "Ġbeehive": 7765,
      "En": 7766,
      "Ġbeloved": 7767,
      "Ġhoops": 7768,
      "Ġoysters": 7769,
      "Form": 7770,
      "ongrat": 7771,
      "immering": 7772,
      "SS": 7773,
      "class": 7774,
      "Series": 7775,
      "ongratul": 7776,
      "Ġrepeating": 7777,
      "Ġgrandparent": 7778,
      "oga": 7779,
      "Ġaction": 7780,
      "Ġtests": 7781,
      "Ġ14": 7782,
      "Ġdiscussed": 7783,
      "âĶ": 7784,
      "umbling": 7785,
      "Ġmagazines": 7786,
      "Ġcrew": 7787,
      "ibble": 7788,
      "ĠWise": 7789,
      "ĠThanks": 7790,
      "ialog": 7791,
      "steps": 7792,
      "ection": 7793,
      "Ġbathing": 7794,
      "erate": 7795,
      "onse": 7796,
      "ĠHolly": 7797,
      "Ġreass": 7798,
      "Ġbubb": 7799,
      "Ġsweetest": 7800,
      "ĠGranny": 7801,
      "Ġwadd": 7802,
      "Ġelf": 7803,
      "Ġtubes": 7804,
      "ĠMaya": 7805,
      "Ġbehavior": 7806,
      "ĠWilly": 7807,
      "Ġsprang": 7808,
      "Ġspoonful": 7809,
      "ript": 7810,
      "Ġunderstands": 7811,
      "Ġnightmares": 7812,
      "asty": 7813,
      "ĠZoey": 7814,
      "Ġneare": 7815,
      "Ġmanners": 7816,
      "Ġsweep": 7817,
      "Leave": 7818,
      "Ġbully": 7819,
      "Ġtrans": 7820,
      "Ġwrink": 7821,
      "ĠYet": 7822,
      "ancy": 7823,
      "Ġpolar": 7824,
      "ounced": 7825,
      "Ġbreathed": 7826,
      "while": 7827,
      "Ġdate": 7828,
      "Ġnur": 7829,
      "sol": 7830,
      "Jazz": 7831,
      "Ġnood": 7832,
      "Uncle": 7833,
      "onna": 7834,
      "ĠBally": 7835,
      "Ġsolving": 7836,
      "Ġfootsteps": 7837,
      "crow": 7838,
      "rap": 7839,
      "Ġsheets": 7840,
      "Ġgrassy": 7841,
      "ĠSparkle": 7842,
      "Ġcoug": 7843,
      "ntil": 7844,
      "Ġbrow": 7845,
      "Ġbulbs": 7846,
      "Ġrender": 7847,
      "Afterwards": 7848,
      "Ġspies": 7849,
      "Ġspeeding": 7850,
      "Ġdisplayed": 7851,
      "Ġwiggly": 7852,
      "Ġlicking": 7853,
      "ilda": 7854,
      "Ġaccess": 7855,
      "?!\"": 7856,
      "Ġscen": 7857,
      "Ġships": 7858,
      "Ġjoining": 7859,
      "Im": 7860,
      "een": 7861,
      "enu": 7862,
      "Ġbraver": 7863,
      "Ġmesmerized": 7864,
      "Ġcode": 7865,
      "ĠRoo": 7866,
      "Ġresults": 7867,
      "Ġhesitant": 7868,
      "Ġmast": 7869,
      "Ġmaster": 7870,
      "Ġinform": 7871,
      "igger": 7872,
      "undred": 7873,
      "ĠPuppy": 7874,
      "Ġcamel": 7875,
      "espite": 7876,
      "ĠWell": 7877,
      "span": 7878,
      "Ġrushing": 7879,
      "Which": 7880,
      "Over": 7881,
      "Ġpurpose": 7882,
      "Ġscattering": 7883,
      "Ġgreeted": 7884,
      "Ġanger": 7885,
      "ĠNobody": 7886,
      "orizontalLayout": 7887,
      "Even": 7888,
      "Ġmaterials": 7889,
      "Ġnuzz": 7890,
      "ĠMartha": 7891,
      "Kiki": 7892,
      "Ġpeacefully": 7893,
      "Ġdisc": 7894,
      "Ġspice": 7895,
      "Ġstacked": 7896,
      "action": 7897,
      "ĠLenny": 7898,
      "Ġworn": 7899,
      "Ġbusiness": 7900,
      "ĠUse": 7901,
      "Ġgonna": 7902,
      "Ġspills": 7903,
      "Ġevil": 7904,
      "Br": 7905,
      "rov": 7906,
      "Ġpolitely": 7907,
      "Ġterrified": 7908,
      "Ġbicycles": 7909,
      "Ġdonkey": 7910,
      "Ġmiles": 7911,
      "ĠSoft": 7912,
      "ĠMixy": 7913,
      "wise": 7914,
      "zoom": 7915,
      "Ġcertain": 7916,
      "Ġhealing": 7917,
      "Snow": 7918,
      "Ġaeroplanes": 7919,
      "Ġdump": 7920,
      "Ġknives": 7921,
      "Ġburying": 7922,
      "Ġloses": 7923,
      "Ġscarecrow": 7924,
      "Ġcells": 7925,
      "David": 7926,
      "ca": 7927,
      "Ġseals": 7928,
      "ĠNice": 7929,
      "Bee": 7930,
      "Penny": 7931,
      "freeze": 7932,
      "Ġworrying": 7933,
      "AR": 7934,
      "18": 7935,
      "Ġramp": 7936,
      "ĠTime": 7937,
      "ĠChewy": 7938,
      "amboo": 7939,
      "Ġplot": 7940,
      "beep": 7941,
      "ĠPh": 7942,
      "Ġpuzzled": 7943,
      "Ġgest": 7944,
      "cont": 7945,
      "Ġtravelled": 7946,
      "Ġgazing": 7947,
      "Ġcharacters": 7948,
      "Ġvalues": 7949,
      "ĠExample": 7950,
      "erticalLayout": 7951,
      "Hurry": 7952,
      "Ġ`": 7953,
      "rey": 7954,
      "ĠOkay": 7955,
      "opes": 7956,
      "Ġblast": 7957,
      "Ġtasting": 7958,
      "Ġbaskets": 7959,
      "Ġrows": 7960,
      "ĠWin": 7961,
      "ipes": 7962,
      "Ġdripping": 7963,
      "Ġsoaking": 7964,
      "ĠKip": 7965,
      "Ġtemperature": 7966,
      "Ġclue": 7967,
      "Ġrats": 7968,
      "Ġpinching": 7969,
      "Ġgap": 7970,
      "components": 7971,
      "Ġsever": 7972,
      "ĠĠĠĠĠĠĠĠĠĠĠĠĠĠĠĠĠĠĠĠĠĠĠ": 7973,
      "ĠChess": 7974,
      "Ġocc": 7975,
      "Two": 7976,
      "Ġbelieving": 7977,
      "Ġhumans": 7978,
      "ĠIsn": 7979,
      "Component": 7980,
      "ĠLitElement": 7981,
      "ĠTess": 7982,
      "Ġdetails": 7983,
      "Ġorders": 7984,
      "odel": 7985,
      "Ġbanged": 7986,
      "Ġpunishment": 7987,
      "Ġseveral": 7988,
      "da": 7989,
      "anwhile": 7990,
      "Ġswimmer": 7991,
      "Ġlayout": 7992,
      "Ġcurrent": 7993,
      "ĠTe": 7994,
      "Ġsandy": 7995,
      "ĠAbi": 7996,
      "Binky": 7997,
      "Ġhundred": 7998,
      "ofia": 7999,
      "Ġtoddler": 8000,
      "ppies": 8001,
      "ĠBad": 8002,
      "Ġjoins": 8003,
      "Ġcrashing": 8004,
      "Ġlanguages": 8005,
      "ĠSimon": 8006,
      "Dr": 8007,
      "ĠAna": 8008,
      "Ġrelaxing": 8009,
      "years": 8010,
      "Ġbackpacks": 8011,
      "Ġpermitted": 8012,
      "Root": 8013,
      "ĠLia": 8014,
      "ĠWendy": 8015,
      "ĠCon": 8016,
      "Ġbeeped": 8017,
      "Ġ17": 8018,
      "Ġflight": 8019,
      "Ġsnowflakes": 8020,
      "Ġfailed": 8021,
      "Ġslot": 8022,
      "Ġresisted": 8023,
      "Ġcovering": 8024,
      "),": 8025,
      "elie": 8026,
      "Instead": 8027,
      "Ġquarreled": 8028,
      "Ġmonths": 8029,
      "isions": 8030,
      "Ġdelayed": 8031,
      "ĠLuckily": 8032,
      "ĠFairy": 8033,
      "ĠCow": 8034,
      "Ġdressing": 8035,
      "Ġpotion": 8036,
      "Bow": 8037,
      "uild": 8038,
      "Ġencouragement": 8039,
      "Spe": 8040,
      "'.\"": 8041,
      "Ġtoward": 8042,
      "ĠMake": 8043,
      "abby": 8044,
      "Ġtwinkled": 8045,
      "Ġscraped": 8046,
      "Ġbenches": 8047,
      "ĠPerson": 8048,
      "ĠJojo": 8049,
      "Ġrisks": 8050,
      "ĠShadow": 8051,
      "ĠJudy": 8052,
      "acy": 8053,
      "Ġadults": 8054,
      "shm": 8055,
      "Ġexplains": 8056,
      "Ġwounds": 8057,
      "Ġbamboo": 8058,
      "Ġ>": 8059,
      "rier": 8060,
      "Ġcreams": 8061,
      "Ġlipstick": 8062,
      "Ġfreedom": 8063,
      "Ġfaded": 8064,
      "Ġannoyed": 8065,
      "tr": 8066,
      "Ġpoppies": 8067,
      "Tony": 8068,
      "Ġcheers": 8069,
      "Buzzy": 8070,
      "Kids": 8071,
      "Ġsniffing": 8072,
      "Type": 8073,
      "Ġbirdhouse": 8074,
      "Ġnoodles": 8075,
      "ĠHerb": 8076,
      "Ġopinions": 8077,
      "shmallow": 8078,
      "Ġnodding": 8079,
      "Ġfloats": 8080,
      "Birdy": 8081,
      "Ġflown": 8082,
      "Ġtearing": 8083,
      "ĠMarie": 8084,
      "ĠMint": 8085,
      "Ġpuck": 8086,
      "Ġease": 8087,
      "ecca": 8088,
      "Ġhandsome": 8089,
      "bell": 8090,
      "Ġsmelling": 8091,
      "bage": 8092,
      "ĠSay": 8093,
      "order": 8094,
      "andas": 8095,
      "Ġdrifted": 8096,
      "Ġpleaded": 8097,
      "Ġinformation": 8098,
      "Ġ6": 8099,
      "Ġslither": 8100,
      "Date": 8101,
      "Try": 8102,
      "Ġservice": 8103,
      "Ġsneezes": 8104,
      "Ġbothering": 8105,
      "Listener": 8106,
      "Ġinstruments": 8107,
      "Ġdamaged": 8108,
      "Ġinj": 8109,
      "group": 8110,
      "ĠSte": 8111,
      "ibility": 8112,
      "Ġburnt": 8113,
      "Ġscient": 8114,
      "Ġdep": 8115,
      "Ġresponse": 8116,
      "Ġwasting": 8117,
      "Goodnight": 8118,
      "ĠIm": 8119,
      "unched": 8120,
      "Ġpound": 8121,
      "Ġbrushing": 8122,
      "Ġgerm": 8123,
      "Ġhanding": 8124,
      "Ġdestroying": 8125,
      "Ġscientist": 8126,
      "name": 8127,
      "Ġdecisions": 8128,
      "Ġsweaty": 8129,
      "Fl": 8130,
      "Ġdreamt": 8131,
      "Pandy": 8132,
      "alse": 8133,
      "Ġtalents": 8134,
      "Ġconnected": 8135,
      "Ġactive": 8136,
      "Ġseller": 8137,
      "ĠAli": 8138,
      "ĠJanie": 8139,
      "Mira": 8140,
      "ets": 8141,
      "ĠRazor": 8142,
      "Ġhiss": 8143,
      "ĠMabel": 8144,
      "ĠPen": 8145,
      "Behind": 8146,
      "Carl": 8147,
      "Ġonward": 8148,
      "package": 8149,
      "Mat": 8150,
      "rem": 8151,
      "ĠHug": 8152,
      "ousy": 8153,
      "point": 8154,
      "isible": 8155,
      "Ġswitched": 8156,
      "ptions": 8157,
      "Ġbravest": 8158,
      "atar": 8159,
      "Ġsnuck": 8160,
      "Ġsternly": 8161,
      "ĠShare": 8162,
      "Ġapologised": 8163,
      "ariant": 8164,
      "Ġtuck": 8165,
      "inny": 8166,
      "Ġsqueaked": 8167,
      "Ġreminding": 8168,
      "Ġengines": 8169,
      "Ġstomp": 8170,
      "prints": 8171,
      "Ġtreated": 8172,
      "Ġbitten": 8173,
      "orking": 8174,
      "ĠPoor": 8175,
      "Ġminds": 8176,
      "Ġpostman": 8177,
      "cake": 8178,
      "Ġannot": 8179,
      "ĠRobbie": 8180,
      "ashing": 8181,
      "hel": 8182,
      "Ġscares": 8183,
      "Ġmosquitoes": 8184,
      "Too": 8185,
      "ĠJudge": 8186,
      "ER": 8187,
      "Ġpeeled": 8188,
      "Ġtypes": 8189,
      "attered": 8190,
      "Ġinsp": 8191,
      "Ġpurrs": 8192,
      "chy": 8193,
      "Ġplanting": 8194,
      "ĠBra": 8195,
      "Ġsmashed": 8196,
      "ĠEverybody": 8197,
      "Ġsingers": 8198,
      "Ġneatly": 8199,
      "Ġtilted": 8200,
      "rup": 8201,
      "uffin": 8202,
      "ĠUntil": 8203,
      "aver": 8204,
      "Ġrustling": 8205,
      "Ġyumm": 8206,
      "Ġbellies": 8207,
      "Ġhoo": 8208,
      "ĠBess": 8209,
      "Ġmatey": 8210,
      "Ġshines": 8211,
      "ĠNavy": 8212,
      "Ġyelped": 8213,
      "Ġelement": 8214,
      "Ġzooms": 8215,
      "Shrink": 8216,
      "Ġwider": 8217,
      "Ġscamp": 8218,
      "Ġdecl": 8219,
      "Ġcombed": 8220,
      "Ġmarshmallow": 8221,
      "Ġcoloring": 8222,
      "Ġgrandparents": 8223,
      "Ġforce": 8224,
      "Ġcracks": 8225,
      "Play": 8226,
      "Ġass": 8227,
      "Ġchecks": 8228,
      "Ġedges": 8229,
      "Ġbreathing": 8230,
      "Ġrequ": 8231,
      "Ġprobably": 8232,
      "Ġdespite": 8233,
      "Ġnasty": 8234,
      "Ġwaterfall": 8235,
      "ighing": 8236,
      "vant": 8237,
      "hent": 8238,
      "Ġadds": 8239,
      "ĠYoga": 8240,
      "ĠAngel": 8241,
      "rovider": 8242,
      "Ġpandas": 8243,
      "Render": 8244,
      "Tilly": 8245,
      "Wake": 8246,
      "Ġantic": 8247,
      "ĠFishy": 8248,
      "Ġgesture": 8249,
      "father": 8250,
      "Ġdoorway": 8251,
      "Ġsweaters": 8252,
      "Aunt": 8253,
      "Ġrobbers": 8254,
      "ĠMeg": 8255,
      "Abigail": 8256,
      "fire": 8257,
      "Ġvalid": 8258,
      "Liz": 8259,
      "person": 8260,
      "ĠMichael": 8261,
      "ĠTodd": 8262,
      "Ġencount": 8263,
      "Ġlocal": 8264,
      "Ġechoed": 8265,
      "Ġdisobey": 8266,
      "off": 8267,
      "Ġswap": 8268,
      "Ġsets": 8269,
      "evin": 8270,
      "Ġgobbled": 8271,
      "ĠPop": 8272,
      "Ġtaped": 8273,
      "create": 8274,
      "ĠLoop": 8275,
      "Ġbacks": 8276,
      "Ġserving": 8277,
      "ĠText": 8278,
      "ilter": 8279,
      "Ġflaps": 8280,
      "Ġscolds": 8281,
      "('": 8282,
      "Lena": 8283,
      "Ġcollap": 8284,
      "Ġstudent": 8285,
      "Ġconfiguration": 8286,
      "ĠEddie": 8287,
      "oscope": 8288,
      "Slow": 8289,
      "Ġplucked": 8290,
      "Ġbecomes": 8291,
      "Ġ+": 8292,
      "Ġclient": 8293,
      "ĠBlinky": 8294,
      "cri": 8295,
      "mies": 8296,
      "Ġouch": 8297,
      "Ġwarri": 8298,
      "ironment": 8299,
      "Ġnewspapers": 8300,
      "Rock": 8301,
      "Ros": 8302,
      "Ġshinier": 8303,
      "ubba": 8304,
      "Ġcrawls": 8305,
      "tock": 8306,
      "Ġgoo": 8307,
      "Ġsteth": 8308,
      "ĠGary": 8309,
      "Ġwhistles": 8310,
      "Ġsimply": 8311,
      "found": 8312,
      "Ġmood": 8313,
      "iel": 8314,
      "word": 8315,
      "ĠMindy": 8316,
      "Ġshorter": 8317,
      "Ġcares": 8318,
      "Adam": 8319,
      "Ġsens": 8320,
      "Ġsquaw": 8321,
      "!--": 8322,
      "ĠHo": 8323,
      "Ġquieter": 8324,
      "Steve": 8325,
      "ĠNut": 8326,
      "Ġ-->": 8327,
      "Sty": 8328,
      "Ted": 8329,
      "Ġdoorbell": 8330,
      "Ġjava": 8331,
      "Ġspy": 8332,
      "Ġcausing": 8333,
      "ollen": 8334,
      "RenderRoot": 8335,
      "ency": 8336,
      "Only": 8337,
      "Ġrescuing": 8338,
      "Ġcommon": 8339,
      "Ġswollen": 8340,
      "ĠapplyTheme": 8341,
      "Ġthroughout": 8342,
      "Ġcottage": 8343,
      "Ġastronauts": 8344,
      "ĠTri": 8345,
      "ĠSet": 8346,
      "ulp": 8347,
      "ears": 8348,
      "Zara": 8349,
      "Ġgrandson": 8350,
      "Ġaware": 8351,
      "Ġbothered": 8352,
      "Ġnav": 8353,
      "retty": 8354,
      "Ġtrusting": 8355,
      "Ġaccidents": 8356,
      "Ġsnaps": 8357,
      "Ġlocks": 8358,
      "abelle": 8359,
      "Ġcond": 8360,
      "Ġunpacking": 8361,
      "ĠPrince": 8362,
      "anie": 8363,
      "asic": 8364,
      "Red": 8365,
      "imit": 8366,
      "ĠMousy": 8367,
      "html": 8368,
      "Ġprayers": 8369,
      "rest": 8370,
      "ssss": 8371,
      "Ġchar": 8372,
      "ĠDina": 8373,
      "rie": 8374,
      "Ġdresser": 8375,
      "unity": 8376,
      "ibi": 8377,
      "Ġstethoscope": 8378,
      "Hannah": 8379,
      "Magic": 8380,
      "Ġrunner": 8381,
      "Thomas": 8382,
      "Ġsou": 8383,
      "aint": 8384,
      "ĠZippy": 8385,
      "Ġpills": 8386,
      "Ġjoyful": 8387,
      "what": 8388,
      "Olive": 8389,
      "export": 8390,
      "Box": 8391,
      "mates": 8392,
      "ĠCro": 8393,
      "Jamie": 8394,
      "lied": 8395,
      "Ġleapt": 8396,
      "Ġmunch": 8397,
      "arts": 8398,
      "ĠNe": 8399,
      "ĠWait": 8400,
      "Ġmanager": 8401,
      "Ġlowered": 8402,
      "Mon": 8403,
      "ĠToys": 8404,
      "custom": 8405,
      "Ġflips": 8406,
      "ĠComponent": 8407,
      "ĠJackie": 8408,
      "Ġexplorer": 8409,
      "osite": 8410,
      "Ġproperties": 8411,
      "ĠBang": 8412,
      "ĠKaren": 8413,
      "Ġmodels": 8414,
      "ON": 8415,
      "Ġinches": 8416,
      "Ġparam": 8417,
      "artled": 8418,
      "Ġgoats": 8419,
      "Ġenvironment": 8420,
      "Ġpackages": 8421,
      "Ġwaddled": 8422,
      "Ġstepping": 8423,
      "Ġteachers": 8424,
      "ĠReady": 8425,
      "sers": 8426,
      "Ġdears": 8427,
      "ĠRuff": 8428,
      "Ġenvelopes": 8429,
      "Ġdet": 8430,
      "Finn": 8431,
      "Ġknocking": 8432,
      "Ġanticip": 8433,
      "che": 8434,
      "ĠRalph": 8435,
      "Ġ<!--": 8436,
      "Ġefforts": 8437,
      "Ġtrigger": 8438,
      "Ġcowboy": 8439,
      "ivi": 8440,
      "ĠVroom": 8441,
      "Nice": 8442,
      "Ġuniforms": 8443,
      "Ġattack": 8444,
      "Ġlapt": 8445,
      "ogress": 8446,
      "oosh": 8447,
      "stem": 8448,
      "ĠRia": 8449,
      "ĠAr": 8450,
      "ĠJacky": 8451,
      "Ġfloors": 8452,
      "Ġwhimp": 8453,
      "Ġfootprints": 8454,
      "Someone": 8455,
      "Ġtrot": 8456,
      "Ġnearly": 8457,
      "Ġglitt": 8458,
      "Ġappreciation": 8459,
      "IN": 8460,
      "llas": 8461,
      "ĠFiona": 8462,
      "Ġ});": 8463,
      "ĠDavey": 8464,
      "Variant": 8465,
      "Ġprick": 8466,
      "cent": 8467,
      "Ġnecks": 8468,
      "Ġcharge": 8469,
      "Ġstamped": 8470,
      "Tree": 8471,
      "build": 8472,
      "Ġvisitors": 8473,
      "Ġfluttering": 8474,
      "rily": 8475,
      "Ġstatues": 8476,
      "Ġpresented": 8477,
      "Ġumbrellas": 8478,
      "Flow": 8479,
      "Hoppy": 8480,
      "Ġfinishing": 8481,
      "Ġshrank": 8482,
      "Ġsandcastles": 8483,
      ".'\"": 8484,
      "arrow": 8485,
      "ĠHoney": 8486,
      "Ġbrowser": 8487,
      "fus": 8488,
      "Ġclicked": 8489,
      "Ġclosing": 8490,
      "ĠGl": 8491,
      "Ġhunters": 8492,
      "Ġstroll": 8493,
      "Picker": 8494,
      "rons": 8495,
      "Ġbounces": 8496,
      "Ġdodged": 8497,
      "Ġweeds": 8498,
      "Ġchocolates": 8499,
      "Ġcustomer": 8500,
      "Ġgerms": 8501,
      "issa": 8502,
      "ĠAmelia": 8503,
      "Ġaisle": 8504,
      "Ġwrigg": 8505,
      "Ġaprons": 8506,
      "Ġpassengers": 8507,
      "Ġdemanding": 8508,
      "Ġscratching": 8509,
      "iscuit": 8510,
      "12": 8511,
      "Ġsupplied": 8512,
      "ĠSadie": 8513,
      "Ġlaptop": 8514,
      "Ġminding": 8515,
      "Ġnovels": 8516,
      "urrender": 8517,
      "ĠAlthough": 8518,
      "po": 8519,
      "ĠTaking": 8520,
      "Ġdriveway": 8521,
      "Ġburns": 8522,
      "oger": 8523,
      "ĠGerry": 8524,
      "ĠMan": 8525,
      "Ġmeows": 8526,
      "cument": 8527,
      "domain": 8528,
      "Ġdiscussing": 8529,
      "Ġnurses": 8530,
      "Ġkilled": 8531,
      "Ġalthough": 8532,
      "ĠDespite": 8533,
      "Ġmessages": 8534,
      "Ġtoolbox": 8535,
      "Ġerase": 8536,
      "ĠCari": 8537,
      "screen": 8538,
      "Ġdefin": 8539,
      "Ġdeed": 8540,
      "Ġfriendships": 8541,
      "Speedy": 8542,
      "Lucky": 8543,
      "column": 8544,
      "Ġsprays": 8545,
      "ĠSpan": 8546,
      "ĠEliz": 8547,
      "Coco": 8548,
      "Ġscampered": 8549,
      "iment": 8550,
      "Ġhaird": 8551,
      "Ġslapping": 8552,
      "Ġtwists": 8553,
      "Ġrays": 8554,
      "Ġbelongings": 8555,
      "Ġsuggestion": 8556,
      "Ġali": 8557,
      "Does": 8558,
      "Ġspringing": 8559,
      "Ġghosts": 8560,
      "ĠStan": 8561,
      "Ġtempt": 8562,
      "Ġinvites": 8563,
      "Ġproduct": 8564,
      "Ġanticipation": 8565,
      "shadow": 8566,
      "Options": 8567,
      "Ġ[": 8568,
      "Ġnewfound": 8569,
      "Arrr": 8570,
      "Ġmommies": 8571,
      "Ġforgives": 8572,
      "Ġmassages": 8573,
      "ilities": 8574,
      "Ġshall": 8575,
      "Ġcarries": 8576,
      "uster": 8577,
      "udged": 8578,
      "Ġcotton": 8579,
      "PI": 8580,
      "ckbox": 8581,
      "alloween": 8582,
      "Ġaim": 8583,
      "Ġexpecting": 8584,
      "Ġhumming": 8585,
      "Ġnull": 8586,
      "Ġresponded": 8587,
      "ĠMuffin": 8588,
      "Ġsnuggle": 8589,
      "ĠZipper": 8590,
      "Ġtraveling": 8591,
      "Ġrefreshing": 8592,
      "Gigi": 8593,
      "Since": 8594,
      "Ġcheated": 8595,
      "ĠWooly": 8596,
      "Icon": 8597,
      "rever": 8598,
      "ending": 8599,
      "Ġinvitations": 8600,
      "oration": 8601,
      "ĠPo": 8602,
      "Ġexplod": 8603,
      "Ġbattle": 8604,
      "Change": 8605,
      "Mouse": 8606,
      "ĠShelly": 8607,
      "ĠBumpy": 8608,
      "otte": 8609,
      "Ġduckling": 8610,
      "OM": 8611,
      "Ġtwenty": 8612,
      "ĠReact": 8613,
      "Ġdesigning": 8614,
      "Ġcorrectly": 8615,
      "Both": 8616,
      "Pip": 8617,
      "ĠHalloween": 8618,
      "ators": 8619,
      "Ġcafe": 8620,
      "Ġsquir": 8621,
      "Ġreturning": 8622,
      "idth": 8623,
      "Ġrowed": 8624,
      "for": 8625,
      "Ġbeaver": 8626,
      "ĠFe": 8627,
      "Ġfoxes": 8628,
      "arlotte": 8629,
      "cies": 8630,
      "Ġconvers": 8631,
      "ĠExcited": 8632,
      "Script": 8633,
      "Ġroute": 8634,
      "Ġconvin": 8635,
      "ĠNever": 8636,
      "Ġjets": 8637,
      "Ġmarshmallows": 8638,
      "ecurity": 8639,
      "inted": 8640,
      "ots": 8641,
      "ugging": 8642,
      "Ġmugs": 8643,
      "ĠWhoever": 8644,
      "Ġstrips": 8645,
      "Ġopposite": 8646,
      "face": 8647,
      "Ġcongratul": 8648,
      "ĠBibi": 8649,
      "five": 8650,
      "Ġ8": 8651,
      "ooks": 8652,
      "Ġdrown": 8653,
      "Ġtravels": 8654,
      "ĠHello": 8655,
      "rib": 8656,
      "ĠMaddie": 8657,
      "Ġclip": 8658,
      "âĢ¦": 8659,
      "stalk": 8660,
      "ĠRuth": 8661,
      "Ġattem": 8662,
      "Ġpicnics": 8663,
      "Choo": 8664,
      "items": 8665,
      "ĠSpeed": 8666,
      "Prop": 8667,
      "Sadly": 8668,
      "Elly": 8669,
      "atty": 8670,
      "Ġmemb": 8671,
      "Ġgrandfather": 8672,
      "Ġscoops": 8673,
      "Ġmembers": 8674,
      "Ġaliens": 8675,
      "Near": 8676,
      "fr": 8677,
      "lication": 8678,
      "ifact": 8679,
      "Ġdefe": 8680,
      "Ġtricycle": 8681,
      "cr": 8682,
      "omb": 8683,
      "covered": 8684,
      "ĠVivi": 8685,
      "Ġinstance": 8686,
      "reverse": 8687,
      "sa": 8688,
      "roken": 8689,
      "Ġquestioned": 8690,
      "ĠFlutter": 8691,
      "Ġencountered": 8692,
      "aturday": 8693,
      "Find": 8694,
      "Hmm": 8695,
      "Nav": 8696,
      "router": 8697,
      "iri": 8698,
      "rian": 8699,
      "Ġafford": 8700,
      "unction": 8701,
      "Ġfights": 8702,
      "Chloe": 8703,
      "Ball": 8704,
      "ended": 8705,
      "ĠTruck": 8706,
      "ĠBubba": 8707,
      "User": 8708,
      "Jess": 8709,
      "ĠRita": 8710,
      "Ġrealizes": 8711,
      "Ġraising": 8712,
      "Ġupside": 8713,
      "Ġwinners": 8714,
      "Ġcalmly": 8715,
      "Meanwhile": 8716,
      "ĠBiggy": 8717,
      "Ġflashed": 8718,
      "Ġlistener": 8719,
      "byes": 8720,
      "=\"${": 8721,
      "Trust": 8722,
      "Ġexcept": 8723,
      "Ġcupcakes": 8724,
      "Josh": 8725,
      "Ġsincere": 8726,
      "Ġbuddy": 8727,
      "itor": 8728,
      "ĠSamantha": 8729,
      "Ġcaw": 8730,
      "ĠSaturday": 8731,
      "igation": 8732,
      "ogin": 8733,
      "Ġyawning": 8734,
      "Ġcoach": 8735,
      "ĠAnother": 8736,
      "Ġmesses": 8737,
      "ĠSofty": 8738,
      "Ġgoodbyes": 8739,
      "asha": 8740,
      "Ġcheat": 8741,
      "Ġbuckled": 8742,
      "ĠYawn": 8743,
      "ĠMegan": 8744,
      "ris": 8745,
      "ĠMina": 8746,
      "Ġcrystals": 8747,
      "Ġweapons": 8748,
      "Ġsacks": 8749,
      "Ġunable": 8750,
      "ĠOh": 8751,
      "Ġrely": 8752,
      "ĠEva": 8753,
      "Ġenem": 8754,
      "Ġstatic": 8755,
      "Ġadmiration": 8756,
      "Ġenemies": 8757,
      "example": 8758,
      "Ġswallow": 8759,
      "Ġprevented": 8760,
      "ĠLouise": 8761,
      "App": 8762,
      "Ġproviding": 8763,
      "ĠTy": 8764,
      "Ġyummiest": 8765,
      "Grow": 8766,
      "ĠInt": 8767,
      "alth": 8768,
      "Ġbrightest": 8769,
      "ĠFlo": 8770,
      "ĠPlaying": 8771,
      "pop": 8772,
      "Ġreapp": 8773,
      "Ġsadder": 8774,
      "Ġcosy": 8775,
      "Ġgarbage": 8776,
      "Ġbless": 8777,
      "ĠGray": 8778,
      "Ġcaps": 8779,
      "Ġfreezing": 8780,
      "Ġdeclared": 8781,
      "cie": 8782,
      "Ġdragonfly": 8783,
      "Ġjourneys": 8784,
      "Ġrout": 8785,
      "Ġodd": 8786,
      "ources": 8787,
      "Ġopport": 8788,
      "she": 8789,
      "vy": 8790,
      "aboration": 8791,
      "Ġid": 8792,
      "ĠSofia": 8793,
      "Ġcleared": 8794,
      "ĠJolly": 8795,
      "Ġsprout": 8796,
      "Ġspices": 8797,
      "Ġstretches": 8798,
      "Ġdiamonds": 8799,
      "Ġwhispering": 8800,
      "Ġstall": 8801,
      "Ġsecurity": 8802,
      "Ġstuffing": 8803,
      "Ġhonking": 8804,
      "hentication": 8805,
      "Ġborn": 8806,
      "Ġbride": 8807,
      "Ġwhoever": 8808,
      "Ġautomobiles": 8809,
      "Ġawful": 8810,
      "ruct": 8811,
      "ici": 8812,
      "antastic": 8813,
      "ĠMissile": 8814,
      "Ġweighs": 8815,
      "Ġdefinitely": 8816,
      "Hop": 8817,
      "Rep": 8818,
      "Ġbeanstalk": 8819,
      "React": 8820,
      ",'": 8821,
      "Brrr": 8822,
      "erk": 8823,
      "ivia": 8824,
      "Ġtraps": 8825,
      "Provider": 8826,
      "Ġawoke": 8827,
      "Ġcustomers": 8828,
      "Ġhonesty": 8829,
      "broken": 8830,
      "Ġill": 8831,
      "Ġplaydate": 8832,
      "ĠElle": 8833,
      "Ġexamining": 8834,
      "Ġoffering": 8835,
      "Ġwashes": 8836,
      "Ġtravelling": 8837,
      "Ġreassured": 8838,
      "ĠRel": 8839,
      "Ġwiser": 8840,
      "Ġbeetles": 8841,
      "true": 8842,
      "match": 8843,
      "Ġtumbled": 8844,
      "Ġself": 8845,
      "Ġoccas": 8846,
      "ĠNutty": 8847,
      "Ġbou": 8848,
      "Ġwealth": 8849,
      "Ġloudest": 8850,
      "emma": 8851,
      "Ġbouqu": 8852,
      "ĠChick": 8853,
      "Ġincreasing": 8854,
      "Message": 8855,
      "mine": 8856,
      "yl": 8857,
      "ĠNurse": 8858,
      "Ġtroubles": 8859,
      "Ġgroan": 8860,
      "Ġinspired": 8861,
      "Ġbomb": 8862,
      "anced": 8863,
      "ĠMaisy": 8864,
      "Ġparted": 8865,
      "orse": 8866,
      "ĠFlop": 8867,
      "Ġ*/": 8868,
      "Rachel": 8869,
      "Vaadin": 8870,
      "ĠCook": 8871,
      "Ġwelcoming": 8872,
      "Ġimagin": 8873,
      "Ġ16": 8874,
      "Ġcampfire": 8875,
      "ebecca": 8876,
      "Ġdecoration": 8877,
      "bbing": 8878,
      "Ġargument": 8879,
      "Ġhairdress": 8880,
      "Ġwhales": 8881,
      "ĠOt": 8882,
      "irac": 8883,
      "ellow": 8884,
      "ĠRicky": 8885,
      "Ġexch": 8886,
      "ĠData": 8887,
      "Ġcraft": 8888,
      "color": 8889,
      "ufus": 8890,
      "ĠAny": 8891,
      "Should": 8892,
      "Ġ11": 8893,
      "Ġnuzzled": 8894,
      "ĠFly": 8895,
      "ĠJax": 8896,
      "ĠPin": 8897,
      "athan": 8898,
      "roll": 8899,
      "velop": 8900,
      "ĠThunder": 8901,
      "Ġbeaks": 8902,
      "Ġthreads": 8903,
      "ĠQuacky": 8904,
      "Ġrewards": 8905,
      "Ġcowboys": 8906,
      "Each": 8907,
      "Ġcolumn": 8908,
      "Ġwarmly": 8909,
      "shaped": 8910,
      "Finny": 8911,
      "Ġrecorder": 8912,
      "Ġapproach": 8913,
      "Ġshares": 8914,
      "Ġdollar": 8915,
      "Ġcomforting": 8916,
      "ĠFlappy": 8917,
      "Ġobeyed": 8918,
      "Ġowns": 8919,
      "Ġprizes": 8920,
      "Ġsirens": 8921,
      "ĠFel": 8922,
      "Ġsupporting": 8923,
      "Ġinsisting": 8924,
      "Julie": 8925,
      "Lit": 8926,
      "Ġcleans": 8927,
      "Ġtowns": 8928,
      "Outside": 8929,
      "Ġbends": 8930,
      "Ġexperien": 8931,
      "ĠDotty": 8932,
      "elieve": 8933,
      "Up": 8934,
      "ooky": 8935,
      "Ġspoiling": 8936,
      "Ġwrinkled": 8937,
      "Honey": 8938,
      "Ġfantastic": 8939,
      "input": 8940,
      "Ġmoons": 8941,
      "Sun": 8942,
      "Ġpipes": 8943,
      "ĠCloud": 8944,
      "Menu": 8945,
      "bl": 8946,
      "ĠCSS": 8947,
      "Ġoffic": 8948,
      "Ġshorts": 8949,
      "Ġsurrendered": 8950,
      "Ġbeaming": 8951,
      "Beth": 8952,
      "Ed": 8953,
      "Ġscurry": 8954,
      "tsx": 8955,
      "ded": 8956,
      "unes": 8957,
      "ĠBingo": 8958,
      "ĠMother": 8959,
      "ĠJu": 8960,
      "Ġhairdresser": 8961,
      "view": 8962,
      "atitude": 8963,
      "Ġposes": 8964,
      "Ġthanking": 8965,
      "Ġsnowy": 8966,
      "rench": 8967,
      "Ġchopped": 8968,
      "ĠVicky": 8969,
      "ĠWolf": 8970,
      "Ġcoral": 8971,
      "boards": 8972,
      "Ġconsider": 8973,
      "Ġenjoyable": 8974,
      "Ġstreamers": 8975,
      "Suzy": 8976,
      "Ġdocument": 8977,
      "elope": 8978,
      "ĠAPI": 8979,
      "ĠKevin": 8980,
      "Class": 8981,
      "<>": 8982,
      "ĠPiggy": 8983,
      "ĠHilla": 8984,
      "Ġbruises": 8985,
      "Je": 8986,
      "ouble": 8987,
      "Ġexpression": 8988,
      "ĠLuc": 8989,
      "Ġscent": 8990,
      "Ġvisits": 8991,
      "Ġshooed": 8992,
      "Ġexercises": 8993,
      "ĠElsa": 8994,
      "worm": 8995,
      "inger": 8996,
      "Ġhisses": 8997,
      "ĠPatty": 8998,
      "Ġchoosing": 8999,
      "Ġplugged": 9000,
      "ĠZack": 9001,
      "Ġnibble": 9002,
      "ĠLight": 9003,
      "Ġdangers": 9004,
      "ĠRub": 9005,
      "Ġsteering": 9006,
      "Ġnearest": 9007,
      "Use": 9008,
      "Ġ&": 9009,
      "Ġsigning": 9010,
      "Ġfet": 9011,
      "alf": 9012,
      "Ġcuddles": 9013,
      "Ray": 9014,
      "Ġicon": 9015,
      "Ġting": 9016,
      "irl": 9017,
      "(),": 9018,
      "Ġerror": 9019,
      "Ġactivity": 9020,
      "Ġattempt": 9021,
      "aptain": 9022,
      "Ġgratitude": 9023,
      "Ġsquished": 9024,
      "cat": 9025,
      "ĠMin": 9026,
      "ĠMoppy": 9027,
      "icate": 9028,
      "Ġsunscreen": 9029,
      "ĠKelly": 9030,
      "erer": 9031,
      "Ġwarrior": 9032,
      "Ġ);": 9033,
      "Ġdisappoint": 9034,
      "Ġpilots": 9035,
      "Ġapplauding": 9036,
      "Abby": 9037,
      "')": 9038,
      "val": 9039,
      "abra": 9040,
      "Ġunfortunately": 9041,
      "ĠPine": 9042,
      "Ġhooks": 9043,
      "Ġconvinced": 9044,
      "ching": 9045,
      "ĠAg": 9046,
      "Ġstorms": 9047,
      "raw": 9048,
      "Ġarranged": 9049,
      "px": 9050,
      "sess": 9051,
      "bee": 9052,
      "Ġmeaning": 9053,
      "Ġnights": 9054,
      "Ġtickles": 9055,
      "Claire": 9056,
      "Joy": 9057,
      "munk": 9058,
      "ĠJoan": 9059,
      "Ġcoughed": 9060,
      "ĠTweety": 9061,
      "Ġrails": 9062,
      "Ġannoying": 9063,
      "asers": 9064,
      "Ġtapping": 9065,
      "Ġpasses": 9066,
      "Ġpeep": 9067,
      "ML": 9068,
      "good": 9069,
      "vious": 9070,
      "Ġlaces": 9071,
      "Ġbadger": 9072,
      "ĠKay": 9073,
      "ĠKaty": 9074,
      "Ġbrains": 9075,
      "ĠElsie": 9076,
      "ĠSweet": 9077,
      "Ġyoun": 9078,
      "Ġbond": 9079,
      "Ġrewarding": 9080,
      "Ġexploded": 9081,
      "Splash": 9082,
      "Ġtin": 9083,
      "Ġweighing": 9084,
      "Ġstores": 9085,
      "Ġyoungest": 9086,
      "ps": 9087,
      "atically": 9088,
      "ĠSal": 9089,
      "ĠPick": 9090,
      "meow": 9091,
      "Ġsoapy": 9092,
      "ĠFloppy": 9093,
      "Ġemerged": 9094,
      "Danger": 9095,
      "ĠTippy": 9096,
      "Ġheartbroken": 9097,
      "water": 9098,
      "Ġclerk": 9099,
      "ization": 9100,
      "Ġtops": 9101,
      "Ġappreciated": 9102,
      "Ġparticularly": 9103,
      "Ġcrocodiles": 9104,
      "eng": 9105,
      "Ġsnug": 9106,
      "ircle": 9107,
      "Ġfinishes": 9108,
      "Ġmessed": 9109,
      "ĠPhil": 9110,
      "Ġcongratulated": 9111,
      "ĠBaa": 9112,
      "Ġbathed": 9113,
      "Ġscram": 9114,
      "Ġmasterp": 9115,
      "lo": 9116,
      "Ahoy": 9117,
      "Ġsoot": 9118,
      "Ġguarding": 9119,
      "ĠJonny": 9120,
      "Lizzy": 9121,
      "part": 9122,
      "ĠSil": 9123,
      "ortunately": 9124,
      "Ġmult": 9125,
      "Momma": 9126,
      "Ġobserving": 9127,
      "Ġtips": 9128,
      "Bub": 9129,
      "Friends": 9130,
      "ĠMagic": 9131,
      "ĠNancy": 9132,
      "ĠMicroscope": 9133,
      "ĠMore": 9134,
      "Ġchipmunk": 9135,
      "Par": 9136,
      "Anne": 9137,
      "Ġsituations": 9138,
      "etah": 9139,
      "Ġdigs": 9140,
      "Ġerasers": 9141,
      "Snowy": 9142,
      "Ġnib": 9143,
      "ĠHopper": 9144,
      "Ġnibbled": 9145,
      "vous": 9146,
      "Ġbeast": 9147,
      "ĠTomorrow": 9148,
      "Ġchews": 9149,
      "ify": 9150,
      "Ġcheaper": 9151,
      "Ġcheetah": 9152,
      "Ġmischie": 9153,
      "Ġshortcut": 9154,
      "Ġbouquet": 9155,
      "Ġexperienced": 9156,
      "Ġmischievous": 9157,
      "Cindy": 9158,
      "Ġfaith": 9159,
      "Ġblond": 9160,
      "ĠDe": 9161,
      "ĠCici": 9162,
      "Ġkinder": 9163,
      "Ġinstantly": 9164,
      "ĠSwing": 9165,
      "Ġearned": 9166,
      "Ġtrotted": 9167,
      "onnie": 9168,
      "Ġcontainer": 9169,
      "Ġforgiveness": 9170,
      "Ġcollapsed": 9171,
      "ĠHelping": 9172,
      "mered": 9173,
      "ĠJumpy": 9174,
      "Ġgenerosity": 9175,
      "iolet": 9176,
      "Ġrips": 9177,
      "Ġ7": 9178,
      "Ġmeowing": 9179,
      "Widget": 9180,
      "Ġfif": 9181,
      "ocal": 9182,
      "Ġfilter": 9183,
      "Ġfishes": 9184,
      "Baa": 9185,
      "Sque": 9186,
      "Ġcurl": 9187,
      "Ġgrandd": 9188,
      "theme": 9189,
      "Ġtransform": 9190,
      "ĠTextField": 9191,
      "Count": 9192,
      "Ġcages": 9193,
      "Ġfoam": 9194,
      "Ġgasps": 9195,
      "etchup": 9196,
      "Ġaccomplished": 9197,
      "Context": 9198,
      "Style": 9199,
      "ĠTre": 9200,
      "Ġlimp": 9201,
      "ĠJoke": 9202,
      "Ġsleeps": 9203,
[...]
